10111101010001001101100101100000
10111101001110111011101101110111
10111011010011001100110010000011
10111100101111100011000001010101
10111011001010101101110010000110
10111011111110101100011110111000
10111100110011101000101110011110
00111101010000111000110010111111
00111100101100011100110111111101
10111101010000111110011101010100
10111101001110101000000111101011
10111101101010110010100010000010
00111100000111011001100000110010
00111101100100001011011110000011
10111100000011000000110111000011
10111010000100110110010000110000
00111101100010100010110001010111
00111101011100101011010000010110
10111101000100101010000000010011
00111100000101010001001100001010
00111101011100101100111000010100
00111101010011100100110111011100
00111101001000101110101010110000
00111010100010111000000100000101
00111011101110000101100100101101
10111100100111010100101000110000
10111100000110111110101001010101
10111100110100111000110011000010
10111100111111110011010000000110
00111100101110000010001001101000
10111011010011101110001100110001
10111101001011110111100001010110
00111100111100010100100010111110
10111101010001001001000011001100
00111101000011111110101110111000
10111010010111100001110011010010
00111101010110010000100001100010
10111100111100000001101110001000
10111100001011000010010111100111
10111101000101001011111101010101
00111100110100111001111100001111
10111100100100000010110101111100
00111100000101100001011001011000
10111100001110111100111110101001
10111101000011110111110111101000
10111011110101001110110110010000
10111010000011010000000011011001
10111011010100110001000011010011
10111100010101110001101000100010
10111101001000100010101011111001
00111100111000001101010010101100
00111101001100100010101110101101
10111100111100110111100010011011
10111101011010011010101011100000
10111101100001101010001010111010
00111100000011101101111010010110
10111100110001101011110101110000
00111101000101001011100010011110
10111100000001011010000101010100
10111100100011111000110101001000
00111100011000011101010010010101
00111100100110010011111001000010
00111101100000010110111000011001
10111101011111000101011100111000
00111100001000100110011010100100
00111010111010110001101010011101
10111101100100001100110101101010
00111011101100011100101000010011
10111100101001101000011011001000
00111101000001111010101100010010
10111100100101100010111010011100
00111100000111100111011010001001
10111100000001001011101001011011
10111100100100000101000001000100
10111101001000101101100101101001
10111011100001011010011111110001
10111101000101000100100011010100
00111101001011101111111000010010
10111100100000000101010010000110
10111101000000010101100010100100
10111010101010010100101011000111
00111101000010001101101001011101
00111011001011011010101111001000
00111100100000011001100110010111
10111101010010101111100010111010
00111100101010101110001001100100
00111101000000100110010001101100
10111101001100001100001101110000
10111011001110100000101100110011
00111100000000011011011111000100
00111011101101010011101111110001
00111100001101111001110001110110
00111100000000011110110001000000
00111100110110100100100101001100
00111100000111110101101110111100
10111011001001100000101011001011
10111100100111011010010000001010
10111100101111101100010101010000
00111101001000101111101110110110
00111101001000000000110101100110
00111101101010001101001000101111
10111100100011100000001101011111
10111001101111110001111101111010
10111101001000111101011010001110
00111101100001000001101011110100
00111100100100000010101011101010
10111101011110010111110110111010
00111101001000010110010001000001
10111010101101100100111100101010
00111100101000010110111110110010
10111011101101011010011100011110
10111100100111111100000110011110
10111011110001001101111011100000
00111100101010010101111010100110
10111100011011001001110000110010
10111010100101110011001110100111
10111101001011110000111100001111
00111100110100110011111110110110
10111101110100010101100101001101
00111100101000101110001101111110
10111101000010010000100010001110
10111110000110011100001101010011
10111101010110001001010000110100
00111100001011001011110110101011
00111100111001000010000000100111
10111100101000101100100010111000
10111100100101011011001011100010
00111101011010011110101001000101
00111011111000001101101001111000
00111100111011110011000010010010
10111100101001101101111001101011
10111011000110010100010010001001
00111100100101001000101111111011
10111011101110000111000011010111
10111011011101010100110011110011
00111101010000010110111100111110
10111010110011110101001011101010
10111100111111110111011011101001
00111011111001010011101111111000
00111100111100011111000101100101
10111010001101011111100111100101
00111100111000000000001011011011
10111101010001101000100010010101
10111100000111101110001101111101
10111100000100011001011100011000
00111100100001010110100000100001
10111100110001111010010011011001
00111101101010111001101100101101
10111101011011010100110000001000
00111100011100000011110101101001
00111101000101011010100101010101
00111100100000000110101011001011
00111100110011111101010101110000
10111100110001011100100100010111
00111100100000110111111110101110
00111101000010010001110001001110
10111100100111111000111101111111
00111100110101111101100101111100
10111100111011101010001010011010
10111101011010100000010000000101
00111101000110111010100100000011
00111101010111010010110100100111
00111101101101010100101101100000
00111101010001010000100010111000
00111100111001001000000001000000
00111011000110010101000011101111
10111100011100011011011101101001
00111010100001110100110000001101
10111101011000111001111000111101
00111100010101011111100101000011
10111100110100011001001111010110
10111101011101001011011010100000
10111101011011111011100000010000
10111101010101011110101001000010
00111011001011010101011101100111
10111101100100011000111010000010
10111101001111000010011000001111
10111101011000010100001100010000
00111011100000101011001110000100
00111011000100110110001110111000
10111011100011011010100011100010
10111101001010001111001101000100
10111100000110100010011110101011
00111010001011100000000101011010
10111010100001100011000010100101
00111011110111011010001111011001
10111100000000001110001110101011
00111101001011111011011101001111
00111010011111010110000100000000
00111100011001000010000011110000
10111101001001101111111000010011
00111101010010001010111011011101
00111011111100101111101010011010
00111100111011010100110110111011
00111101010011110110010001010111
10111100111011001110111000010110
10111101001111110100011001011101
00111100001011111111101100111001
00111100101100111100011001010010
00111100100001001100011011110100
10111100101111010101010001010100
10111101000010110010010110011111
10111101100100011101111110101011
00111100000010101000100100100011
00111100101011101011101010111010
00111100111100010100110011001100
00111101000110111101011111101100
10111101100101011001011100111011
10111100110000000111000000010011
10111101100010001110011110100001
00111101000011011101101110001001
10111100110111011110001001010110
00111100101001011010111111011100
00111100111110101100001000001011
10111100101110000001110011111001
00111101100000011111110100101100
10111011000111001101110011010000
00111001001011111011111100010000
10111100101010010110011011001011
00111100101011111101010101110100
00111100000010100010000010110000
00111100110111010011100001101001
00111100100110010101110001100101
00111100010100010100101010111101
00111101010010010111001001000101
00111100011100011001110111001111
00111100011100000011001110100010
00111101100010001101110011101110
10111100101110100100011110111110
10111100000101100111001110011101
00111101001111000010000101101010
10111100111110101110001000010110
00111101000101110011011011111001
00111100111011001110011111110010
10111100111110101100100011100001
10111101001011110000100100011010
00111101010001011001110101111100
00111001101100001011010000100101
00111100110101001011010111101111
00111101010011110100001111101111
00111101000000110000001111010010
10111100110011111010100111101011
00111100000000001110001101110110
00111101010000010011011001011111
00111100000000001101111101010101
10111011101100011111101010011010
00111100010011010111101101111101
00111101000011110101010000100100
00111101010101011111001110110011
00111101000000111100011101001101
10111101001101110000001100010110
00111100010100011001010111110111
10111100110100001110100010001101
00111100001010111011100101000110
00111100010101111001010011111101
10111101000001011111101101111001
10111100111011101110001111111001
10111010001111011010100101011011
10111100100111110001110001101110
10111100110110110011111000000100
00111100101111000111100100001001
00111101010110001001110110001110
10111100001001100100110001000000
00111100111011110100000010100100
10111101000001010101011010011111
10111011100110101011011111000110
00111011100100111001110010111110
10111100110011010000100010111001
10111101011110000010001111010101
00111101000010110000011000100011
10111101100010100100000000111111
00111101000111110010101101011010
00111011101000111000010110100110
00111101011111001110011000110001
10111101001010000000110011011111
00111100011111100000111100001001
00111010000111011010100000101011
00111100111010001111111010001100
10111101100100011010001100101111
10111100000110011100101000000011
00111100101011001101111100010000
00111011000100011000100011011010
10111011110101001110110110000011
00111101001101011011111000100100
10111101001101001000100001010110
00111011001111111110101101011101
10111101000011111000110101011000
00111100110100001000100110001110
00111011100001011111101110001011
00111011110111010110001110010000
10111100100101111110011101011011
10111101001011001111011100101111
10111011100010000111000000001010
10111101000110101100111110000001
10111101011001111001001100010101
10111011101000110010101111111110
10111100111101111010001100010110
00111101000000001110101101001100
10111100111000101011000101111101
00111101001010001101000011111011
10111100010000110011110010011110
00111100100111010000000011110101
10111100100000010110010011001001
00111101000111110011011100001011
00111011110101000011000001011000
00111100001101001010100110110010
00111100001101001101110100110001
10111011101010100101110010001110
10111101010111000001100111100011
00111101001010111110011110011111
10111100011000001000100011000110
10111011110011001010110100110011
00111101101010001110000111100000
00111101001111010110001101000000
10111100001011110010110001001011
00111100001000001111001101010100
10111100000001011100110010111100
10111101000001010011001111011101
00111101000001011101101100111110
00111011000111001011000001110010
00111011101011001100011000001110
00111101011011111001111110000010
00111100000101010101110110100000
00111101010010111100000010011011
10111011000011000100000110110011
10111100111010010001010111000101
10111101001101100010001101001111
00111101001011111010100110111100
00111100010101101000101011001101
10111101001110010100111011111010
00111101011001011001000011011010
10111101010000101100011010001000
10111100111000001001110101111010
00111101000000000110011110000011
10111100011010101111001001010100
00111100100110110011001000000111
10111101000100000001110010001100
10111100101111011010000101000101
10111101000111101101111011110101
10111101011001011001111010000111
00111101000111100111000010011111
10111101000100011110011000101001
10111011110100010011110110111001
10111100100010000100000011111010
00111010111011111111101011110000
10111100110011000101011011011000
10111100101010011110110001101100
00111100000000100001101011111111
00111011011000001001101011000010
00111101010001010010001010111100
00111100110101010001101010101110
10111101000001001111010000100100
10111101011100001111010000110000
10111100110100010100001100011000
10111011011101110100010110011110
10111100000110011111011011110110
00111100100010011100011001110010
10111011010010010111011001111101
00111100010101000111100001010111
10111011100101011100000001000001
10111100110001000011010100111001
00111101000001101101001011111011
10111101010000011110010001000111
10111100000001100011001000001000
00111100111011000110100000001110
00111010010111010100111101010111
10111100010101111010011111100111
10111101001001010101000010001111
00111100100010110110101101011101
00111100110011101000100001100011
00111101010110001001010100010101
00111101000110110011100011100111
10111101011010101000010000000101
00111100111101111101000011110000
00111100010101001101010100100001
00111101000100101111000100010100
00111100101111111000101010011000
00111100111100000100011100101001
00111101010100111010010010010111
00111100000001000101001010111101
10111101010011010101010111100001
10111100101111001100100111110011
10111100011001111011100110110101
10111011100011001010111000110110
10111101010011010101001101000111
00111101001011010111010001110110
00111100101000100011011110111101
00111100011111101000000101110000
00111011101000110101011000001100
00111011100010011111001011100101
00111101011110010111001111101110
10111100100001001110000100010010
10111101010110011011101010100101
00111100100101001100000100100100
10111100110101101100010010101100
00111101011100011011011100111101
00111101001101100100000101110101
10111101010101011010011011110111
10111100100111011111000111001110
00111100010100110010011011011000
10111101110100111111000111101010
00111101001001001100000100010000
00111101101011100001110111011011
00111010100101111110001010010000
10111101001110000001001000101110
00111101010100000010010011101010
00111100001010101000000111111001
10111100110100010010110001010111
00111101100110110000000111110100
00111101100111000101100001011010
00111100100111010000010100110001
00111011001000100010110100100100
10111101001000110101010111001011
00111100100111101010111100110100
00111101011011101000011010110110
10111100101110001111111101010110
00111101000110011100101001011100
00111100110101011111111110100010
10111010010110100011100000101011
00111100000011100011010000111111
00111101001000010100010111001010
10111100011000110010001011011011
00111100001001010010111111000110
10111101001111010010011101010110
00111101010110111110110010010011
00111011101000010011110111010111
00111011110110010111001000100001
00111100101001101010000100011011
00111100100111111001001001000001
10111101010011110000011101010100
10111100011011101001101010010100
00111001101000110011100001110101
10111100100011100100101011001111
00111101001100011100000111101111
10111100010011101011110110110110
10111100100011111101011101100001
00111100001011011100011001110000
00111100101100100001111000001111
00111101010111001101111110100000
00111100110101111011101010010010
00111100011110100001111101010101
00111011101001110111001101111101
10111101000100001100001000010011
10111100100111011100101000101000
00111100101100111111101010001111
10111011110000000010000010100100
10111101000011011010001101001101
00111101000110000001000010111011
10111100000100001111101111010100
00111101010111011000011010100010
00111101100010001110001011000011
00111100011000101100010011010001
00111100011011011101001111101011
00111101010101111000100111100100
10111100010100111101100101111011
00111100000110011100101011001110
10111101010110001100100101011010
10111101010100101011011011110010
00111100111011110011111001010010
10111100001001010001110111100001
00111101010111010010011111001000
10111011001100111000001110100100
00111100010101110111111110001111
00111100101000111001101000001011
10111010101000001010100100011110
00111100001100010111001100000111
10111101001001011011011111001101
00111011100101010011101110101011
10111100000011001010101100101111
10111101000110001001111001010101
00111010001110101001110000001110
00111101001010000010101000111010
00111101000011001010100101101001
00111100010000111010111100110100
00111100101010100111100001000010
10111011101010100111100001111111
10111100011000111010001010110101
10111101101001101111000101100111
00111101000110100011000101010110
10111101011010110011111001100001
10111101010111010100010110111010
00111100101011100000111101001101
00111100101101001011000110110110
10111101001000100011100000001010
00111101000111101011011110011011
10111100011001001101001100000000
10111100010111111100100001000100
10111100101111011011010010110101
10111011001110110000111011001110
10111011101111111011101110111000
00111011011010011000111001001111
10111101011101001100101100101001
10111011110011101011110000101110
10111100111000001010011110111111
00111011111000100101001000101010
10111011001011101001001111000100
10111100101111101000010110111110
10111101000010100011011010011010
10111011000111111111111000010000
10111101001010001111100101101111
10111100101000010101100101010011
00111101010010101101001011110000
10111100100111101010010001011111
10111101001011110111101011110100
00111100111111011010000100110101
10111101000110111010001000011010
10111100111101111101010101111010
00111100101110110000101010100010
10111100111100111010101010111011
10111100011100110000000111111100
10111100110101111101011010001000
10111101000101110111010001111101
00111101001011010011101101011010
10111100101001111101100001110100
00111101011111111000101000110000
00111101100010001001110111010010
00111100001110001001011111010000
10111101001010000000010000111001
00111100110101100111100001110010
10111101010000001011100010111001
10111101010010111100001010000001
10111100101010101010110001100010
10111101000010010010000101100110
10111100011000110000110100101001
00111100111001101101000100100011
00111100101001101001101010011111
10111100111111100010110001101111
10111100000001010000110010000000
10111100000001001011011111111001
00111011111000101111100110101101
10111010101110001010111001001000
00111100011001110101101101101010
00111101011100101100101001111110
00111100111101001010010110111001
00111001100100101111101111000001
10111100010111101101100100101111
00111100101111001110101100100000
00111100101010011000010100110110
10111101001001110101001010011101
00111101010111011010110010000010
00111011110010111100011110111100
00111100010000110010100100000011
00111101100011110110000111001110
10111010100011100110001000101111
00111100001100011100111110010101
10111011110110011011001001111000
10111001000100011000100010000110
10111100101010111001110111001000
00111100001001010010011011110101
10111101010011101010101101111101
00111101101000011011111010011100
00111101000110011001101001101011
10111011011111110101001010001100
10111100111110100001000011011000
10111011111011000100010111010000
10111100101000001011100101101000
10111100111011010010110000111000
10111110000010100010111100110100
10111101101100001100101011101101
10111100110000111000100110000011
00111011000001010011010101011001
10111100001110101111101000011110
00111100110011110100101000101110
10111100110110001000110111011100
00111101000101100101001111001000
10111100110111111110011011001110
00111101001101001001001011010010
00111101001001001000011100000100
10111011100101101111100011010010
10111101000000111110101011110110
10111101011101111010111111000100
10111100001100110010001011010100
10111101000010110000101000100110
00111011010000101110100110010100
00111011110001111101011011101110
10111010100000110111000001100100
10111011000100011011101110111101
10111100011011001001010010101100
00111101001111001000111001100100
10111101001101111100000110001001
10111100101101000001010001100011
10111010111100111001110011000000
10111100111001110010111011101111
00111101010101000110101101110000
10111011110000001000011010100001
10111100001010110101011000011011
00111100100000010100000111110010
10111101010000110001100111111010
10111101000101010110110011110001
10111011110100011100011001101001
10111100001011010001101111110000
00111100000111001000100111100100
00111100011010000011011001000010
00111100101110011100011010101001
10111100100011101100100101100000
10111101000010110001101101111011
00111101010010001101110011001010
10111011000000100100111000000001
10111101010100100110001010001011
00111011010111101000100001000010
10111011100011100000001011010101
00111101001100001110001111001101
10111101011101100001100100011110
00111101000100101111110001000010
00111100010001101000001001010011
00111101001111110000110101001000
00111101100101000100000110101010
00111101000111011110010100101110
10111100000111111100011001100100
10111100111111000110010100010010
10111011011000100110101000111010
10111101001010000100001000111111
00111010011100010111110110011101
10111101000001111010000100111010
10111100000111010000000001111001
10111101000100001100101001101110
10111100101001011101100101110100
10111100001101101000110011010010
10111011101001111001110001100111
10111101100111110100110000111100
00111101000100010111001001101011
10111100011011101011001101010000
10111101011111101000000110011000
10111100010000000001010010100000
00111101001001100111100011100001
10111101011000001010010000110010
00111100100001111001001101000101
00111101000100011010111100001101
00111101000011111100001110100101
00111101001110011000011001000100
00111100110001001001111101101110
00111011011010111000111110100001
10111100101101110011110110101010
00111100100010101001000101100110
00111100100110111101011011010011
10111101000101011101011110011111
00111011001110010111101110111110
10111101100011110100101110000011
00111011110101010111110101111001
00111100110110111110001101111110
10111101110000000101001100110101
10111100110111001111100001011000
10111100100011010110111011001110
00111101001010000111111111101111
10111100110100100000001000110000
00111101000110010010100000111101
10111011111010111000010001100001
10111010111110110011011101000001
00111101100011100001111101110000
10111101011000011100101011100010
00111101010111010100101000010000
10111100101010100100001011110011
10111100010000001101011111000011
00111100001001011011101010111001
00111100110010000100100101011111
00111100001010101000110000110001
00111010110111101110100001011110
00111100110101000111110000011000
00111101000000101011000101100011
10111101000000101000101000110010
10111100110000111110000000110101
00111100111111110111010100110000
00111100000011111110000011010111
10111100000111001111101000001000
00111100100111010011110100111000
10111100011100010100011100001000
10111011011110011101001111010011
10111100010111010001000000111011
00111010101010101110111111111000
00111101010101010011000111111011
00111101010000110111111010100110
00111100101001101101000100100011
00111100101011111111111010001100
10111100110011110111010000000001
10111011100000100000101010000000
00111101011100100100001111000100
00111011011011001100010011010110
00111011111011011110011110100011
10111011111100011011011101100001
10111100101011100101100010011010
00111100001101111011001111101100
00111101000000010011000100001110
00111101000100011101001011101010
00111101010110010011100011111100
10111100101001100110000111100111
10111100110100000010101001101011
10111101011110000011010000011000
00111100110000110111000001110110
10111100100000100100101111101111
00111100100110101011010110100001
10111101010101010000000111110111
00111100110011110110100010111110
00111100001010111001100100101001
10111100101110001110101001111000
10111100010101111000111011111110
00111100100000110010000110000001
00111101001000010111000001001000
10111101001001011101001100000011
10111010001011011011011001001001
00111101011001011110001111010111
10111100101010110000111111010111
10111100101100010011010010101011
00111100010011100001010011110010
10111101001100111101111000011110
10111101000111000011000000011001
10111101000111111011110000110011
10111101100110111100001001111111
00111011101001100101101101111000
10111100110101100101000100010100
10111101001011001011000111001011
10111100010100011110101001001010
10111100110110110000110100101111
10111100100001110010010010001001
00111101001110001010011001111110
00111011101110101110000101110011
00111011110001110110010010110010
00111101011011001000101001100010
10111011110001001111101100000010
10111101000000000000110011110001
00111100001100110110000110100000
10111101001100011000011011110000
00111101100000100110011100111010
10111101000010111100100101110000
00111011110011101011110111001010
10111100110000000101011101101111
10111010100010000010100101000001
00111100010100001010110100111000
00111100101110000011100001001111
10111100001001011100011000001111
10111101101101110110110000010010
00111100100000110111010111110110
00111101100000001010110110111000
10111100011111110101101010011011
00111100110001100101101000001011
00111011101100101010110110110011
00111100000011001100111100101100
00111100101110100001100010010010
10111101000010000001101101011101
00111100101011111010110000101111
10111100100010111010000101110110
00111011110101111000011011111110
00111011101110001001001110000010
10111100110011000111000000110101
10111100100111101000000100001101
10111101000111110100000010110001
10111100100001101001000000010101
00111011100010001011100101001101
00111100001110010000010100001011
00111011010010000100100000110001
10111011011010100010000111110101
00111100100010101001001010010100
00111100111000110001100111101001
10111100100101111000111010110011
00111100110110011000001000010101
10111011100011000000110000101000
00111101010001101111101100011111
10111010100011001101111011010110
00111100010111011101000111100001
10111101000000110110011000110010
10111001111100100110010001011011
10111101001100111111011100101101
10111100101010010011111010111111
00111101001010101111011001110111
00111101001101011001011110111101
00111101011110110110110010001001
10111101001000111001101100110100
10111101010011010100100110111111
00111101000000101101010000000100
10111100000000110100100011101101
00111101000101110110001011001010
10111100100100011011100011010010
10111100100101110110010101111010
00111100001111101101110011110111
00111100010000011110010011000010
00111101100010111000101001001010
10111101011001010111110011000000
10111101100000000100111000011111
00111101001110101111110000011101
10111010011101111111011000010110
10111100100101000011101001110101
00111100110111101011011010011000
10111100100111100011000101000001
10111101010011101011001010011111
00111101001101010010110101100101
00111011111100110000101101010010
00111101000110100110100110100011
00111101011111100000010111110011
00111101011000011000011110111011
00111100100001101111010001011110
00111100100111110001011010101100
10111101001000100100110001001011
00111100000100111101100111010100
00111101011010000110001011011111
00111011010011100111011100001011
10111100000001010010111001100000
10111101100100110100000001100011
00111011101000001001010001001100
10111100101000100100010100001111
00111001100111110101111101100010
00111100010111101001010011110101
00111011000011001001011011110000
10111100001100101010010101111101
10111010110111000001010111001000
00111100111010000100100110111110
00111101000101001011011111010001
10111100100100000111101110101111
00111101001111010011010010010000
10111100011010011111000110010010
00111100100011101000110011000001
00111100011010110001100011001101
00111101101000110010000000011001
00111100100011011000010101111100
00111011001111000101011010001100
10111011110001011110001011001001
10111011111001110010101000000011
10111101010101110100010110111100
10111100101011100101001010101110
00111101100100001001011110100011
10111100001101101000101011111011
00111100111100001010100001001111
00111101011101010010001110010111
10111011001011111011010000110001
10111011111101101100001110111110
10111011011010100011000100100101
10111100001101000111100111100001
00111100101110110000101001010011
00111101000101101011000001000101
00111100100101000101111111101110
00111010101001011001110000001110
10111101011000101100011100000100
00111011100011111111111000000100
10111100111110001101000000011100
00111101001011010010111100111000
00111100000101110001111001101111
10111101001001101000110000110101
00111100100000011000000001100111
00111101100001011001000100000100
10111101101000001001000010110010
00111100010111001010010000111001
00111101001000101110101010101110
10111100011011100111001001110100
10111101100110101100100010011111
10111100111011111100001001001111
10111011000100001100001110001000
00111100101010100100111000011100
00111100010010111110101101010010
00111100000000000000100001101111
00111011111101011000001111111101
10111011011101100000101010101100
10111100111110111010111000000110
10111101011010110110101011000100
10111100110111101010101101101100
00111101011110110111101010100011
10111100101111001100110010011011
10111100100000101000010000011001
10111100000101010010010111001011
10111100100011100100101001101110
10111100000101111111100111101001
00111100111001000000110001000100
00111011001100110010010111001011
00111100111100011111001110010111
10111101000101101011010100111001
00111101101010111111110100010110
00111101011101100001011100111100
00111100101110011111001011000100
00111011111110001001100110100101
00111100001100100101110010101100
00111101000100010011100110000110
00111100011010011101110010100011
00111101100001101000000110010110
00111010100001101110010010100011
00111010100010001110000111111101
10111101000101000110110110110001
00111100100101010001010010100101
00111100101110100010001111001111
00111100011100100111010100101111
10111011011011000001000111011100
00111100100001111010111001110100
00111100100011001100011110111011
10111101011110110010010001100000
10111101000100000111101111011110
10111100101011000011101011011000
00111100011001000110110010111010
10111101011110011001101110010000
00111100001011100011100000011000
00111100111001010000001100001000
00111100100011101110101011010001
00111101001011101011100100000011
00111101000111100001111111010111
10111101001100011011000011100111
10111011110010110011000011011111
00111100111000011010111101101010
10111101001000000000001101111110
10111100110001010100111100001001
00111100101011100010110110001010
10111100000110111110011110001101
10111101100101011011111111011000
00111100110011111010000101011101
10111011111010100110111100000001
00111101001000001110100011111010
00111100101011011101010001011110
10111100001111101110010010000000
10111010000001010100011000111011
00111101000110110001101110010000
10111011000101101100111110001011
10111100100100100001000101001101
00111011101000000011000011011000
10111100000001010001011001111111
10111101000011000101011101111000
00111101011001100110101010001101
10111100111100100011011110010111
00111100101110010110101011110011
10111100100111100010111111001101
10111100111011101001111111101110
00111100111010000000111001011100
10111100001101101000011011100000
10111100101001100000010000110111
00111100010101100100000101101000
10111011101100000011000100101111
00111100101100011010100101101100
00111101001101111101111000000001
00111101100010000001001000001010
00111100101011001101111000101010
00111100010101101011110001011110
00111101000100111000110001101011
10111101001111110011101111111100
00111100110100100000000110001101
00111100100101110011101110000001
10111100000000001011011011000010
00111101000101101001100110110011
10111101111001110110101001011011
10111100100100001111110100111011
10111010001001001100010011011000
10111101000001010101000000010110
00111100110101010110010001011110
00111100111011011110101010100001
00111101011001001011110100111111
00111011001100011000001100011110
00111010111010011101011100111100
10111100111001010010111111000111
00111100011000110110011010010111
10111100110101010100110010000100
10111100011001101110100111100111
10111100110011101011011010010000
10111011110110111011010000110011
00111101000010101001011100010111
10111010111101011111010100010000
00111101011111101010010001110101
10111100110101010111110111001001
10111100100010011000101111010111
10111100100010010010110001101010
10111011110000010010001001111101
10111001101010101000100010011101
00111011100110111100001011110001
10111101001000010011111010100101
00111101000111110110100001011011
00111100100010010111001110011000
00111100000011100010101011110110
00111101011101100000001111000011
10111100101110011010100101101100
00111101011110010001101100001110
00111101101000000011000011001000
00111100111101100001000010110111
00111101001110100110100001001010
00111100101001100111100001010111
10111100101101011001110100011001
00111100010100011110011000011001
10111101001011110011010101110101
00111100101000110000101001001101
00111101001111001010001101111100
10111100001000011011011000001010
00111011110110110101101100111000
10111100001100100100111000000100
00111011100000111100001010100100
00111100110110101010100101001100
10111101010011100010101000000100
10111100101111100000000101001000
00111101001011100000111101000111
00111100110000110001001100011001
10111101001001111111101011011101
00111101000101110100100011010001
10111100111000000000011001101000
10111100110111000000000011000011
10111101000110010000000001001010
10111011011110111001110000011000
10111010100110101100001101100000
00111101000010101010100100001111
10111101000100111001101010101110
00111100010111101000010010101110
00111101010000000101011011101111
10111011110101101100111100101010
10111100010010100110011100001101
00111100100110110110110111110010
00111100010001110110010011001011
00111100100010000001010100111000
10111101110011011011111100001000
10111100111101001101010010010101
10111101001001100100110010111110
10111101001101111110100010110100
00111100010011001011111001111101
00111101000111110100011010111100
00111100100011111011000111110101
00111101110111110001111001101111
00111101000111111001100100111100
10111100111011100011100011001000
00111101101000110011011000010011
00111101001101100101110010110100
00111101110000100001010101001001
00111010010100010001000111101100
10111101010110110101001011011100
00111100110110000101001111011100
00111101010000110100001000111100
10111101001100111110001111010100
00111100010100010100100101111000
00111100111001011010110111010001
10111100100110011000110011001110
10111101001101101101100010010011
10111011000100111000001000101111
00111100011010110011010101101000
10111100011111010000100110011000
10111101100001101010101001100111
10111101001010000011111000101000
00111100110011001111011111000101
10111100000111101010011010100010
00111100100001100000000010101001
10111100000100011100011110011001
10111100011000100000010110011001
00111101011111000001110000010011
10111100010111011111010000110011
10111100001111100001000011000001
10111100011010001010111001001111
00111101001011001111110010110111
10111100000001110101110000101011
10111011011110101011110101111111
10111100001010110111000000000100
10111011101100101001000110101111
10111011000011000100010110100100
00111100101100011101001001000000
00111100010000000001110101001101
00111100010010000000000011111101
10111100101110110011101110111011
00111100101000001111100001110110
10111101000100100011100011111000
00111011011100000101010101111010
00111011101111101100100010001111
10111100100000110001111010101100
00111100111101010010110001111101
00111101001000000000110110100101
00111100001101001001110001110000
00111101011111101101010100111111
00111101000110001000011001111101
00111010111001001011001000110000
10111011101101011001101110110000
10111100000011110001011100100111
10111101001101101110000011011101
10111100011101000100110000100010
10111101000010011101110100010001
00111101001010110001000011110010
10111101100011000110000100100000
00111100010111001100101000010001
00111101100000000110111001010000
10111100111101011011101101100101
10111100001111001011110000000110
10111101000011001001000111000100
00111101000100100010101110111010
00111101011100011110000111101000
00111011011111001000001111011011
00111100110111100000011000101101
00111100111101110000100010101110
10111011100111010100111111110000
00111100101010010110100111011010
00111100100011100110010110100000
10111100101000101000001111011011
10111101010110100000101110001001
00111100101011010111100110001001
10111100111101100010111001110110
10111101000010100111111011001111
00111100011010111001110101110001
00111100101000111010011111000110
00111101011110100110011001010011
10111100111111100100011001100100
00111100111000000101011010011111
00111101110001010000001010010001
10111100100110100010110010011111
10111101001111001110101001101010
10111010010000010000001001010101
00111100100010010010110110001100
00111101101001000111011110110101
00111101010111101100001011100000
10111101100000110110111000101100
10111100001010100111100100000001
10111101100001010111011111100110
10111011100001000000101000000111
10111100011110101101111000110100
00111100000101111011111000010011
00111101010110100111111101001000
10111101000011011011001100100100
10111101001100000011001101010101
10111101101100001100100001010100
10111011100011110110011101101101
10111100100000100100110101101101
00111100110010000000000000001000
00111100111101100010000110111110
10111101000010110011010010010101
10111100001000110101011100000111
10111010100001010101010111001011
10111100110111110011100000101010
10111100100110010110001001001011
00111100101001001101110010000011
00111011111001000001001000110100
00111100010101010000000011010110
10111101001000100100000111010000
00111101011001110100001101000000
10111101010000100010001011101100
00111011100110000000110000000101
00111101100001010111100111010000
00111011101101100001101111111010
00111101011000111000111100010101
10111000001010000100111011010011
00111101001000000111111001011100
10111100111010101100010000101110
10111010110010011111101001110100
00111101000001101101110011001010
10111100110011000001011000000110
10111100011010101110011111010001
00111011100011011110110001011011
10111101011100011000010010011100
00111101011111110001100110101000
10111011110110011001001110000111
10111100111111010000001010001101
10111101011101000001101000100001
00111101101010111111001000011000
00111101000001010100101111100010
00111011100011100111100010111011
00111100011000010000011111010110
00111100111010011111110100011100
00111100100111101110000100100011
10111100010101110100101111100110
10111100100110101010011011010000
00111100101010000011111111011101
10111011011111000000010000011010
00111101011100101001100001110001
00111100101100101110100000110110
10111100000010110101101011111001
10111101011101100111010110001111
00111100101110000010010000010000
00111100101100101010010100010000
10111100100001001000001010100111
10111100001010100101000111010010
10111011110000010101101011110010
10111011111110110011101110001100
00111100111100011000111000010100
10111011100110001000010001010010
10111101101010100010110101101010
10111101000001010000100010101001
10111100111100000000011110110101
00111101000100001011111001001001
10111011101000000111111010100100
00111100101001110001110110000001
00111101001000110011000111011011
00111100101101010010011011111011
10111100101110000100110100100100
00111100001100100111000111010000
00111101010110011001000110000100
10111100100010010001011110000000
10111101010010101001101000001110
00111101011000011001100011010000
10111100110001000111100101101010
10111101010010011101101000000111
10111010011010111011011110000010
00111101001010111001101001000000
00111100110011000110010110110100
10111100111001110110010011001100
00111100101001011100111000010011
00111100001010000111100010110110
00111101001001010100111100101111
10111011100101101101000111010000
10111101010001101101101000000101
10111010101011111011000111100000
10111100110010001010000010011001
10111101011000100011100101001000
00111101101111001100000010010001
00111101001101000101111101010101
00111100010000111110100000101001
00111100011001110100111100011100
10111100111110010001110110100100
00111100000010011110000110100000
10111000100000001001011101010000
10111101001111110000010011001111
00111101001101100110111011010000
00111011110011001110001101100000
00111100101000010101010011111100
00111010010101110101100100010111
00111100100010011111110011001011
10111100000011001111010011100001
10111101000010110110010100011101
00111100110001110111001101110100
10111011010111000110100011010110
10111100110001010110110100011111
10111101000000000011011110110111
00111011000011011000111101011011
10111100110001111011100100010010
10111100111001010110010000010110
10111100010000110100101000101111
00111100111001101011010001101101
00111101100000110101011000111011
00111010001001010001100010100010
10111100101111110011001000011011
10111101000010110111101100000100
00111101011100111110110010001111
10111011101010001011011010011010
10111100111101110011000010001110
00111100101010011100100001111111
10111101000010001010001011100110
00111100000010100100001101000111
10111101100001001110011101101001
00111100111010011010110011100000
10111101001010000010100111110111
10111100101111011111110110000010
00111100110101001100111111111101
00111100000011111011100011010001
00111101000011111011001101010000
10111011010000101111001010011100
00111101001000011000111111101110
10111101001010010111111011000011
10111011110010001100010111100101
00111100100001001011110100110001
00111101010111000001110011000100
10111010001110011001000111000011
00111100001100110110001101110001
00111010011000101000111101010001
00111101001010011111101010110110
10111100010100011110111110001001
00111101001000011010101100110111
10111100011010000101100011010110
00111011000000000110011100010101
10111100111100011011110101111000
10111100111101011000100101110101
10111100010000011100111011001001
00111011010111111100011001101000
00111101000101111011001101111011
10111100001011011111101000000001
10111100100110011110000000101110
00111101000101100000100101111111
10111100111101011001110111010010
00111011011110101011101101001000
00111101000100100011000010100101
00111100111100110010011101001001
00111101011100110100001001001010
00111100101100010001000011011010
10111100110010111000100100001101
00111100000000111110010001010011
10111100100111001101100011101100
10111100110110011111010110000000
10111101000000011001001100110000
10111101100011011100001000011101
10111100101001010010110101010010
10111101100110001110011100100000
00111101001010000110011010110110
00111101001011110000111001000000
10111100101100101111101000111000
10111100010010001011110011000101
10111101011000011001100111000010
00111101000111101010000011001101
10111100111000110110001100011101
00111100100110101110100010001000
10111101000011101010101000011011
00111100001010100011000111000000
00111011001101011111010110011101
10111100011110111111011110010100
00111011111001000111000110010100
10111100010000001100011011010000
00111101001001111011000111111011
00111100110111000101111111001100
10111011110111100111001000011101
00111011101100111001111001101100
00111100111111011101001101011110
00111100100010001101110101101011
00111100110010100101111111100111
00111100001011010011110101000011
00111100100111101000110111100101
10111100011000101000101111001110
10111101000000010000010000101111
00111011001110110011000110000011
10111100110000100001111011000110
00111101001000101100010100101011
10111100110101110101001011100101
10111101001000001000001101111100
00111101100010010100111111110000
10111101011001100000001011111001
10111011111100100000101110010001
00111100100100101001000100101110
10111100110001111010101111100111
00111100010101000100000100011001
00111100011010100001010101000100
00111101100100110100010100100010
10111100100000111111110001000010
10111100010001100110010011001001
00111101000110111101011001110100
00111101001010011100100010101111
00111011100011100101111101110011
10111100000011101110011010010010
10111100110111101011110111101001
10111100110101101101111111110110
00111100100000001111000010100001
00111100110111000011011001101101
00111101010111111111110011101111
10111100101110010110000011101100
00111101010000011110000010011010
10111100000110110000110110010100
00111100110111111101100100100000
10111101100100010011000000011100
00111100111101100011110101111100
10111101001010011101101000101110
10111101010011101001010000011001
00111101000010100001100110010100
10111100101111001110000001100001
10111101001101100000000000000010
10111100001111101001010001010000
10111010011111000010011010011011
10111101001110100010000011101001
10111100001101110010000111001000
10111101000101010110111001111111
00111100111010010011010100001100
10111100101010000111000010011111
10111101001111001011101110111100
10111100101101001101101011001111
10111101010101001000001001011011
10111100101100101011001010110001
00111100000101000110111110101001
10111100110010010000010001011101
10111101100101111000101001011100
10111101001111100011100010110011
10111100101111010100000001100001
10111101001001111001100101101011
10111101001110111010011110100011
10111101101010100100011101011101
10111100101111110100110111001111
10111100110000010110111000101101
00111101000100011100001010110111
00111101100100000001100110000011
10111011100100010010101110001010
10111101001111010111001000011111
10111100110001010001001101010101
00111101000011011110101001110000
10111010100000101100011110011110
10111100011110001100100011000011
10111010111001000011010110010100
00111100110110110010001100010000
00111101100110100000000111101100
10111100010101101010111011111101
10111100110001100100011101101100
00111101010111011010100010110110
00111100111111000011001101001110
00111001111010110100100000010111
10111101000001010001111011001011
00111100111001011100001111111010
00111100100010110111101011100011
10111100110101010110010000011110
10111100010010111001100110110101
00111100110101011110010001110100
00111100100000010110100100001001
00111100100010010001110111101111
10111100101101111100010111111101
00111100000011000010110001100111
10111101001100110001100000101110
10111100111010011111010100110111
00111101010100001110110101101011
10111100000110101001010111010000
00111101010001010110011101010001
10111011010000100110101110110111
00111101000000010111111101101001
10111100110001010010001100100100
00111101011111000011000110000101
10111101001100010110101011000000
10111101001000001010111111110000
10111010000101010000001000000011
10111101010010110011100111001001
10111100011101000100110100010101
10111100001100111111010100001100
00111100011100001010001010001101
10111001111101000110101011011110
10111100111101000010000001010101
10111100010000111110011011010111
10111101000100100010100100010111
00111101100001110111001111010011
10111010000100100111100010111010
00111100110111000011010010000001
00111011000110111101110100100100
00111100011000110101001110111001
10111100111001000010011001110100
00111011110010110011001001000101
10111101010110010101000001010110
00111101000101001010110110010011
10111100101101001101110001011000
00111101000000101000101010000011
00111011100010110000001010111001
10111101101101111110100110001110
00111100000100001100101101001000
00111100110000010101010111100111
00111101000011010001001101011110
10111101011000111000001100011111
00111100100011011111111010101011
00111101001010101001011001010101
10111100110101100001011111101110
10111100111000010011111010010110
10111101000100110110101110111100
00111101000100001000000011100100
00111101001010110100100111100010
10111101001010010001011001101010
10111101100101110000100110101110
10111101000001000000111011110010
10111100111010111111101011110000
00111101000101000110110011010010
00111101001011111001001001010110
00111011110011101011011110010111
10111100111101001110011111010010
10111101100101001000011101010100
00111100110011000011000101000000
10111100110011101011110001010110
00111100011101111100011100010011
00111100100101000100011010011010
00111100110001100011010011101010
00111101010011011011011100001011
00111100110000100100000100101010
10111100010011001001001111011001
00111101100010010110001001100100
00111100011111110000001110000110
10111100001110101111100101110010
00111011101100100000111100100100
00111101000000011110100010110010
00111100101101011111101010100010
10111100100110010110010000110101
00111101000011011111101111010101
00111100010111001100001000011000
00111100100100100111110111011101
10111011011100111110101001000011
00111011100001000111100101001000
00111101100111001111001001111001
00111101001111101011010100100101
10111010110011100010001100010100
00111100010001111110100010100101
10111100001011100000100100101000
00111100110110111111011011011111
00111101010000111111011000001011
10111100100011000000011100100000
00111101000110001110111001001001
00111100111110110010101010110111
10111100111011001110000011111110
00111101001111111101001100000110
00111100101011101010001101100101
00111100110001110001000011110110
10111100000011111001110010100010
00111100101111011111110111100101
10111100000110000100000110011010
10111100110000001100011100111101
00111100110010111110000111101010
00111101001000011000100000011111
00111011101010001000001101101111
10111100101101000001011110100110
00111101011011111011110110000011
00111011110000100010110111011010
10111100101000110011010101001001
00111101010101110101100100110111
00111011110011110011101010010100
00111100100000010111010100111000
00111011101000000000110000111100
10111100011001000111111010111000
10111100010001000011000110110011
10111011001001011111010001100010
10111100110000111110001110001111
10111101011111001011110111010101
10111101000011101011011110010010
00111100100000010101000111000011
00111101001010011110111011001100
00111100111011100110110111100111
00111100001001010111010110011101
10111100111100101001100101001101
00111100000111111001011110110100
10111011100110100000110011001110
00111100001010001101100100011011
00111100010011010111011110100011
00111001100000011010110101001010
10111011110010001000000001111101
10111010101111111110101101110010
00111100100000100101100100010011
00111100000100011110110011110001
00111100101001001100000111110111
10111100001110010000110100110000
10111011110110111011110101010100
10111011110100100110101011101110
10111101001111000101100010010111
00111100110101000100100010011101
10111101001001011111010101000000
10111100100110100010111101101101
10111100100010101010000101101111
00111100111101101010110100100100
00111101010000110010111010101011
00111101000111000001100101000111
00111100100111110100011011001010
00111101010000110110101001100101
10111011010010111101000100111101
00111101000110110111011100101101
10111101000111010110110100110100
00111100110001001101111000011000
00111101010110001101011000000110
00111101001111101011100001110101
00111011100110100100000100010011
00111100111001001101100110101011
00111101010100110100110011010010
00111101010011100001000111011100
10111101010000111100101010110111
00111101010111011010001100100001
10111100000101001001101001110111
10111011100101001010010101000011
00111101010111010111101110001101
00111100000111000010111000000111
10111101010001110110000111011110
10111101011010110110100110001100
10111100110011001001110111111011
10111101000101010000001110100000
00111100000110000100110100010000
10111101001011101000011000110111
00111100011000100010100100101111
10111011111110111110001100000101
10111010111100010110110111000011
10111100000011100010110111010101
00111101010011110110100001010111
00111100010110011111110101000010
00111011100101100111110100011100
10111100101111110110010001100001
00111100010001010111111110110001
10111101010001101100111101000111
00111100110111010100010001101100
10111101100101111100101001011100
10111011000110110001010110111111
10111100010101010010000011000001
00111100110100110111010111011010
00111101001110000101000110011100
10111100100111000100011100100001
10111100010100110010101011000111
10111101010101110010000001101001
00111100100101011111010111000010
10111100100111000110100111101010
10111100010111101010111010011111
00111101000001001011101101010110
10111100011001001100100010101001
00111101100011100110101111010111
10111101000110011011100110100101
10111010010001000110100011111001
10111100100100010001100011010110
00111100101101111111100111011010
00111101001110110000110110001010
10111101000110011011110100000111
00111101010101101011100100001101
10111100011111100001010110011100
10111101000101001101001000011000
00111100000001111010011111110110
10111011010101010111011010100010
10111100000001001101011101101011
10111100100001011100101010111010
00111011101010000101001110000111
00111100000101111010111010100011
10111100000001010011010011100111
10111100100011011111110001010011
00111100100101111000001011010000
00111100010110011101000010001010
10111101000110010000001111000011
00111100110010001010010001101001
10111100100010111110011111000001
10111101010000101101010010000001
10111101011100001110010100111101
00111100010100010110100100010001
10111100010011010100000101011111
00111100101011100111010001100101
10111100010001000100111111011011
10111011110101101000000111001000
10111101001000010010100110111011
00111101000100000111011010011100
00111101011110100110011111110101
10111100111000101111001110111011
10111100101101100100011001011011
00111101001110010111010000011000
10111101010011000100100010000010
00111101101000010011000101010011
00111011110000001111101011010101
00111100100000011001100011010110
00111100010011010001000010010010
00111100101000111101101001001100
00111100000011100100110001000000
00111100110010000111110111000011
10111100010100000110100111000011
10111100101111000111110000110100
00111101010111101100001011101010
00111100101101010010010010011111
00111101001110111111000111110111
00111100101011011111111111110001
10111100101000111011000011110010
10111010010100110100111100001111
00111101011011000001110100001011
10111100101111101101011101101001
10111011011011111011100011101001
00111100100010010000101100100101
00111101010000100111010110001100
00111011111100011000101011001111
00111101000001001111100110101001
10111101011000001110111010110010
10111101011001000011110001000001
10111100101011000110101011010101
00111100011110010001000110110000
10111011100110011111110110101010
10111100110101000001100110001011
10111101101101101101000001111111
10111100001011000000101100001011
10111101100111001010000110001000
10111100000111100011100010011010
10111101101001100010110101111110
00111100001101001111100010100011
00111101001100000110111000011101
10111101000000010110101101010101
00111101001111100101001101010001
10111100101001010111000011001100
00111100101000101010111000011001
00111100110111100010111110110001
10111100110011101100000001010101
00111100111101101100001010001000
00111100010100101111100001111010
00111100100010000000011001111111
10111101100010011011010100000010
00111101001000100011001110100001
10111011010110000000011011111010
00111011001101100111000101101000
10111011001101101110101011100111
10111100100010111010011001011100
00111011110011000101100000111101
00111101001001100100001100010101
00111101001101101101110100111010
00111101010100101001111000000111
10111101000101100011100110001010
10111100110000011110110010001000
00111100100001000001010001110110
00111101000100011110001111000101
10111011101011001100110010011011
00111101100000010001011110001000
10111101100100001010100100111010
00111100101000011010110000011000
10111101000111100010101010011000
00111100110011000101000000011011
10111101000010001010000110111000
10111101011101100010000110111100
10111100111111111000010110110100
10111101010100101001111110001111
10111100110010000111010000110100
10111100110111010001011000000000
10111100111001101000100000100100
10111101000011111001001101001110
00111100000001011001001001101010
10111011101001010110100001010000
10111100010011011110111101000010
00111010001011000011011010010010
10111101101100011110100111100011
10111100000111010110000001110111
00111100001101101000100111011100
00111100110101110001101111101111
00111101011101100111011001000101
10111100011110101110010101000100
00111011111100010001100010111001
10111001100010111001011000011110
10111100000111110101100100110101
10111101010010001111001011111010
00111100110011110110101101000110
10111100100010010011101000001010
00111101000100110000011111000100
00111101000010101011001001110000
10111100101001100111000101001101
00111100100100100101100000111110
00111100101110101001001101110011
10111101000001010000011000111101
00111101001111000011111110001001
10111101000111010101110000001011
00111100100000000010010001100110
00111100001010001011100011101010
00111101001110001110011100000101
00111011011110011000011111010001
10111100110001101101001100000011
10111010111110101101101111010101
10111100001000110010101001000001
00111100101100100000100010100111
10111011010100011101101110011011
10111101001010110111101011001111
10111101001010001111010110001001
10111100011111111111000011111000
10111100111001000100001011110111
00111100101100010100001100010010
00111101001100011111011001110101
00111100011111001111000110100110
00111100010100000101100101101001
00111101000000110011101111001000
10111100100010111100100010110001
00111100010101110010100101111010
00111100101010101001110010100110
10111100100001100111011011001101
00111100011110011111001111111001
00111011001100101110001101100100
00111100011011011110011010110100
10111011101100101110110001111100
00111100100000100011111011111111
10111100101111111010001101010001
10111101000000010101011010001100
00111001111110010000010010101110
00111101011111101010110110111101
00111100000101111100001111111011
00111100011011000011110001001110
00111011101100010011010111010111
10111100010101100110000010010110
10111011100001111000110010100000
10111100111011010011000011100111
00111011100011101100001111111100
00111011100110111110110101001010
00111101000011110011001101101110
00111100010000000010100010001010
10111100110001001010111111001100
00111101000110101000000110100010
00111100110110010111011111110100
00111100011000000000101110110001
10111100001100001010110010010001
10111101000010110011000110000111
00111100110000111010011111010101
00111101010101101011000001100001
10111100111100101010001100100000
00111100000010010001000011110010
00111101001101000000011010010000
00111100101111101011101110111011
00111100001010101100000101100110
00111101011011001101001101000101
10111100100100110001110110000000
10111100111110000010110010001001
10111101100101100001011110001110
10111100111000100101101001101011
00111100000101010110111010000011
10111011110110101110100111001001
10111101000111101000100010111011
10111100011011010111000101111000
10111100001111011011100001101101
00111100111001110110011000101111
00111101010100011101010110111101
00111101000101100110111010011100
10111100101010011000010100100000
10111101001001111011110101011100
10111100100011000000001001100110
00111010100010010111110001000101
10111011101000110001110000110010
00111011010101111110000110111010
10111101000000001010001001001000
00111101001100000000000110000000
10111100111110100000100001001011
10111100010101101010111111001011
10111101100010101011110111010010
00111100100111101111101110101011
10111100100111101100010000000010
10111101001110000101101110110000
00111011111011110110110001001010
10111101000010101110101100101111
10111011010000101010110001100101
00111100110011111101101110011101
00111101000010011010100001001110
00111100101111101000000100100000
00111011100001101100011001111011
10111101011100000100111111011100
00111100101000011100011111100101
10111110000000110110110100110101
00111100101001000000101010111011
10111100101111011101100110111110
10111101001011000111011011100010
10111101101110010010101100111101
00111101100101111010101001101100
00111101001010001110101001011001
10111101010111111111010111010010
10111100100110100000111100001111
00111100111110000110000110100100
00111101001100001001101100111111
10111101000010011101100011011111
10111101010011011111100010101111
00111011010110110101000010010000
10111100100010101010101000010001
00111101100010000010011101011011
00111101001011111101111001011000
10111101001000000100101101011100
00111101000101000011110001001100
00111101000111010001101010110111
00111101001001010110011111100100
00111100111101000111010001011101
00111100000100110001110010111100
10111100010111011101010101011000
00111101010100101110100000001100
10111100100101001100000110100010
00111100101111001110001001010000
00111100100001101101010100010000
10111100110100000001001010101010
00111100000001110001000101100110
00111101001100000101101110011010
10111101100011000111101010011111
00111101001100101111101010010111
10111101000010001110001000111111
10111101010001111001110001000001
10111100001011011011100000111110
10111101011001000010110010101010
00111100010011010101101110001110
10111101010101110010110001000011
10111100101111001100000000100111
00111100100100111001111001100001
10111100010011101000101001011100
00111101001010110000100111101100
10111100101110000010000110101110
10111100110110001100101011001001
10111101000101011011110001110110
00111101001110000000010111111110
10111100101010110111100110011110
00111101010101111110110011000100
10111100110001010101010111111110
10111100110000101110001001011010
10111100100011010000010101101101
10111100000110110111011000110011
10111011011010110000001111001000
10111100101101001011000001011110
00111100001011010100011100001101
00111101000100101000011010100001
10111010001100010011001111000111
00111100110110000000001110001001
00111100101011011011010111110101
00111100010111000110011100011101
10111100100010100101100000001001
00111101001000010010111111110001
00111101010111011010101010000100
00111100101010000111111011101101
00111100111000100100101010011001
00111100011001110011011110100001
10111101011101001011001010100110
00111101010110101010010110111111
00111100100111101111111111111110
10111101010010011000000011110010
00111100000000010000100111100010
00111101010000110011101110011000
10111100100000100010010010110100
00111100011101111110010100001010
00111101101101110111001111110001
00111100101010001100110000000100
10111100110001100011000110010110
00111100000010010110111000010011
10111100111000101101101001000011
00111011000101000001100000111000
10111101101000001101000101111111
00111101000111011011111001110111
00111101011110101101011011101000
00111101000010111000010111011000
00111101101001000000001101000100
10111100011001110111100110001011
00111101010011111110101111111011
00111011100010110010011110010101
00111101100001100001101001010001
10111011000000010111011110011110
00111101100001011100101000100011
00111100001111101000111111111101
00111100001011101110011010111010
10111101001111011000000001101011
10111011110001011001010001100110
10111100001100011011011111101110
10111101100011100000000110111010
00111100101110011101000111010011
10111010000010110001100011001110
00111010111001010100001000010011
00111101000001001001011010111000
00111101000000100111111010101010
10111101011001110110111111001010
00111100011011100000110110110001
00111101001101010001111100110001
10111101100000010001001111100001
10111101001011001111111101101011
10111100001100000110011111010001
10111101001101011000011000010010
00111101000110001011011010001110
00111100001100111100011111110100
10111101010010000100000000111110
00111100110011110110000011001001
10111100111110111111000101001001
00111011010111111110111000111001
10111100010110011000001110000110
10111011000010101100001011000111
00111100111001000110011111100011
00111101010111000010001010010000
00111100100110101000111010011010
10111100001000001010110011111011
10111100001011110000010011110111
10111101100111101000001101111110
00111101011111001111101001000000
10111101100011000000010001011110
00111100100111000000010101100001
00111100110000111100110010101000
00111101000010110011101000011001
00111011111110011011010001010000
00111101000011110010011111101111
00111100110001010011111110100000
10111101011001001111001100111001
00111100010110111011101110010111
10111100100111110000110011001100
00111101001100100011001001101001
00111100110111000011011011110010
00111101011010100100110110001000
00111101011001100010100000110100
10111011101101100111110001010001
10111011000010111100000110111001
00111101100101000110101100001111
00111100111110000101101001101100
00111101000100100000100011000101
00111100110111011000111000100100
00111101011011100111010100101001
00111101011100010011111100001101
10111100101011101110000010100010
00111010111001100001010110010001
10111101000010000011010111110001
00111101000010110101111101000110
00111011101001011011000011010000
10111100111010110100011101001001
10111100001111111001011001110110
00111100111100110000001011101000
00111100101111010001010111110011
00111101000100010111010010010111
10111101001101101110010110001001
00111011000011111111110011000011
10111100001111111010010010010100
00111100100001010011101000111001
00111100101110011010000111010001
10111011111111111110001100100111
00111101000100111011010010101100
00111101011000000110101010110110
10111011100001011000111011110101
10111100100110101111111001111000
10111011111011011010011011000111
10111101010111000011010111101000
10111100110011011001010100000100
10111100101110111100110111011100
10111100110000001000010101111000
00111101011000111111110000001000
00111101001101100100100100010000
00111011010110111010001011000110
00111101011001110011001100101111
10111100101010010100000011001000
10111101001110110101010111111101
00111101010011000011000110111001
00111101101011111100011000100111
00111101010000000110110010111001
00111100001010111001101110111110
00111100111000001001110101100110
10111011100101010100001111100000
10111100111000010010110011101110
10111101010010011111010010000011
10111100110111111100100010111100
00111100110010001011000001001110
10111011101110001101110110100001
10111101000010100001001011101100
00111100000011011011010011010100
10111100000101000011111101111111
00111101000100101001111001101101
00111100100001100111110001111011
00111100011111111000100001011010
10111101000001111100111101000111
00111101001001100100111000101010
00111100100101111100011111000111
10111100011100011000001111101110
10111101011010010101111101000011
10111011101110101110010101000001
00111100100101000110100111100000
00111100101010010101100011100010
10111100111000000011010001010101
10111101001101110011001000011000
10111100110110010000000110001111
00111011110011110010011011011100
10111011101111111000101011010010
00111100010001010010101010100110
10111010000101000011000001100010
00111101001000101010011001110011
10111101100000001010001001110100
00111101100010100111110001110100
00111101000001001011000101000010
10111100010111001001110100110010
00111101011110000010111111000000
00111100100000101111001101000010
00111101101110110111000011111000
00111100100011000100110111011000
00111100111101111100111010001011
00111101100001100000010011100010
10111101010110100010010001010111
10111011110101000100010001000011
10111101000111111001011100101111
00111100000000000000000010010100
10111100110101101101011101100100
00111101100000100100000001000001
00111100000100101111111001100010
10111001110001010000000101110100
10111100101100011100001001100001
00111101000010000001001001000011
10111101100110000011100101101011
10111100000111100000111100101001
10111101010100010100000011010010
10111100111101001001011011010110
10111101100101000001100001011000
00111101001001000110101100100001
10111011101010001101000101001101
10111100000000000100010011011001
00111011100101101100101011010110
10111101011101101011010001110100
10111011110100001010010011001001
10111011011011110111110101110010
00111101001100100100101011101100
00111110000011110111010101101110
00111100000100001111110101010000
00111101000111001110000100101011
10111011111011000111000111101100
00111101000001001011000010111001
00111101001101111111000011010111
00111100110001011000101010010111
00111101001111100000100111111011
00111100111100001110010110110100
10111011111010100111100110000100
00111100101111101000011100010110
10111011001011011101000001000110
10111101000101101101010101010010
10111100010101110001010011011011
10111011011001110001110001000001
00111100100010111010100001110011
10111100111111010110100011100001
10111100001000101001110011011010
10111100101110100010010111110110
10111100111010010001101100000011
00111101001001000010100101010001
10111101010100001000111101011110
00111100101010110110011011010101
10111100001101010100101010011011
00111100100001110101100010111100
00111011110001010111000010010000
00111100111001010100100110111111
00111100010011111100111100111110
10111100100110110010111101110010
00111101000110101101010001101110
00111011010110001101010100010011
10111011111111111100110110110110
00111100101001110111111110101001
10111100110111011011110011001000
10111100101001110000001001111110
00111100111101100100100100101110
10111101001111010000100001110011
10111100000101111001010001110100
10111011101010110000101011001000
10111100001001111111001010000101
00111100110001001000010111100101
00111101001100100111010101111101
10111100111010101001000110100000
00111011111001100000111111110100
00111010100011100111111110011000
10111101001110000001010100111011
00111010100100110010100110000111
00111100010010100111001010100011
00111101000000001010100010100100
10111011110001101100010110001001
10111101000011011101010110100000
10111100111111110010101001010011
10111011101000100110010100001010
00111100010011111001001000101001
00111101000100010011111011110111
10111011101111111101111101110010
00111100111010111110011000010111
00111100010110010001101011010101
10111101000000001111010100011011
10111101000100110110100110001110
10111100111101010111010000000011
10111011110000101101001111101111
10111101010010111100111011101101
10111100101010000010000010110000
00111101001101111010111110011100
00111100110001101111110101110101
00111101100010000010011100110110
00111100110000010101110111011111
00111011100110000000110100010110
00111101000100110111100101000111
00111100001001111001000100101110
00111100010000110011011111000110
10111101001110101110011001110110
00111011110111000000010110100011
10111010110010001100011011111100
00111100110111000001101101101010
10111101001110000100001011000001
10111101001001111101110100000110
10111101011101011111110100100001
10111011100001111011110100110011
00111100011001010101101000001011
10111100000000000111111011001001
10111100111000110110010100001010
00111010110111111110101100110011
00111100101000011110010000001110
00111011000110000011010001011110
00111100111101010111110011000100
00111011110010100111111011111010
10111100100110110110101110101000
10111100001111101000001010011001
00111101000010100111011111110000
00111100010110111111001100110011
10111100110001111110111000101100
10111100110110100110111001111011
00111101010011001010010001011110
10111100100111110000101101110000
10111100010011010100100100101100
10111101001000000100001011001010
00111010101000101100000010000001
10111101001001110100000111101110
00111101000001110100100011010010
10111101011000011111101001011101
10111101010100101101111100010101
10111100110100010100101111111110
00111100111110000001110001001001
10111101001110101100110111100100
10111100100101010001111100100111
10111101000110011000100101011101
00111100100000111000011111111100
00111100000110110011011011100111
00111011000010101100010110101010
00111100110000000010101100110101
10111010100001100000100101101001
10111100100001001111101010011011
10111100010000010110010000000010
00111010110111001110001101111100
00111100101101000001000000110110
10111100111000100001111000010001
10111101000101111000000110011100
00111011001110011111000110001110
00111101000111000001111010111001
10111101001001100010101011010010
10111100111110110001101000011111
00111101000100100001000100011100
00111010110110001000001111000000
00111010101100000001100100111101
00111010111100111110100110111001
10111101001001011111011000010110
00111101011110000111001100000100
00111101011000001001111111100101
10111101000011100101111001110011
00111101000010000101100100101110
10111100100011111011100000110101
00111011101110010110100001001010
10111100100110111100001010011010
10111101000000101001111100100111
10111100111111111000011100001100
00111101011011101001100001011100
00111101001111011011011001100101
00111100001100011101101111010000
00111101010111100110011011101001
10111100110000000001110111100111
10111100010101001100010110011010
10111100111011110110101110011110
10111100000011100100000011111101
00111101101000001100111100110111
10111100100111001010001000001100
10111101010111110011100101111110
00111011101100100011011000101000
10111100110000011000000110100100
10111101001111000001111001011011
00111100000011101001110100110001
10111100100000000101101011100010
00111100100010110011100011111100
00111101000110101101011111000111
10111101100110110001100110110101
10111101100011010111001101111110
00111100100001001010011111010000
00111100001010001011010001011100
10111100011000101100000101111010
10111101000000010001000100011101
00111100101011000000010000001101
00111101011011100110111000001001
00111101010111111001100010101010
00111010100000011111101101001010
00111101000100100011100100000100
00111100111000110111110111101101
00111101001001010100001010110000
10111100100111100101000111110010
10111100100001101000100111101001
00111100000001111010110000110011
10111100010101110001011000100101
00111011100001111101100011010001
00111101001011000100110100101000
10111101101100110010111010000011
00111101010010011100111100100100
10111100011101010101101110111010
10111101000100110011100000101010
10111101001011011011011110010110
10111011111100100100010001111111
10111100110000001111001000110100
10111100101011100001011100100011
10111101001010010110011101111001
00111100011011111000101110011111
00111101100101010000011100001110
00111100100101000101100001000101
00111101001111010011001100011000
00111100110100110110111011100101
00111101001110001110001001000100
10111011110100100011010000001010
00111100000100110101101111000010
00111101000001111101110111001011
10111100010111010101011010100110
00111011111101100110101000000101
10111100000101100111100010011101
10111100101110110100110010100001
00111100010010101000111111101100
00111100110101000000011110011101
10111101010000010010111111001101
10111101000011110100010101000010
10111100010111000100010110100010
00111101000011001000101001111010
00111101000100011101100101011001
10111011111001111100110011101110
10111100101110010000110111100001
10111101000010101111000100001011
00111100100001101001111011000010
00111100110101100010001110011010
10111100100010101101011101001110
00111101010101000111000101100101
00111100011100110010101111010010
00111100111111011100000011011111
00111101001001100010000101000101
10111100111001100110100011010101
00111100010100110010111000110011
00111100001001101000000001011101
10111100101000111111010001110001
10111101010011001110111011011111
00111100011111110100111001000000
10111100110000110100110001110101
10111101011011000101101101000110
10111011111110000101110111100011
10111101010101001000000100000100
00111001010111001100101001011100
10111101000011011101001111101011
10111101000010111001101111000100
10111100100001010010100100110101
10111100011011111111011001111010
00111100110000100110110100001000
10111101011111101111001101110101
00111100101000001001110100111001
10111100111000000011001110010001
10111011100010110001110111100011
00111100100100101011111111010010
00111100010100100011111111000000
00111100100011011000110111101101
00111011101101100001101001101001
00111101000010101110100010001001
00111101000101110111111001010011
10111100111010110101000000100010
00111101001110110110100100110011
10111010110010110010111100100101
10111101001110010010110011110000
10111101000100001110101110011001
00111101011011111011001101000100
10111101001001011011010111010110
00111101100010001110001010000101
10111100101001011101101010110011
00111101001110110011000111101100
00111100101101000100110101001001
00111101000011011000101010000111
00111011100011111100011100000111
00111100010000111110101001011010
00111100111010101011101100110010
10111100101001101000100001000000
10111101010011110010000000010100
00111100101100100111010001100110
10111101000011111001011111110011
10111100111011010110001110101111
10111100110110101101011000001001
00111011001111011011101100000111
10111101000001001000101110100111
10111100100010001011111011101000
10111101010111111110101011101100
10111101000001000110101100001001
10111101100001111111000010000110
10111101011110111011100001111001
10111101010100110111000001101101
00111011111010010101011100111010
10111011110111101011100100000010
10111101001001100000001001101110
10111100100110110110001011111110
10111100011001001000001010000110
10111101000000111110010111110101
10111100110111110011101110000010
10111100110111111001000111010001
10111101010000011110100010101101
00111101001011111011001001111110
00111101110100101111011110110000
00111101110101100101100100110000
00111100111110001011011101101101
00111101111010000101100010100000
10111010110011101110001101100010
10111100100111000011110111011100
00111100001011100100000101100100
00111101100111111000100100010000
00111100101110101010011111101000
10111100101000000001101111010010
00111101100111111101111100011000
00111000110100101100100010101110
