10111011010001011101111101100110
00111101000000010010010100011010
10111100101110011000011010000111
00111101110100111001001101011101
00111011011010100101110011011101
10111101011001110101000010101111
00111101010001000100110001111100
00111100100000100111010100000000
00111100100011000111111010010011
00111011111011000010001010110001
00111100111011111101000101001010
10111101101000010001100111000111
00111101000000010010011101111010
00111101010001011110001100001001
10111100100110001111000111100101
00111101000101101010111001011101
10111010001110111111100000101100
00111101100000000111010111100100
10111011000000110110001101010000
00111101000111110011001111100011
00111011010111100101011110000100
00111100101000111011001100011100
00111011100001111000001010111011
10111010011001110010111110110101
00111101100000000000011100101100
10111101001111101110010100110001
10111100100110111001100011001000
10111100001001001100111111010000
00111101010110000010111010010110
10111100101101000101100100001101
10111100100111100010000101110001
00111100101101111111000110110011
00111101010011101110010111110010
00111101000111100111011001101001
00111100100111100100010111001010
00111101011001110110011011011110
10111100100100011110100011101010
00111101011011011110101010111101
10111101000011010111011100111001
00111100010001000000010111001111
10111100000100100000001001001000
10111100010010101011000010111011
00111101011011011111110000001001
00111101010011111110000010111111
10111101010110011110000111101110
10111101001110101100110111001001
10111101011011100100101100011100
10111100011000110101011010110001
10111101000000100101001011101110
10111100101100111110111011111100
10111011010100101101100101110111
00111100111000000011000100011101
00111101001111000110100000000010
10111101000101000110111001111011
10111100101010111110100111001001
00111100101110100000100001100110
10111101001101010011001100100001
10111101100101000110100111101111
10111011000000100101000010011111
10111101000010101101001010010101
10111101001111000101000100011110
10111100101011010100000100011010
00111011101111001110000010000111
10111101001111111000011101011110
00111101000101100010000001101101
10111100111010011000011100000000
10111100110111101100111001101101
00111101110000101001100011110110
10111101000000101111000010010100
00111101001101100111001010010100
00111101010010010101110111001101
00111101101111101010111100101001
00111101100001101111000000110011
00111100111110110100110000110000
00111011111000010000010010110111
10111100000111001101110010011110
10111100101011001111100111000110
10111101000101101000000111101110
00111100000000011111100111011001
10111101000010001010101110101111
00111100100010010001100111010010
10111101011111000011000000001111
10111101000000110000001101111001
00111100110011010110000011110110
10111100110001111010111011010101
10111101110011101110111101001001
10111101011110101000110111110011
10111101000011010101001011000010
10111101001000000000010010000001
10111101011000100001001101111000
00111011100010000110100000111000
10111100110111010001001110100011
10111100001001110001011000001110
00111100000100010100010101101010
10111101000101001011101000001100
10111011011100010001100010000011
10111101010001010010101101011111
00111101010100111000101111010001
10111101010010110100100111100110
00111011110100000010010111011010
10111100100011000001110100111100
10111101011010111000001110111110
10111101001110111101001001111111
00111100000001001000101111010100
00111011000010100100110010100101
10111101000000101011111000111111
00111100001100110110011001011111
10111100001110010110110111000001
00111100011101001100100110001010
10111100000000000110001101101101
10111101000101000010100101000111
10111011101100111001101110010001
00111101001001100011000001000110
00111100011010111001111010000011
10111001110000100001111101100101
10111011001111001001010011000011
00111101010101001011010011111001
00111101101101000001000001010111
00111101000011010000001001100101
10111100011110000001100101100001
10111100100011011000000011010101
00111100110011001110001110110101
00111110000000101001001100111100
10111100010110000101010000010011
00111100111011101000101010101001
00111101001001101100011110010001
10111100001111110010110101010110
00111100000010111011001010101001
00111010110111111111110100101100
00111101000100110011000001001010
10111011010001000111000100001110
00111011110111001001111111011011
10111101000010001010000001001000
10111100000110011101001101010010
10111010100110010011010110001011
00111100101001010110110011110000
00111101000110010100001010010010
10111101000010101010111001101010
10111100000000101000100111010001
00111101000100101011001001100010
00111100010001101101111100010110
00111100110011110011011011101000
00111101001101010001000111111101
00111101010110010110100110010010
10111101100111001011110010100101
10111101110110001000010001011001
10111100111000011111011101011111
10111100011100110010100110100000
10111100110000110101001001111111
10111101000110101001000110100111
10111011011001001001110110001000
10111011111000000001111110100111
00111101100001100000011011110001
10111101001000001111111110010110
00111101010100110110010001000000
00111101101010001110111111110011
00111101001011101110001010100010
00111011111111011101101000111101
10111011111111111011000100001110
00111100010010101000100011010010
00111101010011101101001100111010
00111011010110110110110001001010
00111101001011110010110010001000
00111100011100101101100100000000
00111101011101001001110001110101
00111101010110101101000111100101
10111010101100101001011010001010
00111101010001011001111001000101
10111011101010101111100001110001
10111101010110010001110111111010
00111100110101110100010110010110
00111101011100110111101111001101
00111101101011101110101111011100
00111011100011011111100010100110
00111101101100110001010010001011
00111101010101011001001101000101
00111101011101011010010110100010
00111101000000100001110110111001
00111101000100101001010000111011
10111011101110000011001000101011
10111101011111101000110011000000
10111101100111000010110010110100
10111100101000011000000010001001
00111101001010000101101000100110
10111011011000001011000010000100
10111101000101111110100010000001
00111011010100000011010101010000
10111100111100001101111001111010
00111100111101000011000001100001
00111011111110001101011101111011
00111100111110010010101101010011
10111011000001100100001011110111
00111101000010100101111100011010
10111100011000110010101010001111
00111100101110001111010011000000
00111101010000101011001011011110
00111101001011111000100110001100
10111101100011111110110000100101
10111100100100110011111001111000
00111100011111110101110101100101
00111100100100110011011011110100
00111101010110110100000001010100
00111101000001010010110111010101
10111100101011000011011011001111
00111100101111100101110000010111
00111101000000100111111011010110
00111101001100110010011000101010
10111101001110011010001110010001
10111101001010110110100100011111
10111011001011010101111000001111
10111101100111100000100010001101
10111100000011111111100100001011
00111101000000001001111100001011
10111100111101110111000011001001
00111100111110000000001101010010
00111100000100010011001000000010
10111101100101110000000111111101
10111100010001011100001111010111
00111101001000001010001111111101
10111100100010100100100000000110
00111101100111111011101110010001
10111010111110110110000101000011
10111010000010110010100011011110
00111100100001100000001001010001
10111011110111101000001110111001
10111101100001101101011000110100
00111101000110001000111100011100
00111100101101001011100000110000
00111101010111101000110001101000
00111011101000001110101110001100
00111011110011000100101100101110
10111101100100000001010111110111
10111101001101111010011001001111
00111000001010111010000101100101
00111101001001110101010110111010
00111101100000101010110000110001
00111101011100110111001111011101
10111100111111000100110010011101
10111100110111111000111111000101
00111101000111001011010111100000
00111100100110100010111000110011
10111100101111011110000101010011
00111100001101000010001001000111
00111101100001100100011001100000
00111101000011010110101011001001
00111100011001011011110110010110
00111101001000001100101001111000
00111100100101000000101010010001
10111101010111101011110110101110
00111101001101010101110111101110
00111011011111111111101101100101
10111100100101010101000110011100
10111100000111001110101101100011
10111011000001101010001001010110
00111101001011101000110001100100
10111011101011110110010101000101
10111011001000011110001001100110
10111101101000001001110110000011
10111101001101111011010000011010
10111101001101000010111110000000
00111100101000100110000100100110
00111101001000000100110101000010
10111101010101011010110000010111
00111101011001111100010001100010
10111101000001010101101010010010
10111100100101100010011100101111
00111011010011111100111101101001
00111100011100100010100001101101
10111100010011010000110100001101
10111100101011101101011010111101
10111001100000001101101000110000
10111100110111000001011100000000
00111100001001100101000000001010
00111100101110001101000001101010
10111100011110101010010011111010
00111101000010111100111001111111
10111011010010110001011011000000
10111101001010101011001101110001
10111100011101111101111000110110
10111101000001001010010100110010
10111101110000010111011111101000
10111101101011101101111011001010
10111100000011111111001010111111
00111100010010010111111000100010
00111100010010010110010110011000
00111100101100101011101001100100
00111100010011000010100111001110
10111101001010001000000100000100
00111101001111101001000011000010
10111101001001111000100000110011
10111100111110001011000001001010
10111101000111101101011100011111
10111100110110110101100010110111
10111101000100110101000010000001
00111100110011001111000110101001
00111100010101001010000011110011
00111011100000000111110011111000
10111100111001010100001101011000
10111011101011000100100110011010
10111101010000011111101000110001
10111100001100101100100110111011
10111100001101010001101111010000
00111100001100101010111110111010
00111100110010010111110001011001
10111011010101010111100110101101
10111100001011100000001000011000
00111100101010010100011110011100
00111100110011010110100111100000
10111100000011010011010101100101
10111100011000110011110010100111
10111100010011111111011100001000
10111101001111010011011000110111
10111100101110111000000101101100
10111001010010010011110100010001
10111100111001101111011010010010
10111101000101000110011010101001
10111100011011010101011010101001
10111101000100001010100100001011
10111100101101110110110001110110
10111101001101110001101011111011
10111100000001011000110110101110
10111100101110110100101111100110
10111100000000000000011010001101
10111010110111000111010000100000
10111100010101111100101101100110
10111101010000000000110100001111
10111100111110111010100010110010
10111101001110110111111011011010
10111010000101110111011100101100
00111101011001010001110100011110
10111101001110010000111001110101
10111100000011001000101011000000
10111100001101010010110111100011
00111100111100010101101000111001
00111101101000010100010100001110
00111101001010001100000011010101
00111011111000000001000001010100
10111100101111101011001011101101
00111011101110111110111110010010
00111101000010110011000010101001
10111101110010100101011101110001
10111100110111010010110001011010
10111100101111001100010101101110
10111010001001010111110000001110
00111100001000000010110100011001
00111100111011010000001000110011
10111100101000110101100000011011
10111100100010000000001101000101
10111011100001000110000100011000
00111101000000110001000010011111
10111101010010011110010001101111
00111100101010110001100001000000
10111100101101010111000100000001
00111100010101101001101111100011
00111101001001100001010001011000
10111101100101100110010010010100
00111011101110000010001011011101
10111101001110110110100111110101
10111100011111001011101110110011
00111100101001111100001110001101
10111101000110011111100001011110
10111100111011100001000011101000
00111100101011000100100111111001
00111011001010010011100010000101
10111100000111100001001000011011
00111100110111001100010100001111
00111100010011010010001010011000
00111101100011001011101011000110
10111100110000010111001001010111
10111011101101000100010000100010
00111100100000101000111101001000
10111101100000110100001000011010
00111101000101111110111011010110
10111101000111100111100001011011
00111100011000010110000001110011
00111101010001000011101011000110
00111100010001000001001101000111
10111101100110110001010100001110
10111101001101010101110011000001
00111100101111111101011101111001
10111101011010001100101001001010
00111101000011110101001000110001
00111100100001001111011101100101
00111001111111000000011011111110
00111101100010111111001110110000
10111100110110110110110010100010
00111011110110011000110010111111
10111101000000011111111010001110
10111100010010010010100011001111
00111011101000001100001110100000
10111011010010011100111111100010
00111100101001001000110110111100
10111011111000101010001100111101
00111101010110100011101111001010
00111011101101001101011111011101
00111101010101100010110000111011
00111101101000010011101001010101
00111100100110001111101110110100
00111101100011111110001101001101
00111101001111111111000110010010
10111101110100010110100001001000
00111101100011100110100011111100
10111101000010101001111010100000
10111101110001000010101010110100
10111011100110011000110101101100
10111011111000000101100010010010
10111011100101000100110011010000
00111100000100110010101011110101
10111100110100100111000111110010
00111101000000010011101110101111
10111011100101011011111000101010
00111101011101110010110100000011
10111100010011000000010101000011
10111100001101010100001110010111
10111100000111001001001001000010
00111101000110101011011011111001
00111100001010101011111101101000
10111101000100010011001011100111
10111101010011001010111111101110
00111101011100111011110011100101
00111100001110101001110100100000
00111100011000010011110010100010
00111101000100011101000111011011
10111100101011011100110101111000
10111101001001001100001111001011
00111100110010001110100100100101
00111101010100011110011110101001
10111100100101101100100000001001
10111100011001110001101001000001
10111100010001000010110110011011
00111100101011010101110010101011
10111010001000111010001100010001
00111101111010100100001000100100
00111101101000100101000000101101
10111100100011010000101110111100
10111100110111101111111010101011
00111100110001000011111011011110
00111100110001110100111010100111
10111101011111000100100000001110
10111101011010111000100000101000
10111101001010000111011001010101
00111100110111101100111001000010
00111100110101010010111111101111
00111011111110010011100111000010
10111100010010010001000110001111
10111100110000111101111000000100
10111011110100010100011111001010
10111100110111111011101100001101
00111100011001101010100100111011
00111011100101011011000101001010
10111100110010001001100011111101
10111101001000100100100001111111
00111100111100011111001011011101
00111100000110100000111100011000
00111101001100111110001110100111
10111100110111111010111010000010
10111101010011110010010101100100
00111101001101010101001110111001
10111101011001011111101101000101
10111100110001110010110101100101
10111011010100110101001000011010
10111101000001100010100101110001
00111101001111100011011001100110
10111100010100111001111110000110
10111010011000000110111101100001
00111100110000000011101001110100
10111100111110111010001101000011
10111100110000010011100000111000
10111101000000100110110010110100
00111011000001010001001001000110
10111100111010100010011111100100
00111101000111010101010001100011
00111100001111000011111001000010
10111100011100001111110110111010
00111101010011011110100110100110
10111100111110010101110000000101
00111101010000001101110010110100
00111101010110111010000110010010
00111101001101001111001001110110
00111101000111100101010110010010
00111100110101010011000011001101
00111101000000110101111101111010
00111100011001010010001001011000
10111101010011101011111011011000
10111100100101001100000000011001
10111100000101110111111100101010
10111100011110111011010000001011
00111101101010000010111101111110
00111101000000000110101101111001
10111100011001000110101010101010
00111011111010001011100011001010
00111100111010010011111101100110
00111101000110101011100010011110
00111101011111011101111100110000
10111100011010010111010001000010
00111101100001111110100001000100
00111101001011010110011100100000
00111100101110010000001100000101
10111101000100110100011000101100
00111101001000011010100110001010
00111100110010111001100110111100
10111011101010001000011000000010
00111100101101111001110111010100
00111100001001111001100111111110
10111011000010010111101011111000
10111100100001100001110010100000
00111101001101011111100011011011
00111100000010010001101111100110
10111101010101001011001111101001
10111100110111101100000111100110
00111101100011100100011111001111
00111100111010010001111100010111
10111011100000011110101100000000
00111100011001110100010010000110
10111100111110000100110010001001
10111101000000111000000100101111
10111100010110100001110001101010
10111101000011101100011110010101
00111101011110010000001010011100
00111100010000111110011010100001
10111100100111110001111000011000
10111100100110001101001010101110
00111101000100011110100100011110
10111100100101111011000111001011
10111100010101100101101011100100
10111101010101110101010011111001
10111100010111110110011011101010
10111100100101010101110011010000
10111101001001000101101010001101
10111100101100101011111110010101
00111100010101011001100001100110
10111100101100000010101011100101
10111011110011111110100000001110
00111100111010011111010101010000
10111011010011101000111110011010
00111100011101110000110010011001
10111100100110100011011101010010
00111011010001000000110000000111
10111100001111101011010011010011
00111101001001000001100011011111
00111100101100100010101000111110
10111101000111100001010000010100
10111100110001001100001100001001
00111101011110111101000110110101
00111100100111010101011111110110
10111011110011000111101001011001
10111100011000010100010000101001
00111100110000001100111000100001
00111100111100001011001001011000
00111100110111010001000110101110
00111101010111110110101110110101
00111101001001011100110101011000
10111100010110001001101100010011
10111101100111101111111001111100
10111100100010000001111100110000
00111101100000111110010001100111
00111101010101011111010001111111
10111101000010000001010100011100
10111101100110111000110100110000
00111011001001110101010101101011
00111100100010100011000101010011
10111101010011001111010100000000
00111011100101101010110000011011
10111100100100110111111110010000
00111100001011111111000110000011
00111101000110110011110110111001
10111101000010000000100001010000
00111100100111110011101101111110
00111100101111101101100010001011
10111100110111001100111001011010
10111100100101010010010011000010
10111100010010101111001111010101
00111101000010110001111101001100
10111100111010100111010110110000
10111101011110011011100011000001
10111100000110110101111101110101
10111101101001101000010101110100
00111100101101100101010111110001
00111100011010100000101000000111
00111101011011111100110101010001
00111100101011110000010010110100
00111011110111000111010010000111
00111101100011011111101111000010
00111011111000000000100101110110
00111101010010010111011000101100
00111101000110110111000011011111
00111100111111101001011110101110
00111100101000100000110110000110
10111101010011010101111110101100
10111100100010001100000110101011
10111011100001000101001101010010
10111101001110010110011101000111
10111101000101001111110001101011
00111101000100000110010010000100
00111010010100001011011011001010
10111100001100111001111000010000
10111100101101000100001111001111
10111101011001100001000111010110
10111100010000101110111111111100
10111100000011101111001110101010
10111100010010011111001010010101
00111100100001000111011001000011
10111101000001011110000111110101
10111110000011000011100001001010
10111101101001111101011101100110
00111101111000001011111010011100
10111101100011011010111011110000
10111101110111100111111000010011
00111011101111111110110110100011
00111101000110001101110011000011
00111100010110101001001001101001
10111101011001111100011000010110
10111101010011011001010010000010
00111101100000110010101010100000
00111100001110010011101110011101
10111101111001111010101001100101
10111101001101110111110100110100
10111100001000001101101100010110
00111010110010100000110111110000
10111100000100110000110001011101
10111101010101110111010110100000
00111101100010110010010100110111
10111100100000100001111100010100
00111100001111101000110011011011
10111100001010010010111000111011
00111101000011110001100000101010
10111101001110101111100010101111
10111011100110101010100011001010
00111100001001111000101100011100
10111001001110001110111000101111
10111101000111100110011010111100
00111101001011101001001101011011
10111100111001000011001101000001
10111100000000101001000011000000
00111101001110110001011001110001
10111100000001101000100111000010
00111101010101110111110010111010
10111101000000011101001010100101
10111100100110110100010010001000
00111101101001011011100000110110
00111101100110001111001110000001
00111100110101100001001111001010
10111101000010000011101011111010
00111101101111101011010010101001
00111110000000001000010101100010
00111101101100000000000100100101
00111101000100110101100000000110
00111101101111001011010101100011
10111101000001011010001011110101
00111100100011000000010100000100
00111100111011000110010010001011
10111011101111100110001010111100
00111101011000011010101101101110
10111011100101101111000100100100
00111101010000011010010100110001
00111100110010001101110111000111
00111100001001100100000001011000
10111101000101110000001000011011
10111101000000101100101010111010
00111100111101001101001000000110
10111011010000101010001001010110
10111100011111010011011001000011
00111011010011010101101001110101
00111100101001011001111011000110
00111100111101110000110001011100
00111011101111001111101000111011
00111101001000010111110011000110
00111100000001100111110111100100
00111101001100010001010011011101
00111101001011011001101101000010
00111101000000111010000101000100
00111101000011110101001001000100
00111100011010011010000010001110
10111101100001011010001100010100
00111001110000000111010110101111
10111101001010000011100000101101
00111100110100100100100110101111
00111100110000010010110101101110
10111011101000111111011011011000
10111101000100000001100100111010
10111101011110111000010100001000
00111010110101101111110011001101
10111011100011011110111100110010
00111100100110111001111010010011
10111100100101010100010101110110
10111101000111110011101100000001
10111101100100111010100110011001
10111010110010010111100011000110
00111100110010111001110111100101
10111101001111010010000111010100
00111100101010100110001000101100
00111101110111111100010110010000
00111100111100001000011100001110
10111101100100110111001010010110
10111101001110100101001101111101
10111101010101111101111111011010
10111101111001010110001010111110
10111011010011100001001001100111
10111100101001101100010100111100
10111101100010111101001100000101
10111101001011001101001110110011
10111100101111011001111010001011
10111100101101001010111110001000
10111101010010101101100000111011
00111101000001111111110100001111
00111101101001110110101001100000
00111100100000001111100101001111
00111101010010011101100000111110
10111101101101110100111010011110
10111101001100100000111111001101
10111100110010101110001001001001
10111011101110011001100001010010
00111100101010011011100010001111
10111100100110110010100100101110
10111101001000111011101000100111
10111100100001010000001000100111
00111100100011011101111101101110
00111011100111000101011100000111
00111101001001000100100111111010
00111011011010100100100101010110
10111110000101010101111010101011
00111100110010001001001111011110
10111100100100000011110010100010
10111101110110000100010001000111
00111100001001000000101010001001
00111100011010011101110010001011
10111100011110111111100100011100
10111101100011100111011000101111
10111100101010100101011001000000
10111101110111000011011110010010
10111100111000010001101000100000
00111011111010010010010100000000
10111101110000000110110110010111
10111101011010111110011000011111
10111101011101000010100101000000
10111101000100111010011011101001
10111100100010100001001100110001
10111100010000110010010011101101
00111100101101011001101000100110
10111101000011010100000110110111
10111100111101001101010000011011
00111101000010100000101001010111
10111101010111010110010000000011
00111100111110111111110111111001
10111101001011000101000101011000
10111011110000100100001011101110
00111101001100011111110001010101
00111101000000111010100001100111
00111100111101011011000011111100
10111101011000101000101101000100
10111100101100100110011100011001
00111101010111110111011100010101
00111100110111100011001100110111
10111101001110010110101100000100
00111100100001010011000101100011
00111101010000110110110010100000
00111011101010110000111111010010
10111010100010111001110011000110
10111100010011011011001011011100
10111100011011011001111011111000
10111011111101101010111100110100
00111100000000010000111111111010
10111100111101111001010010111011
00111101000111100000011000111010
10111101000101101100000000000101
10111100000011101110101111011000
00111101001001110000000100010000
10111100101101001000000010111000
10111101001001101100010101110101
10111101010001100100101010101010
00111100011101010010010110111110
10111101100011010111111000100000
10111100000100111111000011101100
10111100010001001001111001111110
10111100011010110010100011101101
10111100110100000001011110010001
00111101011010001100011001011010
10111100100010001101011010001100
00111100010010011110100010101100
10111100001000001101110000011001
10111100101101110111101101110001
10111100101100011101100011010100
10111100101011110110100101001010
00111101011001111100000000011111
00111100001101110011011100000111
10111101100011111000101100010011
10111101000010011011111111001111
10111100111011110011001000000111
10111100111100011001110001011001
10111100110000001101010111001011
10111100111001100111111010100000
00111100000100100010001110111101
10111100100111000101000010010101
00111101010011010101111001011000
10111100110000110011010110111100
10111101010111011111110011110010
10111100110010110011010101010011
10111101010111110010100000011011
10111100110101000101010100110000
00111100001100011001001110011110
00111011001100111000110011110000
10111100111000101110000100110010
10111100100100101010110101001100
10111101011000111110010111000100
00111010100111101011001110000100
10111011111000000111010011010011
10111100110010101110110111001110
10111101100010001001101100101100
10111101001000000011111011000010
00111100110011100001111100010111
00111101101011100011110001100011
00111101100110000011011001100110
00111100010101101111111110100010
00111101000101101110101100100110
00111101001000011110011101001100
10111100100101011001100011010000
10111101001100100101111000111110
00111101001100101100001010000000
10111011111100011111101001101101
00111011101110001111111001001010
00111101011011000100010100100011
10111101000000101001011000101110
10111100101011111111010100010000
10111101011110100001100010111110
00111100001101000101100100101011
00111101000001101101000100101010
10111001110000110110011011100111
00111101010100111000111011001001
10111110000001111000010010010110
00111101000111001000010011001011
10111101110000110011011111000111
00111101101000100100000101111011
00111101001010011101000000101100
00111100100100011000001110110101
00111101101101111111001101010111
00111100110111111011011011111101
00111100110010111101110111000100
10111100111110111101011101001111
10111011011110010010111101000011
10111101010001000000111001011011
00111011111110111010100011011110
10111100110010101001111100010011
00111100111001101101001100101010
10111010100101111110001010011010
10111101001010101010001111001000
10111011111001100001010010100100
00111101100111001010111010000100
10111101101010100100110011100010
10111101110000011111100101111110
10111101101010011101011011001000
00111101100011001011001010111000
10111100000010110110111010101111
10111101100110100000111111011000
00111100001110010101000101110001
00111101001110110010101010000011
10111101000011000101001110001100
10111101000110001100110110001110
10111101100100101101111001100010
00111100101100101110001110100100
00111100010001011111110100000110
10111011111100000100011011111001
00111100101000001000000000010101
10111101000110110110110000111100
10111100101011101011110011010101
00111100001111010110110111110110
00111010110001110000101010101101
00111101011001000101100011110000
10111011011110100110001000001101
10111101000111001000011101100010
10111100111111111100111000111100
00111100010100001011001101001101
00111101000011010001001001110110
10111100110011010011001000100001
10111100111100100010110010101101
00111010011110101101001010100000
00111101011011010110100110000010
00111100110010111101001101111010
10111101011001110100110011011100
10111100010010000000100110111001
10111010101001111100101000100101
00111100011011110001000101000000
10111100100001110011111100011101
00111101100101010111100111001010
10111100001011010000100100100000
10111101000010010111100111111101
10111100010000010000010011110111
00111101010010101001110111111111
00111100001111100010011100100000
10111101001110011001000110110000
00111101011000000010110001000100
00111100100111001111111101000001
10111101100011101001010011100111
00111101100000011001100101101000
00111100000000010110110100101110
00111101000111111101010011001100
00111101001111101010110110010100
10111100001011000011110010110100
00111100111110111000110000110000
10111100001101011011001010000110
00111100101101010100100011111111
00111011111111110001111011001011
10111100011101101011001100000111
10111101010100110011101010110001
10111011000111010001101101111001
00111100011000010111010011010000
00111101001101111101001100001111
00111101000110010111110010001110
00111101000001000011110001111011
00111100000110010111100101001010
10111101100011101001100100000111
10111101011010110011001000010011
10111100000111000000111000001100
10111101010011101111000000111101
10111101011001011111101000001111
10111100100110010000011111000100
10111101000000100001010110000110
00111100110001000000101010100110
10111011100100111001001011100011
10111100110110111001011010111010
10111100110011011010010011110010
00111100101000101011010000111001
00111011100000011100001101100110
10111100101100111110110010001010
10111100110111011001000011001100
00111011100011011011011101000111
10111100101111001111010110010111
10111100010111100101001010110001
10111100010010110101101000100100
00111100101101001001101101101101
10111100111110101101001000010011
00111101100001101011010111011011
10111010100011001111100101111101
10111100011011101111111000011010
00111101100101110111011100001100
00111100100111111010110010001000
10111100001100101111100010100010
00111010101101101110110001111001
00111101000111011101110001101011
00111100111111110011111110101001
10111011100101101101011111111100
00111101011111101011010010011000
00111100100101100011001010100000
00111101001011001100001100001110
00111100001010101110010100000100
10111100110000010101011010100100
00111100111101101101010110101011
00111100000011111100110101000110
00111100111100110010010110000111
00111101000000000111111111100011
10111100101011011111010101011001
00111100010100001000000011010101
10111011011010011000110011110000
10111101000101001010100111110111
10111100000011101000000001001100
00111011101101111001001110110011
10111100101100101001100100111111
10111100111101101111110010010111
10111101001010011111111111100111
10111100011010011101110000101111
10111100000110000001100011011111
00111100111011111011101011001101
10111101001011000001101000010110
00111100110111101000000001100100
10111101010010001110000110101000
10111100000001011001010010111001
00111100111101001101011111001000
00111101000010011010001000000001
10111101000010000000010100001000
10111101010000111101001011110110
10111100100010101101100000110101
00111011111110011111100101010100
10111011111001010001010000100011
10111101000011000010100000101110
00111100111000010101001000011111
00111100101000111000001111110010
10111101100011110100001001000101
10111101001011111010101001101101
10111101001100010100100000000001
10111101010011001101011100010110
00111010111101010110101110001011
10111011110011101110101000110111
10111100100000110010000000100010
00111010101111011101100100111000
10111100010100111111010101001001
10111101101000011101010010001111
00111100111101101010101011001100
10111101010110110000101000010111
10111100100111000001011110011100
00111011001010101010011011000101
00111100010101011000000101010100
00111100101111100101101000100011
10111100000001010111111110000111
00111101000101110100100111101111
10111100111101001101010010101000
10111011011010011011011100000001
10111100010101110010111010100001
00111010101110000011111110100011
00111100010000010000100111110011
00111110000100011000111101100101
00111011100000001010100100110011
00111101000111100010001011010000
00111100001000001100011011110111
10111110000100001011001110101111
00111101001101111011001001010011
10111101010001011101101011100001
10111101010110001110101110101010
10111101000011101111101101010011
00111101001010110111101110000111
10111011100011000110011000110011
00111100111100001100000000010100
00111100000001001010111101101011
10111101101010111101011111001111
00111101010100011111000100111010
00111100100110000010101011110010
00111011100110110010010110111110
00111011000100000010001001101101
10111100001000001001110101010101
10111100101111111100011010100100
10111101010011111111100100001010
00111100101001011011110011010100
10111101000000110111101101011010
10111101000101010001110011010110
00111100010100111111011110010011
00111101011111001101100110110101
00111101001100000001100111011100
00111101010010101011000000000110
10111100010111001010111011000011
00111011101000010100000110110111
00111100011001110011001110111100
00111101001000101000001000111010
10111101001100110100010111111111
00111101011010010101011011000101
00111100111101110110101011111000
10111100000011100000011100111010
00111101001001100111001010010110
10111101100011100000000011000111
00111100010101010111110010101011
00111101100100110010010011101111
00111100001001000001011110011000
00111100101001101101011101001111
00111011101101101101100100101101
10111100001101110010111011110011
00111101000101100000111000001010
00111100110111110111111111101000
00111101000011101011000000111100
00111100100110101000101100110011
10111010110111011010000111100101
00111100000110111101011011100001
00111011110110001011010001011000
00111100111001000001011111110111
10111011100011000010100011111000
10111101001010011111000110110110
00111011010001001111011011011111
00111110000011110100100101010001
00111100101001011010011110001011
10111110000001000110110111111010
10111101001101100001000000110101
00111101010011011001110110011000
00111100010001110000001000010111
10111101110010011001100100100110
10111101010010111111111000001110
10111101000111001001110011111110
10111101001001000110000001010100
10111010110100001011000001100000
00111101000111100001001111110010
10111100110111100011010101010000
00111100101000111001011111001110
10111100011101111010000111110001
10111011111101101101110010010100
10111101001101110011011010001001
10111011001010101110010110001000
10111110000100111101110100000111
00111101000110110100100101111111
10111101001001000110110100010111
10111010100000011110101101000001
00111100010101000000000101100100
00111100110110111110101011000111
00111011000111101011101101011100
10111100000100100111110010010011
10111100101101000000001100000001
10111101001100100111101110000101
10111100101010000111101101100010
10111011000111100101011100101000
10111101001000000100110110010001
10111101011010010001001001010111
10111010100111011011011001011101
00111101001111111001100011101011
00111101000011111111001111011001
00111100110011111001000111110001
00111011101010100110001100110111
00111101001001011111010010000001
00111101010110111111100101011000
00111100100001010101000101000011
00111100111000101111101001010010
10111101001100001111000111101111
10111101010100101110111101011100
10111100110101101010010111100111
10111101110011110100000100000110
10111101010000011010100110101111
10111100000010101011100011110100
00111100110010101010011001111111
10111101011001100000100000111101
10111101010110111110000110001010
10111101010101100101011001001110
10111101101010011011101110110001
10111101001000100111111101111011
00111011110110010010001010111011
10111101011110000000011110000001
10111101100101100110100001111011
10111100010101101110110111111000
00111100111011010101000010110111
10111100110100001000010011010001
10111101011001011001011001101000
00111011001110101001110000111011
00111101100111101010011010101001
00111100101011100111000101111011
10111101000111111000111000111110
10111101000011111000111010111011
00111100011001000111101100011100
10111101001110100111011000001101
10111100100110000001010110101111
00111100111111101001010001011000
00111100001010110001101000001100
10111100000000100111111110000111
10111100000000001010101111010100
10111100001110111000010011101110
00111100101100110101111100000110
10111100001101010000101111001111
00111101001010100100011100010000
00111100100000010001010011011100
10111100001010101000110111100011
10111100110110010111000101010100
10111101001110000110111010100000
10111101001001111011110010100001
00111100101100110110101111101001
10111101001001000001101011000010
00111100110001111011001100111000
00111101001000101011111101110111
00111100001011100100010011000100
10111100111001011011010100101001
00111100101110010101001000111100
10111101100100010111110011101011
10111100011111010100000101011101
00111100011001011101010110010010
10111100101001110101110101010100
00111100000100110111001001110101
10111100101101011010010100001011
10111100110100000111001101111101
10111100111110100111010001100011
10111011010110101100010100000110
10111101001110110000101101110100
00111100100000111100011000100011
00111100011011101011111100000000
00111101011001011000101010000000
10111100100000001111110101101111
00111101000111101010010101111011
00111101100110010000110100101011
10111100101000101010111111101001
00111101100001011110011101010101
00111101000101011001011101110001
00111101100010010111111011110000
10111101010010110111101000110000
00111100110101100000001011010010
00111100010011100110011000110100
00111101001100110010101010100100
10111100110011111101001100111010
00111100010100111000110100001011
10111011001011001000001110101010
00111100110001011100000001110111
00111011111010000111010010110000
10111101001000100110010000011001
10111100110010110101000100001001
10111100011000011100111101111111
10111100100010000110010111100011
00111100111110111111010110001001
00111100001111101111000011001111
10111100101011000001100111000001
00111011110000001100011010111010
00111100001100110100101110001110
00111110000000111100111000011010
00111100000011110101110111001110
10111100100111101011000011100100
00111100101000011110000000100001
10111100111001111101010110010001
00111101000010101001100011111101
10111011111100111111101110001100
10111100101110110011010111110011
00111100111011111111101000110011
00111101000001101101100000000001
00111101001110001000011111001101
10111100111000001001101001011100
10111100010101101001010010100011
10111011110101110110100000100011
10111011011110100001100101111010
00111100001110001101001010101110
10111101000110110110001011101111
00111101011011000110101101101011
00111101101100111001100011101001
00111101100011000010010010100000
10111101000011000000111011011101
00111100010101110101100100011101
00111101010011101101111000111110
10111100110110010001111101111111
00111100010101011010101100110101
10111100001111111101111000111010
10111101001100010011101111010010
00111100100100000000011110000010
10111101000000010110000111000101
10111100110001001011110000010010
10111100100101000001110100000101
10111101001000100011011111111100
00111101000110000101111000111110
10111101000001101000001100001111
10111100101100100101111110010000
10111101011110001011001001101100
00111011111101000100011011111111
00111010111100000100000000101010
10111101011010001001100110111111
10111101100001101111000110001111
10111011010001110000011111000000
00111011110111100101010011101010
10111100101001110110100111011100
10111101011010011110111101011001
00111100000010001100101111101110
00111101011001110101101101011010
10111100101111111001100011011001
10111101110110110011101110101110
00111101001100101011010010000111
00110111101110011000001010110000
00111100101011011011001111011110
10111101011011001101000010001110
00111100011100000100110111110010
10111101100011101100110010001101
10111100000000100001010110001101
10111100110010001100000100011010
10111100010010000101110101001010
00111101101000100100010000100011
10111100100101100110011000011000
00111100000000011000000011100010
00111011001010011001100110111111
00111101011011111010010011110110
00111101001011010101110001000110
00111101001110010110110101000100
00111101000001110001011001001101
00111100100001111011110101001101
00111011111100001011010101100000
10111100111100111000110100001110
00111010110101111010000001110011
10111101011110000001011000001001
10111011111110000111110011100010
00111101011111000110101111110010
10111011110011101110111110001001
00111100000110101111010010011101
10111100110111011000101100011000
00111100000010110010111010101111
00111011010111010100001101011010
10111100110001111000001010011001
00111101000000111110110101100111
00111100100010000110000001001111
10111100010011001101111010001001
10111101010100011111111110111001
00111101001110000001100010011111
10111101010111101110000110110001
10111100110010101110010011010011
10111011100011011100000110110010
10111010011101000000100000011111
10111100111001001000010111101100
10111101001111111011100100001110
00111011100010001010011000010011
10111011100011110111111010000011
10111100011000001010110011001000
10111011110010101010011110110111
10111100110100000000111111010101
00111010011000100101100101001101
00111101000011110111000101111101
10111100101100000100101101011011
10111101000010110001100001100001
00111100101010100111100100011001
10111100010111011111011000000100
10111101010010011101000011101001
00111100100000010111110100011101
00111101000101000011001010101100
10111101101010011100100110011010
10111101000110001100100000010000
10111100101111111100011010011011
10111010110000010101000101111000
10111010110111100010000111001111
10111100010000001011001000101001
10111101010100011110001000011010
10111011110101111000001101001111
10111101011000001101100110000010
00111100111101010000001011101100
00111100111011000101011010001110
10111100111001111000011011111000
10111100110000101111101001000000
10111100000101100111111101001001
10111101001101110011101001100111
00111100101010111010111010010100
00111101011001100110111000101010
10111101000000101100010000111010
00111101001101100011001010111100
00111100111111110110001100110010
00111011001111000010001111100000
00111011110011001011100000110011
10111100111110010011111100100111
00111100000001111101110011110101
10111100001001110111111110110000
10111100100011001001100001001010
00111101111011000010111010111100
10111101000110110000010001111011
00111101101011001000011000100000
10111100110001101101101010010010
10111101001001110011110011111011
00111100001000010001010011000000
00111101000010000000101001011100
00111101000111100101100000110110
00111101010100101011011111000001
00111101010100001010011011000111
00111010100100001011000100001100
00111100001100000010000101100000
10111101010000101000101011100010
10111100110001110011101111000110
00111100001111100010000111100100
00111110000100011010010101110000
00111100100101101110010101011111
00111101010000001000101101011000
10111100111110000000111110111110
00111101100010000110110111110011
00111101101011110011111100111101
10111101011001110011101011111111
00111100101100100100101011001111
00111100110111110000110101011011
00111101100100011011100110111001
00111101100011001011000001100010
10111101001000010111011010011000
10111101110011101110000001011110
10111101100110111110111101100101
10111101011010101001101001000100
00111010000010000111101010110110
10111101000001101000000001001111
10111101010001001110001111101011
00111100110001100000010111000000
10111101000011101011111101001011
10111101000110010110101110100111
00111100100010000110011100001000
10111100110100101000111001100111
10111101010101110011111001101001
10111100011011101111001000010010
00111101000000001001100001000110
00111011010000001100110110100001
00111100100101111000011100011101
00111011111001111111011011010100
00111100100110100111011100111001
10111101010010100101100001011110
10111011001001111110111000110010
00111100010010010011101011101010
10111100100011000101000011001010
00111101011001001011101011001001
00111011101100001001000110111111
00111100100110110110010111110101
00111101000100111101110101100111
00111101000001011110001111100100
10111100000000010100101011001101
10111100111001110010001000111001
00111100011010010011000110001101
10111100110101101101111000000000
10111001111001100111000111001110
10111011011010111100011111110000
10111100100110111110011011010011
10111100010011110000001110010011
00111100011000010010000100000101
10111101010000111101011100110100
10111101000011110000111110001100
10111011110110100011011100000110
00111100110110011010111101001111
00111101000000000011100010011100
10111100101001000000100110110000
00111100111011001100010110011101
00111101010111000111011000111100
10111100101010100011111110110100
00111101010000001010110001110011
00111101011001001010010100000101
10111101100010110001011101101111
00111101101101011000110001111000
10111100000101100100000100110010
10111101100111111001111101100111
00111100100010001000011001001000
10111100100111100100101101001010
00111101001011110100111001010100
00111011010000101001101001111010
00111100111000001101100010001111
00111101001100110010010001011110
10111101001110011101100001101001
10111101010010111000100001010100
10111101001110100001110100010100
00111100100100011011000110000011
00111101010111001001001100000010
10111100100100001011100011100111
00111010100110101101101111011110
10111011011111001110001111001011
10111100110001111010000110001101
10111101001100000000000011010110
00111100100111110010010000010101
00111101000100101101111011101100
10111100101101111001101100100110
10111101100110100101000110010111
10111100111001100010000000000110
00111101010100011011100110011011
10111011001000000011011001100110
00111101001010100010001111100000
00111100000111010110000101010010
00111100110111000101101011100010
10111101001110010001101111001110
10111100101111010111000100101010
00111100111001011110111110110110
00111101000100010011101011001011
10111100111110111111100001011010
00111100111001111110100111100001
00111101000111011010100011010010
10111011011001010100101111101100
10111100110000001000001100000010
10111100111001101010101110110000
10111100110010100110100001011010
10111011001101111010000011101011
00111100010010010000100001001010
00111100000110111100110100011110
00111101001111110100011011111000
00111100001101010000011011101010
10111100000100110010011011001100
10111101011010101001110010001111
00111100100111111101010111000111
00111011110101011010101000100100
10111101000010100011010110100010
00111100100000001000011001101010
00111101011011101000101001100101
00111101101000110110001010001000
00111101101000000000101101101110
00111100110000000001101011001111
00111100100001100100111000110001
00111101011000010010100110000110
10111101001010100001000001110000
10111100110011101001101011110110
00111101000110000111010011011100
10111100000111110111101110110111
00111101000010101110110001001011
10111010111001001000110011110011
00111100110110001000101100001001
00111011101000011000101010101000
00111101000111110100101100011010
10111101000010100110000111001100
10111100110011011010010110001001
00111011100100000010001010010100
10111100111001001010110000001010
10111100001010011001110001011110
00111100111111000001001001010101
10111101010110110110111010111000
10111011110001010110101110011100
10111100000110101100101101110001
00111100010100111001101101010001
00111100110010100101011001011000
10111100011100001101110011110000
10111100100110010000011101101001
00111101011101010001010111101100
00111101000111010101100101000110
10111100100100111110101011011001
10111100010001001011010100010001
10111100001110111001110001101101
10111101000001000011000100100000
10111101011000010110001110010011
10111101011111100110101100000100
10111101011011101010100110110001
10111010011001100000100000010001
00111100100100000000010001110110
10111100101101101110001111101100
00111100100111011000011100100001
00111100001101111101100010101000
10111101011101011110011101101000
10111101100101001111001101001000
00111010001101110111101100000010
00111101011010111000010011010110
00111100100110000000111111001000
10111101010111001111001001000001
00111010111111100111101001000110
10111011101010111111101111100011
00111100111100101010101101011001
00111101001110101010111001000011
00111101000010001111111001111101
00111011100001000111010100100001
10111100011001010110011101111010
00111101101000011000100111011111
00111100111010101111011011110100
00111101001100011100001001011101
10111100110100101110000011010111
10111100111000010101010001101100
10111100011110100000110110110000
10111110001011111001011000001000
10111101011111000110110101100111
10111110000000000101011001001001
10111100100111001100100010101000
10111100000110100011011000001011
10111101101100100111011110010001
10111100100111100101010001100001
00111101001010110000000001011000
10111011000111000001001001001011
00111101010001010000110011110111
00111100100100111011100111110101
00111101010100010010100111011110
10111100001000000001110100000101
00111101000101110111101111001100
10111100011001101100000010101111
10111101001011101111100110001010
00111100101000101100111000101100
10111100101000010101001001001000
10111100111111100110101111001011
10111101001111101001100001010111
00111100110011000000100001111111
10111101011001111000111011110000
00111011010001110101110011100010
00111101011001110011001111000110
10111101010001110100100110000100
10111100010000001011000011000100
10111101001111111100000001000000
00111100100011011100000111111011
10111100110000110011010000010110
10111100101110010011100110100111
00111011011011100110101011111101
00111100100000111101100010011000
00111101010110111111101100100001
00111101000011001110101011101100
10111101000000100100111110101111
10111101100001110001011100001011
00111101010001101010111111111100
10111100010011111101110100011000
10111100001101001100111110101101
10111100000001011100111000101010
00111011011101011101001111000011
00111101001101101111101011110111
00111101010100100011101000101111
10111100101101110001001011000000
10111101001110111111111100011100
00111100110101011000100000011011
00111100100110110101101100010101
10111100110001011010010001001100
10111011010001001101000010011110
00111100011010100010011110101000
10111010100011001000011110100100
00111100001101010100101000111010
00111101011000100011111100110011
10111101101011111011100001111011
00111101001001010000001010101010
00111101011101010010001111100111
10111101001111011001010111010001
00111100000010100111001101010000
00111101000111111100101011011011
00111101100001101100100000110110
00111101010000001100111101000000
10111011000110110001111111001110
00111100001101011111011001110000
10111101100110011000010110011010
00111100110010110100101111001100
00111101100111110100001101110101
00111101100000111001100000101111
00111101100101011000010001000111
00111010100101101011111101010010
10111101011100001100101110010011
00111011101101101100010111111011
00111110000011110101011011001110
00111101011100011100001001110000
00111100111110011010101101100101
00111101100001100111110010101000
00111011110111001011000011101101
10111011111000110011100001111010
10111011111110011110110000010011
10111100010101110101010111111100
00111011111010010101010001100010
10111100110100101100010010111101
10111101100101101110100101011001
00111101001001110000000100111100
00111100011100000000100010110100
00111011000001011001010100000001
00111101000011011010100111110101
00111101001111001101111010101011
10111100110111001110011011110011
00111011001101001000010111101001
10111101010100010101010000010100
10111101011000011111111011010110
10111101000101010110110111010110
10111100001010010101111001111011
00111100100010000101111110011010
10111100110001100011001110100010
10111101010100111100111110100010
00111101001000100010001101010101
00111100101011111010110001000110
10111100111011110101110110010101
10111101000000010000001000110111
10111101100011101101000001101000
00111100001111000110001111100001
00111010000111101010000110011100
00111011111101000111011001100111
00111101010101110101111010110111
00111101100000111011010000011101
10111100010010100000110101111001
10111010000111011111110011101011
00111100001110111011000101111100
00111001011010100111110001100100
10111100000001000101110111010111
10111100111111000100100001101111
00111100010110111101110100100111
00111101001000110000101011111000
00111100101110000011010001111101
00111011011100010101000111111010
10111100111100011100110110011000
00111011000000010111100101100011
10111101110001001110001011111100
00111100101010011101100101001100
00111100101010111101100010101000
10111101100011011110100000001101
00111010100000010000110100110010
10111100101011010101001111000111
00111011110001011100001111100000
00111101101100101111110101011110
00111100011011110111110001000001
00111101010101010111111100100101
00111101000111011010001101001111
10111101100110010010111100010100
10111101100110000001011110011000
10111101000011000001110110110100
10111101001101010100110111001010
10111101100111100010010110000101
10111101100010011100001110011110
00111101010110111000101011101111
10111101010000001100000001111001
00111100010001000110001011011100
10111100000111100001000100011001
10111100100101010101110011101000
00111100111011110101111110010110
00111101110101001010100000000101
00111100101110001011001010111111
00111101000000111001101011100011
10111100111000101111010011111001
10111101001110000011010001001100
00111101011110000100111101001101
10111100101000101111111010000111
10111101000010111000100011001000
10111100001001000110101101100111
00111100101100001001000111011100
00111010101011111000100001100111
00111011110101010010100001101111
10111101100010011100011110111000
00111100010011110111111110100111
10111101101111110001010101011010
10111101011000011000011001111000
10111101011101011010101100101010
10111101001100000111011100110001
10111100101101011110111001101111
10111101101110001100010000110011
10111101001001001100101111111001
10111101101001110000001111001001
00111101000101011010010011011011
00111101010111011010111011100000
10111011101000010000010110111011
10111101101010111110010111100110
10111100011110111010010111001010
00111011101110010111011000011010
10111010111100011111010100110111
10111101101100100011110110101000
10111100100100000011010000100000
00111011111100100111100000111111
00111010110111111111101101100111
00111100010101011100101101001110
00111101001010011100010100000110
00111100111011001100100001010111
10111101100000011101101110111101
10111100001100011111110110110001
00111101000001100010101101000111
00111011011110010000001000110100
00111010010000101011110100000000
10111101100011010010000000111011
10111100001111000001101010011000
10111101001100100000110001110011
10111011011000101111111011010101
10111101000010110110000101000111
10111101001101011101100100111110
10111100010111011011001000000100
00111100111001010111111110100000
10111101000010011001000111110011
10111100100110110011011001010001
10111011110010111101000110010011
10111010001000011110111110111111
10111010101110101100000000101111
10111100111100111111101011100111
10111100101001001100101000011101
10111100111111101010110110010001
10111101010101111001110011010000
10111101100011101100010100000111
00111101001100010111011111011111
00111101011101000110000000110010
00111011011111111010111010000001
10111100100000000101000001111000
00111101010110000110111010010111
00111100000111011000001100110010
10111100011000000110100101011001
10111100000111000001010101001111
00111101010110111101100101000010
10111010100100100110110011010111
10111100101110000000101000110011
10111011101010000001111101101100
00111101010010100011010000101100
00111100011000011101111101101000
00111101001111100111101111000000
00111101101101011001111011000000
00111011100101001001000100010100
10111101001100101100100011000111
00111100110100000101010101010001
00111100110000000000111101011010
10111101000001010011100011011010
00111101010011110111110010010001
10111100111111001001111111011100
00111100010001001001001111111001
00111101001010000000010110010001
10111101101111101000110000001100
00111101001100101100110011010010
00111100111101110111110001111011
00111100001010110101111111010011
00111100100010110011101011010101
00111100101100100100011011011110
00111110000011001001111100000110
00111101011001111000110000100000
00111100110001110001011011110110
10111101100100111100100100001001
10111011101101111111000010111101
00111101000101111000011001110000
10111101001010001000001010001100
00111101000001100100001001011110
00111100111110000001101010101011
00111101011110010100111011100010
10111100101101101001110000110111
10111100101010110001000100010100
10111101011000100100001100111101
10111100110000110001001001101101
10111101101100000100110000010101
10111101011000111100101110100010
10111010000001100110000100010100
10111011100001111100000001011110
10111100110110010001111001010100
10111100111000110010101110100101
10111101100011001100111011100001
00111101011011110000101011000111
10111100101110111000100111100100
10111011111001010110100011100001
10111100100001101110001011010100
10111100110001001011000011110101
10111011010000001110000010010110
10111101000100110010100010101010
10111101010000001001010110111010
10111101000111010001011101011100
10111010111010101101011100101111
00111001010101000110111111010110
00111100011001001111001111110010
00111100101101110010101011100010
00111011110000111100000100011100
10111101000111000000001101011100
10111101010110100101001101011110
10111101011110111001001101110111
10111101011000011000000101100000
10111101001100010101011100011111
00111100111001100111000100001000
10111100101110001101000001011110
10111101010000111000001101000000
10111100010011111100010111001011
00111101010000001000001110001110
10111100101101111101001011110100
10111100011101111010000000100110
00111101011101011011110101011101
00111100101111111011010000100000
10111100111010001001001100111000
00111100111111011010001111001010
10111011000011010111011010010111
10111100101011111000110110111110
10111100000000100111100000010010
00111101000110011101000111100001
10111010001000101110100010101000
00111100101010100001100101010010
00111101100000010101111100011111
00111100111100010111110101110011
10111100001101110011100110010001
10111100001100010101101100000000
10111100011011111111110101010011
00111101000100000010001011011001
00111100111101111010001100111011
10111100110101110001111101110000
10111101101101001110101110001110
00111100111101110100110000000100
10111011101111011101000100001110
00111100010110011100000010000110
00111101100001101111011110000010
00111101100100001101111100001100
10111101000000101011001100010011
00111101000010110000101101110101
00111101001001100001110001101100
10111101100001101110000011110011
10111101101001010001111010010001
10111101010011001100001110000110
10111101011100010001111111111110
10111101101001011011101011110100
00111100011011101011010010010010
10111100111011111010000110110110
10111101010111010011111111110100
10111011000000110101111011010001
00110111101101000000101000010000
00111101000010110010100110011011
10111101000101000110001110110001
10111101101000110001011110111111
10111101111100001000101111010110
10111101101010011100101011100101
10111100000101010000111101111010
10111100111010101111011100101000
10111101001110011011110010101100
00111011111111110101010111110000
00111011101111110000100111101100
00111011101010001001000000100101
10111100011101010100011110101101
10111101000011011111110101001100
00111100100110111010100110011011
00111010110100100101101111000110
00111101011010000110011111001011
10111100111011101000111101010000
00111101000101011000101010011011
10111101000001110111000110101000
00111010111010001111011011010011
00111100111000001001100100111011
10111100000111100010100010011100
00111011100100001111000101011111
10111101000110100101010111101100
10111101000110011110001001011100
10111100100010111101011100001001
10111100001011100001011001111111
10111011110101101111100101010001
10111101100010101110001100101110
00111101000101111111011110001100
00111101010000101001110000111110
00111100000101010010100010000011
10111100100100100011001010111011
00111011110001010111110111000000
00111101011000110001100011010010
10111101111010101011111110001010
10111011110000001011100111001101
10111100011100010000100101011001
10111101100011010001101011011001
10111101001110101111101100110000
00111100100011111111010100100000
00111100101110100000110001011110
10111000101101110110110011100010
10111001100100110011011101111001
10111101100100101110001000010011
00111100110011000111001100010011
00111100100100001011110101011010
10111001111110011111111110000010
10111100100001001110000011111000
00111100111011001001011110100111
00111100111001100000110111001110
00111100101100101100011001010010
00111101010101111110010001011110
00111100100111111110110011111001
00111101001111011110110101110000
00111100101111010110101101011001
00111011110000011100111111011010
00111011000101010000001111110001
10111010010000010100000001001111
00111100110011100111010101010001
00111101000000100101001100110100
10111100111011001110011101010100
00111100100110011000010001100101
10111100111110100110111001000011
10111100110100010011101110110011
00111101110001111111011111011110
00111101010011110000111001101011
10111011110011000011101111101101
00111100011101001000000110010111
00111101010111011110000011110110
00111011100111111111110111011000
10111101011111001001110010001111
10111010101011001000111010100100
00111101011000000010011001011010
00111101100010011101000100010011
10111101001100110001011101110111
10111011110111000110101001110011
10111101010000011110110011110111
10111101100001100000100001101100
00111101000000111110010010101110
10111100010000000010110001000110
10111101011000001001101110000110
10111101101001101111100000001010
00111011000110000011111010011101
00111101010100001000100001110011
00111100100011110011011001101000
00111100011100000111010001110011
00111100110111110000010011001001
10111100001100100011101010101100
00111100111011000001011111000011
10111100011110110110100011000101
00111011100001101101010010010111
00111100100111110100010110100111
00111011111000110011101001110101
00111101000000000110111110101011
10111100101110101000011011000100
10111100101101000000011110001101
10111100001111110001011010110000
10111010101001111010100000001000
00111100011001010110011111001010
00111101010000111111111111100111
10111001000000111011010001001010
00111100101000000110101000010100
00111101000011001100001101001011
00111011001000100100010110011000
10111101000111011011100110110110
00111101001010111010001000010000
10111101101010110000101101101110
00111011111101101110011100000001
00111101101000000001011011100001
10111100111101110101010101101010
00111100111100011011100111111001
00111011101010101000111011001001
00111100010110111111111000011010
00111100010111111101111101000000
00111100110000101101100101100101
10111101001100010011110111011100
10111100110011010000111111110110
00111101000001001001100101100010
10111100110100101111101110100010
00111101001010000011111100010011
10111100101111111111010001111001
00111100100011000111100011000101
10111101011100000100101000010001
10111100110100101000001001101011
10111101110000101100110111000100
10111101000010100011010101000010
10111101100001010010000010101100
00111101011111010100111110001110
00111011011100000001000000011011
10111101100110001001010100001110
10111011011100010100000100110011
00111101101010010011000010001101
10111101100011011011011010011010
00111100110001100110010001000010
00111101011010111101100010100110
10111100011011110001010110001111
00111100110010011110110001101111
00111101001001011011010101110101
10111101011001001110000011100101
00111100001100011000011000111101
00111011111011011111001011001010
00111100011000101110110100000011
10111100110001000011101010101110
10111101010011000101110001010000
10111101000100101110011011001010
10111101110011110001101101110100
00111100101010101110000010101100
00111101010101000000111011000011
00111100011111000000100100111111
10111101000101100101000100001100
00111100111001000111101010001011
10111101001111001100000000000001
00111100100101011110100001100000
00111011110010000110000100011000
10111011111111100001010110101011
00111100011010000101000000000110
00111101001110100000110000010001
00111100000111110011111010101111
10111011101010101011110111111011
10111101000000001011101101101010
00111100100000010010100010101101
00111100111100001000010011110100
00111101010100010101111000110010
10111100110001110111110010100100
00111101101010100011011000011111
00111101000111100010000011101111
00111101001111111001111001010010
10111011101000011100111110111110
00111100101011111100000001011110
10111101000101110101001101010101
10111101001000111000011101110110
10111101010011111100000101011000
10111101000000101101110001101010
00111101100101001000111110001010
00111101100010010000110001101011
00111011100010100010100011000100
00111101010011110001100101010000
00111101101101111010011000000111
10111101101000011101111001000010
10111100010101000101100111011011
10111101010110001101001111001010
00111100001101110011011000001110
10111100101110001110011111101111
00111011101100011101001101010110
00111100111100000101100110110010
00111100101110010011000110011110
10111100100100110101000100000101
10111001011010110110010111001110
00111001001110000100000101110011
10111101110110001010011001101111
10111101011110001101001101111111
10111101010111001000100101011000
10111101100101111100101110100101
10111101000100011000110100010111
10111101101011101110010100100011
10111101001100000011011110000100
00111101000101000010000111110011
10111011101100110110111011110101
00111011110000111010111110111101
00111010111011100101001101111010
00111101100010010011010001000111
10111101010001001111111101101101
00111101100011001111001100001000
00111100110101010000100100110100
00111101000000110100100110110010
10111100001000000110010110111100
10111100111010100101011001001011
10111101011001000010010111100111
00111101011111110110001110110100
10111100011111101110000101000110
00111100110011010001110110001111
10111100011101011000011111100101
10111101001001001010101101000101
10111010010101010100010101101010
10111101000010001100011110011001
10111101010111010000011110101000
10111010001000011000111100011100
10111011110111011011010111110100
00111100000001110010001000011011
00111100110100101100100001000110
10111100110001100100100110100110
10111011100101101011010100110011
10111100001111101000111110011011
00111100110000010110001001110111
10111100010010001111001100010101
10111100011011100001100101010111
10111101100000010100101001111111
10111101011001000110010000101001
10111100100110110111101101001000
00111100100111110001010101001111
00111101001110110111001010001100
10111100101010011010011011001011
10111101100011110101001111000110
00111100110110110111100100001100
00111100000101011010011011100100
00111100101011101111011100001111
00111100010001000010010000000000
00111101001011011100111010101011
00111101011000000100000100100100
00111101011010100000101011100111
10111101001000010110111011100010
10111011100010110101001101110111
10111011011100010100001011010001
10111100111111100011000001110110
00111101001100101001100011001011
00111011100100000111010101000111
10111100111000001110101110000000
00111100110101101001111010010110
00111101010011000111000001001001
00111100010010110110111011110000
10111101101011110010000001010111
10111101100011111010001001101011
10111100001001010101010010011010
00111100101011111010000110000100
00111101001111111010001111000000
00111101010001001110001101111111
10111101000111101010100110001110
10111011110011000001111000100010
10111100110111100101110101010001
10111101101001110001000111100100
10111101101000000000110101000110
10111100101111110100111011110001
10111011111111010011000110100101
10111101100101000111101010010100
00111100001101010011011110110001
10111101010011110010111001101010
10111100100101000010111000011101
00111101010101111101001110001000
10111101011010000000011011011001
10111101111000011110010101110010
10111101011110001101011010110011
10111101010110100011100010101010
10111100000101000110010111100011
10111101100110001000000111110000
10111100001110011010001101110101
10111011111010011000001101010010
10111101000111101001010101101011
00111100101000000101011001000000
10111010111011111011000011010010
10111101010101110011001011011100
00111100111101111100000111101001
00111101000111001010101111101101
10111010000011110110001101010111
00111100001000111100101101101001
10111100110101001010101111001110
00111101010100011101011000011001
00111010000001000011101011001001
00111100010111001001001011111010
10111101000100010111001000100110
00111101001010110101111001100111
00111011111001100000010000011111
10111101001100001101111100110011
00111101001101011100111111101100
10111101010111010010101011100100
10111100010100010000101001010110
10111101110011011110010101100110
10111101000110101110110000110001
00111101100001000101100000001100
10111101011110011011010101100101
10111100110011010010100001001110
00111100110000010010011001001100
10111100111010001011011011011111
10111100100001001110100011010100
10111101101101010001011100000001
10111100101001001011101010001010
10111101100110000110100111101010
10111101011111001111101011110100
00111101100101001100100111011101
00111100110111100111110100010011
00111100100100011101110110011011
00111101010000111010001110001010
00111101100010111100000111001001
00111100000100000000000111100001
10111100111010111101000110001001
10111100101001010100110011101010
10111101011110000010110111000111
00111011100101100110010100001110
00111101011000001111010000100001
00111101111011011011001111000111
10111101010000100101101110100100
10111101011110001100110011010001
00111100000111111110010001000111
10111100100111011011110010101000
10111100110001111100110101101000
10111101000011110010011111101110
10111101000011011011111000010011
00111100111011111110000010111011
10111101001010111000110010010010
10111101000101011110100011001110
10111101000100101110000100010001
10111101011100011111101011110001
10111101101110100011001111011011
00111101001100010100011010000100
00111100101000110100000101101111
10111100100100011000001111001010
00111101010000001010011100111101
00111010001010011000100111011011
10111101011100101101100011010111
00111101010000000110100110010100
00111101000001100110000111000001
00111101101100101110011111000000
00111101111010001001000010101101
00111101010111111101101010011010
00111100001111000001110101100110
00111101001010001000000101100101
00111100011110010100111111000011
00111011000010011110100110011111
00111100100101010010110111011101
00111101011011010101111110010111
10111100110101111010010001000010
00111100001001101001000000101101
00111100100101101000101100001111
00111100100100101011101110111011
00111101011100111111011000010000
00111101011011000110101011011111
00111100101101010101101000100111
00111101011110100110001111001100
00111100111000011110110100111001
10111011011101110011110111100001
00111101110100010010101010110000
10111100010011000101100111101011
00111101101111100010110101110100
00111100111001001000011001001011
10111100110010110011110001111100
00111011010001011010001010011101
00111100111110011100101101100110
10111100100111111110101101010101
10111100011111111110001011110000
00111010000111101111100101100000
10111100010100101001001000011011
10111100101110101100001000010011
10111011010111001111000001001011
10111101000000101100011010010110
10111011110110001010100101101101
00111011101110101010110000100000
10111100011100111010000010111011
10111100110011001100110010011011
10111100100110000001010110000111
00111101010000011001000111010110
00111100010110000111100001110010
10111100010010101011110000001110
10111100101101101000100010010000
10111100001101110010110001011111
00111100101100110001001010001100
10111101001110100000110110110101
10111110001000000101010110101010
10111101110000110111000110011101
10111101000100100101100111010110
10111101000101011110110010100010
10111101110011010100111111011101
00111011000100110111011100000000
00111101100110011000111011110001
00111101010100010101111110001010
10111011111100100011101000101111
10111100101111111111110111011111
10111100001010101111010111001110
10111101000111011001110100010000
00111001001000010100010111100110
00111100110000100011100000111011
00111100000010011010010101111001
00111100001010100001110011000000
00111100101110001011111000001010
10111011001000111111001000111100
00111100111111011000110111111100
10111011001000100000011000100001
10111101100100101111101100001000
00111101101101001010111001110110
00111101010011010001110101001000
10111101010110011010100111101011
10111101000010010111101100101111
00111101010000100111100111110010
10111100100001110001011111001100
10111101010101000111100100111010
10111100010111101111101100010011
10111101100110111000011001110111
00111100010001101101110101011000
10111100110100101010100000110001
00111011100110000010000110100110
10111100000101100100001001000101
10111100011100111000101101100110
00111000111011001101001110010101
00111100101110001011111101000011
10111101000000111111011100011010
00111100111011101100100110001110
00111011110011110110100110111110
10111100000011111000101011110000
00111100110011001011100011000110
10111100111100000110110000011101
00111101010110001111011010111110
10111100000010001001101000000100
10111100011000010011001100011010
00111011011000010011101100101110
00111100110111001101011100000010
10111101000101001110000000111000
00111100000010111000011011001001
10111011110010111100001100011001
10111101000010011100001001000001
00111100101101011001000000100101
10111011111111101100100000000010
10111100011011111111011000010000
10111100110100000010010111011110
10111100011110010001010100110000
00111101000011101001000111100001
10111100001111011110110100010100
10111100110011010011101001011001
00111100001110011111011011110011
10111100110010011001001100100100
10111100110111100000001110010111
00111101000100111001101111010010
00111100011111010111111111001000
00111100011111000011011111101000
00111100000001100100100000000010
10111011110010000001110000101111
00111101101101111010010001001111
00111100100010111010001110101001
00111101000111001100010011010111
00111101011000100010011111000101
10111101000110011000100110100101
00111100011011011111101010110001
00111100011100010110001110100100
00111101011011010001100101001111
00111100000011101000011011000111
00111011100110001110010011101001
10111100011010001100011000010111
00111100111101011010111110100100
00111100100011011101011101011011
00111100101100001010010011101110
10111100010011011011000001100010
10111101011001010111101111111011
10111101001010111001100110010111
00111101011011110001110011101110
10111100111011001111101111000100
00111101100010110111011100010100
00111100111110011110000011111100
00111011111010110001101111000100
00111101000101010100111100101001
10111010100010100110001100011110
10111010110101110000110010100110
00111110001100000100111101000111
00111101000101010010001100111001
00111001100101111010100001101010
10111101111011100100001000000010
00111101000000001101011101110101
10111100111000000000101100001100
10111011001111000011111111010110
10111101001101011010000011100000
10111101000010011001011010110110
10111101001010000101010100011100
10111101110110010101000111110000
10111100000111001000011000100011
00111011010000101111110011001110
00111011000001100010101101101100
00111100111010000110001111011111
