00111100010000100111011111001100
00111101001000010010110111111100
00111100110010011110011110000001
10111100110111100011110111001010
00111100000110100110101111011011
10111100010100101101110100000101
00111101001110000111101001010000
00111100101111111101001110000010
10111101100011011100011000110010
10111100100100101100100101011101
00111100001000010101010010010111
00111100110010110101101001100010
10111101001100001100111010010000
00111011111011001011000111110000
10111101001000011010000001101001
00111101000010101010001111100110
00111011100110110010111011100110
10111101101100010010011001110100
00111101000100000101011011111001
00111101000001101101110011000000
00111100010110011111010011100010
00111100101101010100101101101011
00111101010011011101111000000110
10111100101110100111000011001010
00111100110011001110001101001100
10111101000101100110111010010001
10111100101101010010010110010001
00111101000000110001110110101001
10111101010010011010100010001011
00111011011001111101101100010100
10111101011001001111000101010101
10111010100101011110111110100100
00111100011010111100100011100011
00111101001011010001000011111001
10111100001110000011100110001000
00111101001010010111100001000110
00111100011001000001000110101111
00111011100000101101000101000101
00111011101010101101010110110000
10111101001010011111101110111001
10111100111011011100000111001111
10111100101110101010101101100100
10111101000011101001110110111010
10111011010101101010001001010011
00111100000100011011001100010100
10111101000000100011110011110010
00111011111010000001111010001100
00111011100100001101100010010111
10111101011001010010010100010110
00111101000100011010111100101000
10111101000110011111110111001001
00111101001000101110101100001011
10111100100011001100110110010000
00111101001010001101000010100110
10111100101000011000110100000001
10111011110110001110011000001001
10111100001010111101101011001101
10111011010111101000110101011010
00111010111101001010110010001000
10111100110111001001011010001111
00111100100101010110001111001010
10111011101100100010001011110100
00111010111101010011101101110100
00111101000000101000110000101011
00111100000001011111111100010101
00111011110001011101101100001110
10111101010100000101001100100100
10111011111110101010000010111000
00111100000000110110101111000101
00111100101010001110011010100011
10111100010011010011101101110101
10111100010001111001010010101110
00111100000000101011110000000111
00111101001001111111101010010011
10111100111001010101111111101011
10111100010110011110111001100111
00111101010100011100000000101001
10111010101110011110111111101010
00111101010101010110010000001000
00111101000101110111110101111111
00111100010100111001010100110111
10111100000010011001010100111100
10111101100111100011010010100011
00111011110000001001011011010110
00111101000011001111000111110010
10111101010101111011111000101001
10111101010110000100110101010011
00111101111100001011110010001100
10111011010011010011110111111010
10111101100011001111001110101011
00111100111010010110111011100100
00111011110010011001000011010000
00111101000110101000001111000010
00111101100101011101101100101111
00111100011010010000100001101001
00111011101000100010010001101110
00111101000110000011111110100000
00111010100100101111000100011110
00111100011100100110001001000000
00111011011110011000010111010011
00111011110101100101101101111010
00111101000110011111000100011111
00111011111010101100000001010110
10111100100010011111000000111010
00111100010010010010001110100001
00111101010100000111010000010111
10111100011010111001001000000000
10111101010010001101010011101000
10111101001001100010101001001101
10111100010111100101011010001110
00111100001101111100010100011000
10111101011101110011001000000100
10111100110100011000111010111111
00111100100110100101101001011100
00111101011100000001110011100101
00111011111000111001101001000101
10111100010011100001010110111011
00111100011110111101011100011100
00111101010000101101010010101101
00111101010001010110011001011100
00111101001011010110000100101010
00111010000111011011100010100010
00111100100011011010101010010000
10111100001010011011110101110000
10111100110001001110110100011100
10111011100011101111101100001010
10111100100111100111100000100010
00111100000110010101001101001110
10111100101100100101001101111100
10111101000011011111000111001000
10111011110010001000111100010110
10111100001001101101000010110101
00111101000010000101010001000011
10111100101111100100110111100011
00111101000101001011010101001111
10111100100010111001001000100000
00111101000011101100111110001101
10111101001101011100101011100100
10111101011001110010010010101001
00111010110001000010100101101001
10111101000110111000001010010010
10111100011100010101000000111010
00111100111010010100110101100010
10111011110100110011000110100011
10111100001110000001111100111101
00111100101010110111001101001001
00111101100001101100101011011011
10111101001111111011000110001011
10111101000001110110111111000000
10111101010111111100001110011100
00111101001101101000000110111011
10111100110000011100111101100110
00111101000010001010110001000011
00111100111110100111100101111111
10111100001111011101001101100001
00111100100111011011110101000100
00111100100000010101110111110101
00111011011010011111101110000010
00111100110000111111001001010111
00111100000101100111101001010001
10111100000110000001011101101101
10111100010001011100010001101110
00111011111111010110000011010111
10111101011010010000000100110010
00111010100010000011000001011100
10111100101010100010001110011110
10111010011100101011111101011101
10111101011001101010010001101001
10111100100111011010110011111100
00111101001010100010100011010000
00111100001001000000011101101101
10111101001111110011100001010100
10111100100101011100000100011011
00111100101001011110100010100010
10111100111011111000001001101111
10111100000100010101001000100110
10111001100101110001010001110010
10111100100000101001001001000110
00111100100101101000100000111011
10111100100001011111011001000001
10111101001101001100110000001100
00111100011111010101011000011100
00111100100001010010011001010100
10111011000100000111001001011000
00111100100110110111001010111100
10111100101100011101010001011010
10111100110100111011101011011001
10111011100001111111001100011000
10111100010000010101100110111010
00111101010000101001101100110100
00111100111010101110101011011111
00111011111111111011011000000000
10111100110000111001110111100110
00111101010001011001110101000000
00111101001001010011110001000001
00111100001001000100111011010110
10111101000000011001001000110111
10111100010101011111011100001101
10111011101010100110110000001001
10111100110110001010111000110011
00111011100110110001010101001110
10111011011001011001100100000001
10111101001110011100000110111001
10111101001000000111001000100110
10111101000000110100010100010111
10111101000001001101110101110111
10111100101000001011101000111010
00111101000110111110111111101010
10111100110100111100101101100000
10111100010001010010001011001101
00111011100001110001111000010011
00111010111001100010000100000110
00111100101011000001101011000010
00111011111111011000011100010110
10111100100101100110101001101111
10111100010001010010101001001001
10111011111000100000100100010011
00111100101010110110100011000111
00111100000111001000101000010110
00111100100110011000000111100000
10111100100011101010110110010110
10111100100110001110000110000000
10111100000100110100100010000100
00111100100001111110001111001101
00111101010111000000000101010000
10111100111001010011101101100010
10111100110101010001010101000111
10111100011011100100000100000010
10111100001111011110110001001100
10111100100001011101111001001010
00111101000100110101110010010100
00111101001001000001111011000001
10111100101001011111111110111000
10111100101101110110101110110011
10111101100000110001111100101101
10111101000000010000000011100110
10111100000101110001110111000010
10111101001010000011010111001100
10111101101001000011101010111011
10111011001101100010110111100100
10111100101011100100011001101101
10111100110011001101100110010001
10111100000100010111110001100001
00111100010110100111011010000011
00111101100100101101111100101010
10111100011010111001011000110101
00111100001101111001101001110100
00111100110000111100100011001111
10111101010100110110001100111110
10111100111101100111100101111100
10111100001011001010101001111111
10111101000001011001000110000001
10111101010001010110010110111000
10111101001110111010011001001110
10111100001110101101010011100101
10111010111110100001001100001010
00111100101001011110101000111010
00111100101111101011100110110100
00111100111000011000111111001111
00111011011001100101111000100000
00111100110000011101110001011111
10111101010101010110000000000010
10111101000010001111111101100011
10111100100010011001101011010000
10111100110111010100100110111110
00111010110010110101110001001011
00111011010111011111001111101110
10111100111001110001011011001010
10111100001010011100001010110110
00111100001101010011111010101000
10111100100101100101010010011011
00111100110010000101001110000101
10111100100111000100000001000110
10111101001010011100110100010110
10111101000101011101000110001011
00111011110111110010101000100010
00111100111010100100001110001110
10111101100000010110001001010111
00111100100011111010010011011011
10111101000001000010101101001111
00111100001101111001111010100111
00111100011000001001001111000000
10111101000110110111001001001111
00111100111000111011110011010000
10110111111010000000010110000001
10111101011000100101010010111101
00111011111010010011010111011110
00111011101111101100010011001111
00111101010110001001011000010111
00111100100010110111001111011110
10111100111110110000110100100011
10111100101101101111011101010100
00111101011000000000010010010011
00111101000011100111001101010110
00111011100001111000010101111100
00111100000000111010111110011110
10111100001000110101001001010010
00111011110011001110110010111001
00111101000010011110110100000101
10111100101001100110000000101111
00111101010011111011011010100010
10111101000011101100000010001000
10111100111000111011101001110110
10111100010101101100100100000011
10111100110111110000011000111011
10111101001100111110011110111101
00111101001111010000111011100100
00111100010111010100001011010010
10111101011101111110011001111001
10111011110001011011011001100110
00111100111101101011011101011010
10111101011100110101110100011110
10111101011011111001101010111001
10111100111011000001010110000010
10111101011110001111101101100001
00111101011100010111000111110000
10111101011111010110110001111010
00111100001001011011111100000111
00111101001001110000100011001101
10111100010111000011101111001111
10111010000101101100111000111001
00111011101011010000011110010110
00111011000001011011110101100111
00111100011100000011000100000001
00111100000010110010001100001110
10111011110001000101011011100001
00111011000001000101011011000011
10111100110101000101100000100000
00111101001011111101011011101110
00111100100111010001111010000000
00111011111110101100001110010101
10111101001001111110001100110100
00111101010101111111001011010000
00111101001100110001100010110101
00111100101101100111001110111110
10111011111101011000001001101111
10111100101011101010011001010010
00111101010101101101000100011101
00111100010110110010100011101001
00111001011010101100010101011000
10111101001010011111111111110100
00111011101010010011001011001100
10111011101101000110111101111001
10111101100001010000011011110001
00111010100000001001011101000011
00111011111010100110000111001110
10111100011000101001011101011101
00111101001010010101000000001000
00111100100001001011011101110100
00111100101010101100011011000101
10111100001101110100111110010001
00111101100010000100001101111001
00111100100011011001011001110110
00111100101101001101011110010011
00111100100100111000111110010111
00111101001100110100111101101001
10111101001111101101110101011101
10111100001011101011111101111100
00111011110100000001101010100111
00111100111111010101011001101001
10111101011000001111010100011011
00111100111111001111110101110000
10111011100000101101000110110001
10111101000010010000011111011101
10111011111100100100000110011000
10111100101011001110111101100010
00111101110010100001101000010011
00111101011110011111100100010110
00111100100101011101100010110000
10111011110010000111000010011101
10111100101101001010000000101001
10111100101000111011100010000111
10111101001100000110000011101000
00111100011011011100000101000000
10111101000100101110101001110011
00111101001101000001011001101101
00111100111010110010110001011100
00111100100001000001110101100011
10111100010001011110010110110000
10111101001100110110010111100101
00111011100100111101111001011111
10111011111111001100101000010011
10111101001100100101011111010010
00111101000011101110111011010110
00111101011011011011001111001101
10111101001010001001101111010101
00111011110001010000111001100000
00111101000100010111010001111101
10111101000011100111001111011000
10111100001110011111011000100111
00111101001100010101111010000110
10111101001001011111100010010110
00111100100000101101111011011111
00111011101110001010010010111010
10111100100011110111110101000111
10111010100111001011001000010000
00111101100101001011000111110010
00111101000001011011110111001100
00111101010110111110000110011010
10111100110000010001110100101111
10111101001000100110011001001101
10111100010001001011000011111110
00111100111011101010110000011011
10111100101101000000000111111010
10111100010110011110101100000010
00111100000010001111010101011000
00111100110000111111000011001110
10111100100100110111011011100100
00111100001001010011010110000000
00111101000010010000001100010100
00111100101011010001111010001011
10111100100001111100010110110101
00111100110010000100001010011001
00111101010111001011101010101011
00111101001011011000100010101101
00111101010100100001000100110101
10111101000111111110111111111101
00111100101011011000110000110001
00111011101001111001100000100000
00111101100001100110010011100000
10111100100110101001010111111100
00111011011000100000011001110110
10111100101111001101100111011101
00111100110010110100000110010011
00111101000011101100110001110011
10111100000110111000101001010101
00111011111101011101000011011100
00111010100100100111100101000110
10111101010000111110001010001100
10111100000111011010000000011101
10111101011001010110110000011100
10111100111111010101111100100100
00111100011101011001010100010001
00111100110000011111101111001011
10111100100001101100110110011001
10111100100110011101010110011001
10111101000111100011010100010111
10111101000011000001010100001111
10111101000011101001010101001100
00111100011010010010101111100110
00111011111100010010000111100101
10111100111100000111101010011111
10111010101001011000010101001110
10111001100111100101110110111000
10111101000100001111011101111100
10111011101001000011101100110111
10111100111111011101001011001001
00111011101010110010000001010001
00111100111001011001010111100110
10111101001100000001010111111111
00111101000000010100111001010100
00111100101010001011101100010101
10111010001001110010000100111101
10111101000111110101001011111000
00111100100000010110001011110110
00111101000001010110111010111110
10111100110001100011001010011010
00111100110111000001000010000010
00111101011111001001101010110110
10111100010100011100111101111000
10111100011100001010100011000111
10111101010011110000011111111000
00111100001010110001111011110010
10111011011101110011100111010001
00111101000101100101110010010010
00110110001011110100000001001000
10111011010100110111010011001011
00111100110011101011110100110111
00111100111010000111010001010100
00111101100001110011010010101011
10111100100011110010101000000010
10111100100110001100000010101101
10111101010001110010011100110000
10111100111100000011100000111001
00111011110110110100011000111010
10111100100011100101000011100101
00111100000110000001000111011110
00111100000010001000011111000101
10111100100000010110001001111011
00111011110100101001101010110000
00111101010100111011111110000101
10111100101101010001111110110010
00111101001010011100110011110000
10111100010010101111010001110111
10111101011001000111010101111010
00111100000101011111000001111010
00111100110101001011010100010001
10111101010111100101011010010000
00111001110000000011010000101110
10111101001100111101010000000110
00111011010000000001101010101001
10111100001011010101011100011001
10111100000000001101001100100111
00111100011100110000110101000101
00111100101100101111111100111001
10111100101101011110010110101000
10111100111010001100010101100010
00111101011010010011101001101110
00111100100100100101110011110111
10111100111001100111110001101001
10111100000101101000001000110110
10111101011111000110011111011011
10111100000000100110100001101100
00111100101011000110111000000101
00111101101101010011110011101100
00111100110111001111101010010000
00111100110000010111001100111101
10111100111000101101010001111001
10111010111001111000111011001100
00111101000111011111101100011000
00111101000011000000110111110111
10111100001000001110101110011000
00111100001111010011000000000001
00111101010001100110001100111001
10111011100111000100100101110100
10111101010100010100010110011101
00111101010111111111101101001101
10111100100100111100001010110011
10111011100100000000101000001010
10111100000100111001011110001001
00111101010101011111001111000111
00111100011110101001001111111010
10111001100110100010101111010000
00111011101111111100000100111111
00111100010110101101110101000100
00111101000011010100011001111001
10111100000100100110101100000001
10111011110111011100100010010101
10111100001010001000111011101011
10111100100000000001111001010110
00111100101001100000101011000000
00111101000100101110000100010011
00111101000100000111010010100101
10111101000000010110000110100111
00111011101110000001010111011001
10111100010100010000110111001101
00111100110010100101110010001011
10111011111111011100111001011110
10111100011011010011101010101101
00111010111100000001001010010100
00111101011100111101010011110001
00111100101011010011111111001001
10111101010111101011110001110101
00111101010101001111100011001100
00111101010011110000110101110110
00111100001000011010011011011111
10111101000110010000000000000110
10111011010100000001100011000011
00111100000010111011010101100111
00111101001000100000100110111011
10111101100100010000101100010100
10111100001110111000010011100000
10111101001101011110111110001010
00111101000010010010000111111010
10111100111110110101100110110111
00111100100111110011100001111000
00111100000111001011011010101001
00111101010101011000011100100100
10111101010000100001101110101001
10111101000001000001100111010000
00111101010101101001000011100101
00111100111001011110011111001110
10111010111100110111000101001001
00111101000001110100001101100100
10111100100101000100100001000100
10111101001001010011101111010101
00111101000110101001110010001101
00111101100100000111000100001001
00111101010010001000101011010101
10111100010011011110111010100101
00111100101101010101010010110000
00111101000011010000111110000001
10111100110101000111011111111001
00111100101001011010111001011100
10111101000110010110101011110110
00111100011110011001011110101110
10111100110111101111011010011001
10111001101010100010110110000010
10111100111011100110101000011001
00111100010101000010000011100110
00111101000001011000010000010110
10111100110010000000111110011010
00111101000111000000000011010100
00111101011001000001110100010100
00111100110000001101000110010000
10111101001011101010001110010111
00111100100011010011111000100011
10111100000011111110100110010001
10111010101100000110101100100011
10111100101011011010001100100110
10111100001000001001100110000100
00111101001010101100011011100111
10111100111011101000110000000010
00111100101001100100111000010111
00111100100100100010100100101111
10111011101001110110111110101010
10111100111100010000011000000011
00111100110001101101111100100111
10111011100110010010011100010010
10111100000011000101111010000101
10111011110001100010011001000101
00111100100100101001110100010001
00111011110101001001001111110111
10111100001110001110000111110000
10111100001101111000000010100100
10111101010101000011100001101101
00111100101101110111001001010100
10111100101101101010101100110010
10111101100001001100110101010111
00111101101100100010101001100100
10111011001000101011010000101111
00111100101010010010010001000111
00111100101001010000111110000001
00111101011011101111000101110100
00111100000111110001010000101010
00111101011011001000010010111111
00111011111110100111101011000101
10111100001010110000101011010001
00111101010001110111110010001010
00111100101110001101011011100011
10111100010100011101011110110110
00111011101101111110001100000101
10111100001111001110101001011010
10111011100110100110000001011111
00111011000001010011001000011010
00111100101001111001001000111010
10111101000011111001100110011100
10111011101000100011001010101011
10111011001001001000001010000111
10111101000111011011101011000101
10111100101111000010001011001011
10111100110011000101111001010010
10111011101101010101110010101100
10111100000011110001000100000001
10111100001001000111010110010010
00111100111010000000000110100111
00111100111110011010100000101100
00111101001101011011101000010000
10111011111100110110111101110110
00111101001101111011101011010110
10111101001101010100101100100111
10111100010100101010000010011110
00111101001010111001100001100111
00111100111001110110100100111111
00111100011101101000010110000011
00111101011101011011000101000011
00111100110001001101000111101010
10111010010011000000010000000001
00111011100001100010101001111101
00111100111011001111111001010011
10111100111111010000011010010001
00111100110111100110011011001110
10111011100010001010100101110001
10111100101100111100110000001111
00111101011011000100001000111111
00111101001000100000110000110111
10110110111110001111000101000011
00111100111101000011101000110110
00111101010101111011110100001011
00111011010101010000100111011001
10111101001011010011011001000011
00111100010111110110010000001111
00111100011110100011101111101010
00111100101001111101101100101101
10111100111010100110010001101001
10111100110100101010101001010011
00111101101100100110010111100000
00111101000111110011010000100110
10111101000001110111000001100000
10111011100000010100100010110000
00111101000111001000000100111011
10111011100001101000110101111010
10111100100010011001011100000000
00111011111100001100111110011010
00111101000010111011101010101000
10111100001001100001010100010010
00111101100100010010011000010110
10111101001000110001101011101100
10111100010011111101000001010000
10111100110010111000100110111011
10111010111010111110100111110100
10111011110000001010000001110110
00111101010111010101000010000000
10111100101110110101111100110001
10111101110001111011001110101000
10111101010101010010111010010001
10111100101110010101010011011101
10111101000000100000110000010100
00111101000101110010101110100100
10111100100100101011110100111110
00111101110010011111110100101010
00111100100101100010000111111111
10111100110010101100110100011101
10111100110011011001000011001001
10111101000011000111111001100110
10111101001001000011000010101111
10111100110101110011111101110011
00111100110000001110001111101101
10111100110111011110101111110000
00111100110000011110001010101010
10111101000101100101011011110011
00111101001000101110111101001000
10111010110000001000101111001001
10111101100000110000000000000010
10111101011011011110101011111001
10111101010011011011111000011001
00111101000101011011111000010000
10111101010111011111000101110111
00111101011000001100111010110001
10111100001000111100001010111110
00111100000010001001110111111101
00111100000010101111101001011011
00111100111001110110111010000010
00111100011100100000001001001001
10111100000100000010110110000101
00111011110111000011111111110011
10111011100011100101011000100010
10111010011100011000110011011111
10111100100101011110110001100000
00111101001111010110001111100110
10111101110000011101110111100010
10111101000111010010111100100110
10111100101011011100010100000101
00111100101000110011111001111001
10111101000100110001100100011010
00111100110000111011111010100111
10111011110000111011011100100011
00111100011010010110001010000010
00111010000011010001000010001111
00111100101100110101000101100110
10111101011011000110111000111101
10111001000000001011000100011110
10111100001000100011010010010011
10111101010111001101110001111100
10111101010000100011011011000101
10111101000000110111111011101101
10111100101101001000111110011110
00111010110100111000010110010010
10111011010011111010110010001111
10111100111001101110001110101110
10111100101100010100101100000010
00111101000111111010000011010010
10111010100100010110110101101000
00111100100100110001001101011110
10111101000000000011101001011110
10111100111000010001010100110010
10111011111110011010110111000010
00111100101100111000010011010001
00111101010000001111110011101100
10111100100000011001100100110010
00111010111001100010110111001101
10111011001011000000000111011001
00111101000000111110110001111000
00111101010000000011010100110010
00111011101101000011100010010001
00111101001110100111001101110000
00111011111000110010110011010110
00111100101010101101111100111010
00111100100100100000001110011101
00111100111011100001101010011101
10111011111110011110011010110100
10111101100000001001110010000000
00111100110101000010010010101101
10111100011101010001010111101111
00111100000000101100010010000001
00111011101000110100110001101001
10111100000000111101111100101010
10111100011000111101011000011011
10111100011001100011101010011001
00111100111011011111101001110111
00111100100000100011001111100011
00111010110000000111111000101011
10111101010011011010000000001110
10111100010010011110000000010110
00111100111000001110011010000011
00111100110011101110111001100010
10111101000011100001100110010110
10111101000010010111101111111000
10111101000110111101111010001100
10111101011001000100011111001100
10111101000101101101101101100011
00111011100001111001010011000010
10111101010111101000100011111010
10111101010010001110100110110110
00111101001010011011101110101010
00111101000110110100111001100101
00111011110011110001111100000101
10111100111101001001110000101000
00111011010001111010111011000101
10111100100011100001110010010100
00111011101010001101001101011101
00111101000101000010101000110101
10111100101110100010100010110101
00111100100111101011111011001011
10111100001011011111001110110001
10111101011100111100110010101100
10111101000000111111111000111110
10111100111111100001000111000101
10111100100010111111001000101000
00111010111101010001000000100001
00111101001100001110001000010010
00111101001010101000100111000010
10111101010001110001010010100111
00111100011001101010010001100000
00111101011111000101111111001000
00111011100101000111100010001010
00111100101101011010001010010110
00111100000110011101111000100010
10111100011011100111001000001000
10111100100101110000110101010111
00111011110100000111001100011110
00111101011111011000010010100110
10111101000000101101000100110110
10111101100001010111011101101010
00111100110111000010001010110001
10111101011010011010011000111111
10111101001101101110100100000111
00111100100101101101111001100110
10111011000001001110101000100111
10111100000011011110001111000110
10111100100011100010100110110000
10111100110110110111010010110000
10111100001100100111100101000011
00111100110001001000110010011111
10111100101101000011100100111010
00111101001101010101101000010100
10111101000100001001011110011111
00111100100010100100000000010010
10111100011111001010101111101001
00111101000100000100000011111111
00111100011100101110010100111011
10111101001110110011100100110001
00111100100010111101010001111111
00111101011100011101010011000010
00111011101000110110111010001111
10111100100101101010111111011001
10111100010101101011110101110011
10111101001011110010100100000111
10111011011100011110000000100101
00111100100110000010100010000110
10111100000100110110010000000111
00111100001111111100110001100011
10111011110010110111010001110110
00111101001000100000001001000010
10111100111100111111000100000111
10111101001001000011000111011101
00111101010100100111101100011010
10111100011110000010010001100000
10111101000000101010011001100011
10111100100101001011111101000100
00111101011000000110011111001100
10111100101111100000010111001001
10111011000101111010111001100100
10111011001011111000101101010101
00111100001001101001001111100101
00111011111000111000000001011000
00111101000110001111111001101101
10111101000011100001001101001000
00111100001110100000111000000100
00111100100000010001101010111111
10111100101001010000100011011100
00111011010010001011100001111000
00111101000100100101100000111111
00111101000001000001000001110011
00111101001000100101001010011111
00111011101010001110101010011000
10111101010111111010110111000111
10111100100100111011000100111111
00111011101101111110111100111011
10111100101110000010001000111001
10111100011001100001011000110010
10111100100010001001100011110010
10111101000010001100011010000011
10111100110111111001101001111011
10111101000011110010100100101101
00111001100000101110101101111100
00111101010010010101110001100010
00111100110001010011010110110100
00111101011101111110011101101000
00111100100000110101100100111111
10111100111101001000100011101101
00111100000101001001010011101010
00111100110111101010110011110011
00111100100101001111000010011011
00111101001100101100001111111101
00111101001100001110001100001001
10111011001011000010011011001001
00111100100000001000100010011011
10111100010010010001000110111100
00111100101100111111010101000110
00111100101001111111110110100001
00111101000111000101110001010010
10111100111000001101101100111000
10111100111010010111101110110000
10111101100001111100110110011010
00111100100110001001010110110010
10111101011011111100000101100111
10111101000100100010001101000010
10111101000101001111111111110011
10111010001111111110100010100101
00111011101101101101101001010110
00111101011001000001001110011000
00111100000010111011001011100000
00111101001001011110011001101110
10111100110001110001000001000110
00111100101101011101111101111111
00111101100010010111011100101010
00111100111101011000100111001010
00111101000010010001011101010111
00111010011111010011011000101101
00111101001000100100110101110100
10111100111011101101110010011001
10111011111111000000000111110111
10111011110100110111110001110100
00111011100100011000110011010100
00111101010000111110000100010101
00111011111011101101101001010000
10111101010001011011111111111001
00111100010000101111111100101111
10111100011011110000110001001000
00111011111101100100110011001001
10111100011001001110100110001100
00111101000110001000010001000101
10111100000101111111101011111010
00111100101010101010110110000000
10111011101001000000111010101101
00111101100011111000000100111110
10111101101100110010001100100101
10111101101000100111000101011100
10111101110100000010011000011001
10111101000101111000011010011010
10111101010111010110101111100000
10111101011011111011011001010111
00111100100111100010011001001010
00111101001100110010011100001000
10111101100010111110011111001001
00111100111110110111011110010001
00111011110001101100011011111110
10111100110010100111000000111101
10111100100000000000000011011000
00111100001001101100001101001001
10111101001001100111011000010001
10111101011000111000000010100011
10111101000000110001101010011000
10111100101111111011001010011010
10111011010101101110011101011110
10111101001000100000101101111001
00111101000110000011101101000101
10111100110111000111101101001100
10111100100000001001011010110010
00111101011000110000001110101010
00111100110000010100101111001000
00111100110111111101101001010111
00111011110001101111010100111101
10111100110001111001011110000000
00111100000001111011011000001001
00111011110110110000001011100111
00111100110110001001100011111000
10111100001001111011010110010010
10111011100001100110110111110100
10111101011101100010111110100011
10111011110010110100000000110011
00111101011001110100111101001111
00111100100000001101101111100000
00111100100101110101001110101011
00111101001110010001011000010010
10111101000011100010100010000011
10111100100100101111001101010100
00111011100001100101111000110000
00111100100110011110111111110001
10111101001111100000010011101011
10111100110011000011101000010111
00111101001101011001110011111000
10111100111001010101111001111010
00111100100001110001000011011011
10111101011011110100101111010000
10111101010101110111001101010101
10111100010010001110000001011001
10111101000101100111011100110010
00111101010010110100001110011001
10111101001010100100100110110011
00111011000110001011110101010110
00111101000000111100001011100100
00111100110001011001101111010010
10111100100101110101000110011001
00111100001100110010010011101111
00111100101001101001111000001011
00111100110101001100111110101001
10111100000010100110000101011111
00111101100010000000011100111110
00111101001001101010100111101100
10111100110111111111110100101100
00111101011010111000000110101001
00111011111111100100010010101001
00111101000010011000101011011111
00111010010001101001011111010011
00111010011000110001101100100111
00111101010001011011111110110100
00111010100100110011000100111111
00111101010001001101101000111000
10111100101101110001100110100101
10111100111011011101100101000000
00111100100110110011011011110010
10111101000110011101110110010000
00111100110111111011010100110100
00111100011001011011101011010100
00111101000001010111011110101100
00111100011110010011001001101000
10111101111001110111011000101011
10111100000010010111110110001110
10111101100101101101000011010000
10111100111111110001100010100011
00111100100000011101011000011001
10111101000001011110101001101010
10111100000000100110011000100100
00111100001100000011110111101000
10111101000111111111000101010001
10111101010001011001110001000110
10111011110011011101010110001100
00111101010010111001101011111011
10111101001100011100000001101000
00111011000100100110001100010000
00111101100010000111011011110101
00111011100000101111000101011101
00111100001100011010000000110110
00111011010101011100110011010100
10111100100110011001011100010010
00111100101111101001001110001001
00111101001001010001100101100111
10111101011011101100000001110110
10111101001010101111001001000110
00111011110000000000000110001100
00111100111110110000101110101000
10111100100010110110000000001110
00111100100000010110100111001000
10111100011111100100110011111110
10111101000000010100100011101100
00111100110101010011000010001000
10111100101000101011000001110101
00110100110111111000000100000000
00111101100010010000101000100111
00111100111100000010000010011010
00111010111011011100001111111100
00111101011110011101101000011100
00111101001111001010010101000000
10111011110111011011101111000001
00111101001001011100011011101100
00111100111010010100111111100100
00111100101111101111010000101000
00111100000011100100111110010100
00111100111110111111110111101110
00111010101011001100000000011101
10111101000000110011101101111010
00111100011000111101111101111011
10111011000111111011111111001100
00111100000100100010000111110000
10111101001011110001011000100100
00111101001000011101011000110011
00111100100111110001011100010010
00111101001101100111010011001110
00111100101101010110110011110101
00111100011111000000010111001100
10111101000100010010001010110111
00111100101000111010001010100010
10111101001011110110011101110010
10111011000011110111110000111100
10111100100000011010110000110111
10111101100001100100111001101001
10111101001001100101101001000111
10111101000001000110110011011110
00111100100110101001101000010011
00111100101000110000110010000111
00111100100101110011100110001101
10111011010111111010111111111011
10111100111111010000100111110100
00111101010100101001010110000001
10111011100011111110110111000110
00111101000011000000000000000001
00111101001100101000001010011100
00111101000000110100000001101100
00111101101110000010001000010110
10111100110001110111001011111000
10111101000110111001100101111010
10111100110011101000100110111010
10111010100000000110000101110010
10111101000001100100101101100000
10111100110110110101011001010101
10111100100000001011001100010110
10111101000100000010010001100011
10111100001100011100111000111000
10111101001100110001001010001110
10111100100011000101100101100000
10111101001010110000000010001001
10111100111010011101101001001101
10111011110011011111000110001011
10111101100011100100110101100110
10111101001011111001000011110010
00111101010100101110111010000110
00111100111110111000001011010000
10111100111101111101001001101100
00111100010011101101010011010111
10111101001100001011001101110000
10111011100000101001101001001110
00111101011011001110100001010111
10111100111000001001011011001001
10111101001101000101001010000100
10111101000101101000011011111001
10111100101011110011111000011110
00111101001111110001011001110101
10111100000100001111001011011000
10111101001111111100010001011111
00111100000010001111001010111000
10111011111110001110100010011111
10111101000001101111010100110010
00111100101100110111110001010110
00111011010000100011010101010011
00111100101010011010101101010111
00111100001100111011011000001111
10111101001000000000101010100100
10111100010101100101001100000011
10111011011111010100010001101010
10111101001100001100111101000011
00111101001101110001000001001001
10111101010101110101010010001101
10111100001010011110110000001110
00111101101001101100111011110110
10111100001010010100111111010010
10111100111111101111110111111111
10111100100001010000101111110101
10111101000101110010001110000101
10111100110100101101000011111111
10111101010000011101101110010110
10111011101001100100001001100110
10111100011110110110001111101001
10111100100000111011011111011011
10111100111001010010011011101000
10111101001100100010000111001110
00111011101111001011101001001000
00111100101000100000110001000101
10111100011001010110011100110100
00111101001001001000011001011001
10111100000101110100101110111000
00111101000100011111000100101001
10111100010100100101000000101100
10111100011111101001101000011001
00111101001001010101000101111010
00111101011001000100001010011001
00111100110101001001010101110110
00111100110101111011011011001010
10111100001000000010000101110111
00111101010010111011100101001111
10111011010000111111001000001110
10111100001100001000011101100000
10111100110110011000001111100101
00111100000110110110010001111010
00111101010000001011110000110111
10111101001110001001000010011101
00111101000111111010110100010100
10111101010011001100000100010000
10111011001010101010110100000100
00111100110101100011011100110010
00111100100001101001110010011101
10111101001001000001100011001110
10111101000010000100000110100101
00111100011010101111101001101001
00111100101101011111010011101000
00111101010001011110010001110001
00111101011011010101010101100110
00111100111011010110110001001101
10111100001111100101000001110000
00111100111010011001101011000110
00111101010000000101101100010101
10111100110111101001101100010001
00111100000010100111111001010000
10111100011111001110000100100110
00111101000011100010111000110010
10111011011110101010010010011100
10111100101100110110101110101110
00111100111101001101100110010001
10111100110010101110101111000101
00111101001100000110001000011011
10111101010101100110110010111111
10111100000110110001000111011011
10111100101100010000110011010001
10111010111010111100101110100000
10111101000011001010011100010101
10111100111101101101111011010000
00111100101000111010100001011001
10111100110011011100111111010101
00111101000000111110100000011010
00111101100010100010011001001011
00111011100000000111000100001111
10111011100111101110000100010010
00111100110011100100010001110000
00111101011100101100010110010000
00111011100100001001000001010110
00111101000000011011100101000001
10111100010011111100101100011101
00111010100101011001101011101011
00111101000110111110101101010010
10111100100111100110111111010100
00111101000011110000011001101100
00111101001011100011101101101100
10111011110000000110111010011010
10111101001111111001110010100010
00111011101001010011001010111010
10111011000000010100111101010010
00111100110001000000100110111100
00111101000001011111100101100111
10111011101101000010000110110010
00111101000000000010000111101100
10111101011111010100101001111110
00111101000011101111101011010110
00111011011001001010011100100000
10111011010100010011110101011010
00111101010001110001010000000011
10111010011110001100111010001001
10111100100000110111110110000000
00111101010000001010110000001100
10111011101010011111101111010011
00111100001001011000100111010001
10111100010010101000111001101110
10111010101001011010011001010010
10111100111111001100100011111001
10111101001010110111111100011100
10111101000000100001001011110010
00111101010101111011111110010111
10111010101110100001010111111010
00111011010111010001110010001010
10111101000000101101001101100100
00111100101100101011110111001001
00111011100111000010010110010101
10111101001110001010011100100011
10111101001001111111100100001011
10111100100010101000101100011100
00111100110110010101011010111011
10111101000110011010000101110101
10111101000001011110110001001000
10111101100000010000011001000011
00111011111111101011010000001111
00111101000000111001101010111111
10111101000011110101000111000010
10111100011001010000100011010100
10111011110110000001010111010101
00111101011111010111010011010010
10111101000011000001001001011010
10111100100010100110001110110001
00111100001001000100011011000110
10111011100110001001010101111101
00111101001101010001101101111001
00111100110001000001110100111011
00111101101011100001100000110110
10111011111100000100111010011010
00111101010000110001011100001111
00111101100110110100100010101010
00111011101110010000010110001101
00111101001000001011001010111010
10111100111111111011111101010100
00111010000110100011110110001001
10111011111000000001100101001110
00111100001000000010111101011010
10111100000110110100011110010000
10111101001100110100001110010001
00111100100101100010101001011111
10111100111001111101011111111001
10111100111000110101010010000001
00111100011101000110010111001100
00111100101001111010100101111000
10111011001110111000100011110010
10111100001110011011100000010000
10111101010101010000000000100011
00111100010100011011110000011100
00111100011111011100000010101100
00111101010110010010011110010000
00111101010011110101100001011111
00111100100110110101000001101011
00111100111101100100110101011000
10111101000010000000101110101110
00111100101110110000001000001110
00111101000100110110011100111111
00111101000001111011001111011011
10111011010111010011111000101100
00111101000010000011011011101001
00111100110011001111101011110011
00111100111000110000011100011010
00111101000010111001111000010101
00111100101101011001000011101111
00111101001110110001101000010011
10111101001011101101101101000110
10111010101111100111011111011110
10111101010110011001001100011101
10111100011110100010001111111111
00111100111111100110001000011100
10111001100001000111010101101110
10111100010011001100111111010100
00111101001011111001101110100010
00111011110100000010000100010100
00111100101000110000110101111111
10111101000000111101100111001001
00111100101001101010010011101110
00111101100100010001001111001101
10111101000100111010110100011011
00111101010100000011000101000101
00111101000110001001010011000111
00111100000000000110101100100100
10111101001011000001100011010100
10111101000011101101011000010001
10111100011000011011000001111000
10111101000000100001010111000101
00111101001100111110101100010000
10111011101000111000100000111010
00111101000111010000101100111010
00111100101011111110000111110110
00111100010010010111011010100100
10111001011101001011100100101100
00111101000001001010000010010001
00111100000000010111010011100111
00111101000000111001110110110111
10111100110000011010000110100111
10111100110110110010100100001000
10111011100101110000110110011011
10111100101111011011000010101100
00111101000101100000001100000010
10111010110001000111100100000110
00111101000001111011001000110100
10111101010010000001100101011010
00111100101110110110110111110000
00111101000101000101111100110011
00111011110001000100101101010001
00111101100101001011101111010111
00111100000111010011011100101000
00111101000001101010110011110011
10111011101110101001100010000011
10111100100011011010010100101001
00111100010101000100001011111011
00111101000100001111000111101101
00111101001011010001000110011001
10111101000001100000011011100100
00111101000000100100010101011100
00111100100110010000011010111101
10111100100101010000100110101010
10111011110010101111101010010110
00111100111110010100000010110010
10111100110010111010001111011100
10111011000011101011000010110000
10111100111001010011101111011000
00111011010000100000001010011110
00111011111001110011000000000111
00111100100111011001110000110001
10111100111000001110000001010101
00111100110000001100000100111100
10111010011010100011111101111100
00111100010100001010001101010111
10111100111101010000010010110101
10111010000111110100110000111100
10111010001000101101001000010010
00111100111001001000010000010010
00111100100011010000100000110001
10111100000001100110001001100011
00111100101100101011011000000101
00111100000000111011100101010000
10111101001010110010110010001011
00111100111100010110010001000101
10111100011101011000000111101010
00111101000001110111001100010010
10111100110001111100101100110100
10111011111001100000101010110100
00111101001011100111111011000010
00111101100100100101000000000110
10111100011010110010001100111011
10111100000101011101010000011111
00111101100000000100101111011111
00111001110110111001111110101011
10111100101010001011111110100010
00111100101011001011011100111100
00111100010011011110101100101101
10111101100101101000101101010000
00111101010001110010000100001110
00111101000110000111100101000110
10111100100101011011101111011000
00111100000010010101110001100100
10111100111001100000101111110011
10111100100011001001000010110110
10111101100110010111110111001100
00111100001111100111100110000011
00111100101100111110111001011000
10111100001010000011110110011101
00111100110000001110110110011100
00111011110011110000011101111101
00111101001111010011101001011101
00111100001111001001000001101010
10111010111111010101001011011110
00111100100001011001000010101001
10111100010010011101100101011111
10111100110011111000000010011101
00111100100101111011001110100100
00111101001001011011000101110100
10111100100011011001100110110010
00111101011110110111000110011110
00111101101100001010011001101110
00111100011100010111101011001010
00111101001010001101100010010000
10111100100011011110101000000111
00111100100001100110110000100101
00111100101011001101000110110011
10111101100000111111111110000000
00111011110011111110011101000011
10111100101001110111100011100001
10111011100101001110100100000001
10111011100111111111011110011101
10111101010101111101010100110010
00111100101011101001100001110110
00111100010110110010011010010110
00111101000010110000101000101011
00111101001111101111011010000111
10111100010100011011110111111010
10111100101011011000110010100111
00111101010110010100100111101010
10111101001100101110110101111101
00111101001000010110100010001010
10111100011010011001011011101000
10111010101010110110110100111110
00111100101001100001001100000110
00111100101111110101110101110011
00111100000011111011100010110111
00111100110111111111010100000110
10111001100101111000111001001000
00111100111110100111000011001110
10111100111011110011101010101011
00111101011011111001101010100111
00111101010001111000110000011010
00111101001110001011000001011010
00111100010111010001000100100101
00111100110010011110001000100011
00111100000110000000011011100001
10111000001011110001000111110110
00111101000111111000000110010111
10111100110100111111110101011001
00111011111101010010101001100001
00111101011101111011100100001000
10111101000011100110100101000011
00111100101101001110001001011000
10111100111011101110011010001010
00111010000111101001111110111010
00111100000000101011001011010101
00111101000110100000010110110001
00111100011000001011100001010000
00111100000011011100011110001001
00111100110101111110110110101110
00111101000100010100010101000111
10111101000111000011010111011100
00111011101101111001110110001100
10111011111011110100000100010111
10111101010110001001000001111010
00111100101010100110101001100011
00111100101100010110011100111011
00111100101110011110101000100010
00111011011000001110010001101110
10111101000100001110010010001010
10111100011100010000001011111101
00111100010001111000101111111111
10111010110010111001011001111110
10111101000010000001010110100010
10111101000100001001100010111011
00111100100111001101110001001000
00111101000010111101111001010010
00111010110010110010101000111111
00111101100101000111001100001101
10111100010110110001111111100010
10111101001011011110010001110010
10111100111010110001000001101100
00111100010111111000111011001010
00111100110101110100011011011010
10111100010110110011100111010101
00111011100111101011001101001011
10111100110111010101001001101011
00111100000100011110000111101001
00111100001001101000000110110100
00111101011111111111101000011110
00111100110111111011010010000110
00111101000110010000010011111010
00111100101110011111000010001110
10111011110000111100111111011000
10111100101111111000010100110000
00111101001000010111110010101010
10111101100000111111001011000101
10111100111001000100110000011000
00111100100100100110001000010011
00111101000111001000010111110001
10111101001000000110111110000010
00111100110100100101100111110110
10111101100100001100000011000011
10111101001000000011010010101100
10111011101101000111110011011100
00111101001111100111111100011111
00111100101010110101001001001100
00111100100101111010011010010001
10111100100011111101101010011011
00111100010011110001100111101111
00111100100010110010101100101000
00111101000110100110001111110100
00111101101001001001101111100001
10111101011000110011011100110000
10111101001011000101001001011100
00111100010100101011101111111011
10111000101110011111011001111100
00111100010101111010101001110001
00111100101101001000110110100000
00111001100001110000011001000011
10111101010001001011101000100001
10111011111100101101001001111011
10111100111110001011000001111100
10111010100100010100110111110010
00111100111111000010001000101110
00111100000010001101001100010101
00111101001001101111110011010001
00111101010110000011111011011100
10111101011000110111111000011101
00111100111010101011101111001001
00111101000011110011001010110100
10111100000001000010100000101111
10111100111111001001010111001010
10111100100011101011011000000010
10111101001010001111100011001100
10111100110101111010010111001110
10111100001010110010011101010101
00111101001110011001001111000101
00111101000011001100101100000110
00111101011101011110001110101100
10111100101100101011001101011100
00111101001000000010001011001010
00111011110001001110011110001001
00111101100100111111110111110011
10111100001101001111100101001110
10111100100001010100010101010111
10111101011000010111100001110101
10111101010010000011101110000000
10111100111111111001101011001010
00111101100011010100011111101001
00111100110010101111101100110001
10111100000000101010100100001101
10111100001101111000001001001111
10111101000010001010001101110111
10111100110010111011010010101100
10111100101110010000011011010110
00111100110110110011000111101100
10111100111011101100111010000111
10111100010111011010000111100110
10111011010010110001101000101011
00111100000010011100010111100010
10111100100100100011000000111100
00111100101001110001101011111010
00111100010110000001101011011101
10111100100001101011000001000111
00111011110001011001100001100111
00111100111010000111001110111110
00111101000110111010010010010010
10111101000011000000001001010111
00111101100000000000101010101010
00111001110100001011010111101010
00111010100111010101111000101100
00111100100110010010010111010101
00111101011111101100000100110010
10111100011111011111010111001111
10111100000000000101011111101001
00111100011101011111010111011011
00111100001111111011001111111011
00111100011011100011111100101100
00111101000100100001001110101011
10111100101001011110101011001111
10111100100001011111101010001111
10111100011001010110000010110001
00111101000011100000000000100111
00111101001011101001100000101000
10111100000110000000000100100010
00111100000001001110101101011011
00111011101101001010010101111000
10111100110000110111011000100000
00111100110010101110011000101110
00111011111111110001110001010001
10111101011001000001111011111000
10111011110001110100110011110000
00111101001111000010111101001010
00111101100100110001110110101110
00111101010001101011001000100000
00111101010000101101010001010101
10111100101110110111000001000001
00111101001111101101101100101000
00111101001000100011000101011010
00111011110011000001010000000111
00111101001100111010101011001100
00111100011111111101111010000101
00111100100000011100000100111000
00111101010001011010110010100011
00111100000010010000010111101100
00111101001101001101011100110011
10111100000101100000010110111100
00111011101011111001110101001100
10111101010011011011101010000101
00111101000100101111110001101111
10111011100101010100100100100100
00111100001011010010001011111101
10111100010101010111101001000101
10111100010000110000011111101111
10111100011110110110111000001001
00111100000110010001000100111111
10111101000111101011001010100010
10111101011010111100000101000110
00111100001010111011110111001000
10111100111011111110000000110100
00111011001111110011010110110001
10111011010010100001111100011011
00111100101101110010000000100001
00111100100110110010100111101101
00111100101000000000010101010010
10111100011000110111001000010001
10111101101010011010101011011010
10111100110010110011001011101100
10111101101100001100000100001000
10111101001011011010000111001110
00111101000100001101010101111010
10111100011110111001100101101110
00111101000100101011010100110110
10111101001000100011001000011011
10111101001000001000010001100000
00111010010011100000101000001111
00111100100111110001110001010101
00111100010101111011101100010010
00111100110011001011100110111111
10111101000101011011011111000110
00111100100111000101110111111100
00111100001001101010001101011000
00111100100000111100100110000000
00111100100101000110000011101001
10111100111010001111001101000111
10111100100100000110101001001000
00111100100110101001101001000000
10111100001011001010001111100101
10111011111001000100000111010000
10111101010010100111101001111011
00111011100100100110111011111011
10111101000011000010100110001001
10111011011111110001100100010010
00111100110111011011011011000011
10111101000010000111100101101101
10111100000111001010010110001111
10111100111101001011001111101100
10111100000001011000010111000111
10111100111000010010001111101000
10111101100010010110011001100100
10111100110011000000110000010100
00111100100111110000100101101010
00111100001100110010111000111111
00111101001011000000101001001000
10111100010011000100011010011101
00111101100001110010000000000100
00111100011010110110110001010010
00111101011100001000000001100101
00111101010000101101110110101010
00111100111100111110001010001001
10111100001000011110110010001011
10111100100000100101001001010001
10111101001001100001101011011101
10111100110001000110101110000110
10111100110100001101000100100100
10111011011001001011100010000001
00111101000010011010010100001000
00111100110000000110001011000001
00111100100101010111011001111011
00111100101011011000101100001000
00111010011011001110011101101111
10111100101100000100100111101011
00111100011101000110010010101000
10111101000101111101100100110010
10111100110001001001100011100111
10111100110011000110111011011011
00111101000000000000011100101000
00111100100011101000101111010111
00111011111011001011110101110101
00111011011111110011110100010010
10111101011110110110011110000001
00111011111001100000100111011000
00111100010011000111110000100001
00111100001000011010001110100110
10111101100100100010100100101010
10111101000011011000110111101100
10111100111010100111001011101100
00111100010010000110010100000010
10111100000001100011101000000100
10111101100101010111111111100011
10111100111001000011101010011100
00111100100000110100111100111110
00111100011111100111111011000111
10111101011100110011011000110101
10111100010111100010001101000110
10111100011010010100011101011001
10111100110010111000100101011101
00111011001010111000111000000010
00111011101001110100111110111111
10111101001100000111101111000000
10111101000011110011010010010111
00111100000101011111100000101011
00111101001101110110101000010100
00111100001101100000110001111100
00111100101110101010110010010100
00111101001101100100000001001110
10111100100101101100101110000100
00111100010100001010001111101011
00111101011110011011010000110111
00111101010000001011010110010001
00111011111001001000011000110001
10111101000000010001011110010011
10111100011110101110101010010011
10111100010111101110110001111110
00111011010001010111111110000110
00111011110110100011111100000100
10111101011111011110100110100011
10111101001001101000011000000110
10111101100101111011100110010110
00111100101011010000110011001011
00111100101100010111100010001011
10111011100000000010011100001111
00111011111010110010111011101111
00111101010000010111000010111001
10111101000100111011100101000111
00111100100101010101110111101100
00111101000100110001101101011001
00111100110100110001000011101001
10111100001100110001111011101110
10111101100000111111011000111010
00111100111110010011000001011111
10111011111000001000000101111100
00111101000111100011010010111101
10111011010110101100000101100100
00111101000010111010011011001001
10111100010001110010100001011100
10111011000100001000100001111011
00111100001001100101001111011111
00111011101011100010000011101011
00111101010000000011001011010101
00111010111101010011000111010110
00111101001000111001101110100110
10111011100001011001111110010111
00111010000101101010110111111010
10111101010001000110001111100011
10111010100111111001010010111011
10111100110000001101110111100101
00111101001101000000111011110011
00111100011110110111110111000111
10111011000001000011000011101110
00111010100000011001000110010010
00111101001001110100010001011010
00111011000010000010110000111000
00111100100101001100100101001010
10111101000001000100111110001110
10111100001110111111001001111101
10111100100010001001111110111011
00111100111001111101000011011001
00111100110111111100101110100111
10111011101101111000001110011101
10111100100111100001000000110000
00111010001100111010010101000001
00111100000101110101010010011001
00111101000010101001011111001001
10111101000111001011111101010010
10111100110101110111101110000111
00111100011110111010000000110000
00111100111001111100001011000001
10111011011100010001110100001000
10111001110010010111001111111011
00111110000110000100110010101001
00111101011011110111001100001011
10111101000010110101110011010110
00111101110010010010111110101010
00111100010000010110100101010010
00111101010100010101001100001000
10111011111111111100111010011100
10111100001111010111001010110001
00111011011110001101110100011111
10111100010100101000010110111001
10111011110111100111011011101101
10111100100101010101011101101001
00111101010100101001100111110100
00111100110011110010110000010100
00111100111011000101011011100010
00111100111110010001100010100111
00111100110110100011011111110010
10111100100101000011100001001011
00111101011101001010000111101000
10111100111001011001010100001010
10111100101010100000101000010111
10111100101010001011001001111111
00111100110101111111110111110110
00111100110010001010011100000100
10111011011111100000110000001101
10111011101010001001011000101001
00111101001010011101011010010010
00111100100111011100000010111110
10111100001111000011111101010101
00111011011010001010101011101101
00111100010010000010001101010101
10111101000110100100111000111111
10111101010110010011111110010000
00111101001111011100010100110111
10111010110111100100111100001000
10111011111100110001010000100111
00111011110100011000000001000110
00111101010001010100110001101100
00111011000000011000110001000101
10111100000001011111110010100001
10111100000100100101001011000100
00111101011001111000100000110001
10111100100101000101010111100110
00111100101011100110011111101010
10111011000111101100011100101001
00111101010101011110110011000000
10111101010100010001001100000010
00111101000100000110111000011100
00111011111001010001010011010011
00111101011001100110100001110100
00111100001110010100011110011001
00111011011010000000001010001000
00111101010101111111001110100100
00111100000000000001110010101000
00111101010110101000010100000000
00111100100010100100010100001100
00111100001110111100111001101100
10111010101000110010010110100011
00111101100100101011001101111000
00111101000010100000001110010101
10111011101111001011110110010011
10111100101001100000110100101100
10111101001001110111111000000011
00111101010010111011001111100100
10111010100010111100111011001101
00111011001101001101110001001101
00111100101011000101111010011001
10111010000011001011000101100000
10111100101101111011100000011011
10111100100001111001111110111010
00111100111010101001111011011000
00111101001011101110111011010100
00111101010100011010000001000111
00111011001011010110111111110011
00111011001011000000001100011101
00111100111010011000000100011001
10111100010010011100101001011110
10111101000000001000000011001000
00111011100010010001101010001011
10111101000100001101010101010000
10111101001111010001111001000110
00111101001110111011000110010001
10111101000110110110011100101010
00111100000000011111111011110101
10111011101010111011010010000001
00111100100010111110111011000100
00111101000001000011000100101000
10111100001100010001100000000000
10111101011010100101010101111111
10111100000011110110011010111000
10111011101000011100000100010011
10111010110101110011101000010000
00111101001010000010001010101001
10111101001111111101001011000110
00111101001011000111000000000000
10111101000100111101110110001101
00111011011110111000101000011011
10111100000110101001100001111101
00111100100010100111101000100010
10111100001011011000100101111000
00111101001100010100001001111100
00111100100111101001000000010010
00111011110000111100101110001111
00111101000001000001011011000111
00111100101000110010111000110101
00111101001100011111110000010110
10111011111001111111110000110100
00111010001110011000011110101000
10111100111100010001101110100100
00111100011010010010100011011111
10111100111110010111011011001100
10111100100011010001110000011011
10111101011001100110100100101101
00111101001000011001101101100010
00111011101011110011110100111010
00111101000000011000100010111100
10111100011010000010100010101000
00111100010011011011111100000010
00111100110000111100111010111110
00111101001100011010000000000100
10111010011000001110101101010110
00111101001100010001101101101001
10111100000001111100000100110000
10111011110011000111111111001100
00111011011000100111110001111000
10111100110011101000010000100110
00111011101011010000100011001011
10111100100001000000100101101101
10111101000011010111001000111111
00111011100011000011011001000100
00111100110000111110111011111001
00111011111110010100010000110010
00111100111101000101111111010000
00111100101000001001010011110001
00111100100010101100001001101010
00111100011111011001111110110000
10111101001100101010011000010101
00111100000111111111111010011011
00111100000001000101100100110011
00111011011101101110110011000110
00111101001001011111111001111110
10111100111001111100100010011110
10111101010010100110001001101101
10111100000110011010111110001101
10111101000001000010000001000011
10111011111011100000110010101001
00111011010100001001000101110011
00111100100111010110010100101101
00111101010101100101000100010110
00111101010011000010111101111101
10111101000110111111100101000000
00111100111000000100110001010000
00111100010000111111011010001101
10111100001010101101101111101011
10111101001011111110010110101111
00111100001110101000010111101111
10111101010110010011101000001110
00111100010000101011000001011100
10111100100101101000101110111001
10111101001010111011110001010001
00111100100101011011110010110001
00111101010000010001111100010101
10111011110111001011010000010111
10111101001011000011101100110101
10111100111110010000110010101100
10111100001001101011100100011011
10111011100101111100000111001101
00111101001000001010101011000110
00111101011010011001101010101011
00111011110000001111110011101001
00111011010100111101010010101010
10111100101110000011011011000011
10111100111011010011010111010000
10111101000110110011110001110010
00111011110010100111011100100010
10111100011101101000100111001110
10111100100010010101000100101000
00111100101101010010011010101111
00111100110101001011100011010101
00111100010000001010010001100001
00111100101110100100110111100010
00111100111100110011111100000110
10111101100011110001000000100011
00111101101010011111111110111001
00111101000010010111010011001101
00111100101101000111101000111101
00111101101010100100011000110111
00111101101001000101010011110110
00111101011010001001101101011001
10111101001010000000100110101000
00111100011101001010110100010110
00111101000001100001011001010001
00111101001011000101001000010010
10111011000111111001010111011101
10111100011001011001101110110010
00111101100010111000101001001101
10111100110101000001001001101101
10111101011001111000000111011101
10111100100000101101000010100111
00111100010110000010000001100101
00111101001010010110010111110111
00111010111001000010001111000011
00111011110100110011000001100110
00111100011100101010101011100101
00111101000000100011011001101111
10111100110011011000011010010111
10111101001010111101101010111110
10111011101111010101011100111001
00111101010101001000101101001011
10111100110111111101010000101100
00111100101010000110000110101111
00111100011100000110101011101111
10111100111111011100010101011100
00111101010110000011010000011011
00111011011110101011000100110111
00111101000010101110011111010100
00111101100101110001111000011100
00111101011010000101111000010111
00111011111110111111110101111100
00111101001001001001100111001101
00111011111010001110100011111001
10111101011111101001100111011000
00111100101101101110000100110101
00111100100000010100101100010110
10111100100100001110011011110000
00111010101001111111100111000100
00111101011111110010110001110001
00111100100100011110110011101110
10111001101011011001010001101001
00111101010000110010000100000010
00111101011100110101010010111101
00111101001011001010010011100101
00111101010001110010111110010011
10111100110000010000100111110011
10111101010100100110010100100111
10111100111110101010101111101110
00111100100011111000111011110011
10111010100100001110101111010010
00111101000000000111001000100111
00111100001010110000110001111001
10111100011111111100010110100011
00111101010011000001011101011000
10111101000110101000000010111010
00111100100101111110110010010011
10111100100100110111100010010111
10111101100011010110111011110010
10111100110111111010100000101010
00111100010011110000111100110000
10111011100111111000001110010110
00111100011000100001100111101010
00111100010000100010010100101000
10111101011011000011110111010000
00111100010010110110111111011001
10111100100110100000010100100111
10111101000110010100000001100110
00111101011101100011111000000110
00111100010101001110000101000101
00111100011010000000101000101010
10111011101100000100000000110100
00111100111100000100100100000001
10111100111011100100100011010101
10111101010011000001011110010101
00111100100100001110110101100000
00111101001010001110010001111010
10111011010111010110011100110010
10111101000000100110000001011101
00111100110001110111000010110011
10111100100011010001110110101000
10111100101110110010000101101111
00111011110001000010010110111101
10111100100010001110011010101001
10111101001110111011100111100101
10111011101001011000001110111111
10111011101010000101000101011110
10111101000010010011001001100010
00111101000010010100001101000001
10111100000001000010000001001100
10111100110110100001001011110011
10111000101010101100100100100100
00111011001000010010100100101101
00111100111101000011010100111000
10111101001111101101001001100100
10111010100001000111010100110000
10111100100011100110110010011111
00111100100111000000011001110000
00111101010011011000001010110110
10111100001111110101001001000001
10111101000000000101000000000010
10111101010001101010101101100110
00111011011000000001111000010110
00111011101010101110101101111101
00111101001111011110111010000100
10111100101111111110001010010011
10111100011000110100000010011110
00111100101010001000100111110001
10111100100010110100100100001001
10111011111111111011110010000111
00111011001001111111111001100101
00111100100001101000111101011001
10111100111101010101010011100111
10111011111100001110110000111100
10111101001101100100000001000101
00111100100100101111100111011111
10111101000100110010110101001111
10111101000000000000011000101101
00111100011110001111101011000010
10111101000101101101111011010100
10111101000100110100100110001111
00111100010000001110001000010110
00111100101010100000000011100000
00111101010100101110001011101100
00111101010001000110000101000010
10111100000111010011011000110010
00111100000001011100110100100011
10111100101101001010110110101111
00111011111000101111111110010011
00111011010110000100000111100010
00111100101001011100001111010110
00111100001000110010000100100110
10111100000000000010111101110110
00111100001100001011101111000010
00111011111010111001110101110001
00111100011111010110001011100111
00111100001111111110100101000111
00111011100111000010110110101100
00111100100001111001110110011111
10111010110010000001000100010010
10111010101100100101100101111101
00111100110010010001101110110010
10111011111110101000010110000110
10111101000011000101100110010110
10111100101011110100110010100001
10111011111011000011101000110110
00111100001100110011100110001001
00111101001110011001010010101010
00111011110111110010101011110111
10111100011110100000100110000100
10111101010100000100000010000100
10111101010011000011111011001011
10111101010101101000100011100111
10111101010011010000001001011101
10111100010110110111011000110110
00111101011011010111010001111001
00111100001101110000010001110001
00111100101011100010100011100010
10111101010101101001110100011110
00111101100001100101001000000111
10111101100010101011100100100110
10111100001100111110110100101110
00111010100110011111001101010001
00111100101011101001101010001110
00111101001001010001100110100110
10111100001100001100101100100110
10111100000111110111001001000110
00111100111011101100001100110101
10111101010100000110000011001100
10111101000111111000001001001011
10111011101100100000100111100100
10111100100110100000111100101111
10111100110111100000101011010101
00111101010100010001000001010000
10111100101111011001000001010101
00111101010111101010001111100111
10111100110000100010100001011110
10111100000111111000111001000111
10111100010110011010101001011100
10111101001100111011101010101001
00111100010000000110111101111101
00111100101101110100001010100010
00111100110100100001010011000101
00111100001000110101111110010110
10111100010100001000011110010010
00111011110110000110110110011000
10111100100101110001111001110001
00111001110101011110010011011000
00111101001100110011110111001110
00111101011111010100110001111110
00111101011010010000010100101011
00111100100110010100011001000001
00111100000010011110100111001110
00111010000111010100011110110111
10111011111010101110011111000001
10111100100111011011010111000110
10111101000111101001011110000010
10111101101000010110010110111001
10111101100010001110011110000110
10111101000101010010100001000001
10111100101011111110011101011101
10111100010111100110100111011110
10111101001000101000000100001000
00111101001101100001101110001110
00111011110001010100100100101101
10111011011000000010010100000110
00111101000000110110100011100110
10111100111111111101110111100111
10111100100010011001111111010101
00111100101000001100000111011010
10111101000110001010011111000101
10111100111010110101010011011101
00111101001100101001101101000110
10111100000001101111101010110110
10111100110001000101111111000010
10111100111010001001110010111111
10111101001001010011110110110000
10111101001111010100100001010110
10111010101111001111001100111110
10111101001011110111000000110110
10111100001100001000000001101011
00111101001000110101001101101001
10111101001010010011011000101000
00111101001011001110101110100010
10111100100110011010110010100010
00111100110010111100111111101110
00111101100001010010101101011100
10111101001101111101010001010101
00111100101010101111110110001010
00111101001001010110000110100001
00111101100101011001101010000000
00111101000000010000001111101000
10111100100100101011101110000101
00111100010110101111110101111101
10111100110101100011001010111000
00111101001001000100100011011111
10111100101011001101000111001000
10111100110000010010111111101000
10111101000001111000100010001111
10111010001101010110101101101100
10111100001000001101010000011100
10111010011111000100001011100110
00111100100010101100100111001110
00111011111000001001110100100000
10111101010111010110101001111100
00111101001000111110011001111110
10111100000011000001001111010000
00111101011100001110010101101100
00111101100101101000111010000101
10111011110000100101010100010100
10111101000001111101100010010010
00111100010000010100000001111011
00111101000110000110000101100000
10111100111111111010100101110011
00111100001000000001110011100001
10111100110000011101011101001110
00111101011110000110001010000100
00111101010011110100100110100100
00111100111111001100101110001111
10111011110101100110001111011001
00111101000110101110000001010110
10111100100010011111010101010101
10111101100011000000100010001001
10111100100110111100101100101011
10111101001111110111101001011000
10111100110111101111011001111000
00111100010100001110011111010010
00111100110101110010000000010011
00111010001111110111111101010001
10111011001111100001110001001111
10111100110100101100010111100111
10111100000110100001101011010011
10111011100011100011000001011010
00111101001001011101111010000000
00111011010010100001110001111011
00111100001000010000000110101100
00111101000111010101110110101000
00111100100100111001010101111111
10111100101111000110101001110101
10111100111110000011001010011110
10111101001001011101101011011110
00111100100111001011110111110011
10111101000000110000001011100100
10111101011001110001111010000000
10111101100010100011011000010011
00111100000001011110111001001100
10111100101100011011100110111111
00111011100011110101111110000110
00111101000111011011011001110100
10111101011000010100100011001101
10111100100101100101100011000001
00111101000000100011010001010001
10111101010101011000011110000010
00111100101011001011111000111010
00111100011111101011010100110101
10111100110001010110000001110101
00111100011000110110000111110110
00111100011110110011100001010110
10111011000111001110000111110011
10111100111011111110000111010101
00111100100010111000111101110011
00111101000010111100111010111000
00111101000100110001101101011001
00111101100001010000110001101110
10111100011111001011110010111010
00111100100111101001110101111001
10111100111101000111101011111100
10111100011110111101101001100110
10111100100110010010111101010011
00111011111110011100110110101010
10111100001101010000100110101111
10111100001110111010100111001101
00111100110100110110111000001000
00111101010011110001100000111110
10111100100100100110110100011010
10111100010110010110101101010000
10111101100000010011111001000011
10111011111010100011110111101110
00111011110010111110010010001000
00111100101000011010010111100011
00111101010001010101001101100110
00111100000011010001101101110010
00111101011000010111101000111010
10111011110000011001011000001111
10111101000100100001100101100111
00111100011000001010010010101101
10111011100111001101010101110010
00111101011111001000001111111001
00111100100001001010000001001100
00111101001100111101101101010011
10111101100001000001100110110001
00111100100001011110001000000011
00111100011000011110010011111111
10111101100110111011101101001101
00111011010001011010110110100001
10111101010110100110011000011100
10111101101011110011010011110101
10111100011001001111000001100000
00111101000111000110001011011100
00111100001011100011111011101101
00111101011100110000100100101010
10111100110100110010011101111011
10111100111111001011000001010111
10111101011011001011100100011100
00111011110101100010011110010001
00111100001000010000011110110001
10111100011000000001011010000111
