00111100101101100010100110011011
00111100010011010001101110111001
10111001010010110100110000001101
10111010000100110101000101101101
00111100111001010100110010010111
10111101101010010010010110110000
00111100011010110000010000011101
00111101010110000011111001010000
00111011101110000001110101110000
10111011101000001010100010110110
00111100100010100101011011100101
00111101000111001001000000101010
00111101011011100001000101100110
00111100100011101011011000100111
00111100110111001100010001000000
10111101010010000100100010011100
00111011010010001000100011100110
10111100101110101111001100100101
10111101001000011000111101010000
00111101001111111110001100101000
10111101011101011011100000011001
00111100010011101110011100011111
10111100110001101001010100000101
10111101000101101100101001101011
10111100011100010110111110001111
10111100000101010011111010000010
10111100000011100110100110101000
10111100101110101011100000011101
00111011101101000101001100100110
00111100000101000100110010011011
00111101001010000011111110100111
10111100101001100001011110101100
10111100000011101111111111001010
10111100101000000111010100100011
10111100100101101011110101110100
10111101000100011000100100111111
00111100000111101111011100111110
10111100001000111011101110110011
10111101000101010111110111111000
10111101001001111110101001011101
10111100110101010011100010100011
00111101000000011000100110011011
10111101000001000111001001000011
10111100111111100110010001111110
00111001111011011101000010001100
10111101001110001001111111110100
10111101001000100111101100111110
00111101000110001111010010001111
10111101011001011111101000110110
00111101010100110110110001000110
00111011001000011111000100001110
10111011101000101100100110001101
00111100011001100001000100000010
00111101001001100000010001001100
00111101000100101100100101110111
00111101011010100100010001011010
10111010100011001010100110111011
00111100010000100100110010000010
10111100011001001111011100101000
10111100101000110011100110101000
10111100111101111011111110101001
10111010001100001000111010000110
00111101001000101001011101110100
10111100000101011100111111101010
00111101000111001000000111000110
00111100110101001010111110111010
10111101000001010101110001101101
10111101000010111110101010111011
10111101011100010101110100100100
10111100011110001110001111101111
10111100001111000001001110110101
10111100010011001111111111000110
10111011000100010001100000110001
10111101011110001101111100100110
00111101011000100110000010101001
10111011011001100111000011101100
10111101100101001001010111010111
10111010101010001000000000000001
10111100101001011101111111000010
10111100110001111010111111100100
00111011111001011001101010001110
00111100110101111101111000101111
00111100001100101100000011100111
00111100101110010001110001101111
00111001010100110001000011100000
10111100001111000101000110101110
10111101010111011000011111101110
10111100110001101001100100101100
00111101100000101011000010001010
10111101001011001001110000000110
10111100010001011101101001001101
00111100100000110100000001010111
10111011100000110010101000110101
10111101100001110011010010100110
10111100101001101011101000101110
00111100101000101100100100011011
10111100000101111101110101010000
00111011110100100010011111110110
00111100111101111100011001001010
00111100101100101101000001000110
00111100101000010100010100110001
00111100000100011010111000011110
10111100110110000001100011100011
00111101010001001101000101010011
10111100001010100100101111000100
10111101000001110101001100101111
00111101100111000010011010101110
00111100110001011101000010001101
00111101000001101101011100001011
00111011110001011111111100011110
10111010111000110100001001111111
00111100100010101010010111111101
00111100101000100110010011010011
10111101011000001010010001001100
10111101010110110100101010100000
00111100100101100111000100101001
10111100100001000110101110101000
10111101000101000000110110100001
10111100111101100001011011111001
10111101110011011000011100010000
00111011011001010011110110110101
00111101000000011001010010001010
10111100100100101010111010100100
10111100100001000100100101100001
10111100011100011010010001010100
10111100111100101111100111000000
10111100111110101100110101011010
00111011101011001110101100111000
00111100101010110010011100000111
10111101010111110100001000101010
00111011101001001110111100111111
10111101010100000101001110010100
10111010011011101111100000000110
10111100011001100011101000010001
10111101001111111110110111010101
00111100001111110010101101110100
00111100101100011011000110100011
10111100001010001100111101111111
00111101010011001000101011010011
10111100111001101001101101110100
10111100011111000111101110101000
00111101000010110111010000110010
00111101000000000101000110000010
10111100010101010100101110011010
10111011011100110000111010011101
10111101001010110000100101101111
00111011100111011001111110010101
00111011100011000011111001010011
10111100010110000001100101110111
10111100100100010000011100001001
10111101011010010101100000110110
10111100001010111110110101110000
10111100000010000110101010001110
00111101100001000011001010000000
00111100101101110110001000111100
10111100100001001110101010001011
10111100010011010011000000100000
10111101001001001101010011011011
10111100100100011000111100011101
00111100100010001010010111111100
00111011101010110111111101000110
00111010111001110010011110000000
00111101000010000010010000011101
10111010110110101001000100010000
00111101101101000001101000010010
00111100010101000001111011110100
10111100101011100101001001110100
00111100101011000000001011000101
10111100111110101110111110001110
10111101010011100110111100001011
10111101100110001100111100000111
00111101000101000101000101100010
00111100011111111111001000001001
00111101101001100001011111100110
10111100110111100000001101100101
10111101010001110111011010111010
10111100101010100101000100100111
10111011101100000000010000001110
10111011110011010110100010100011
00111101100100100000101101100101
10111100010111111101100001001101
10111101010000011110001010000101
00111100110001000001100100010000
10111101010011000101000111001000
10111100010010111001100011111101
00111100111001001001011000111011
00111100101110001001111110100111
10111101100101000001000101111010
00111101000100011100000110110111
10111011111101101000111110000010
10111100000101101001101001001001
10111100111100111110111100000011
10111101000110111000110010000001
00111100101100101001011011111101
00111100010001101001101101100110
10111101011010100010101001000111
00111101000101011011011011110101
00111100111000010011100100110100
00111011001110111111101011111100
00111011000000010101000000111100
00111100110100011010110111010101
00111101001101000101000101101101
10111011101011001110000000101000
10111101100001000111101111011100
00111101000010011111010110110101
00111100100101101111000000011011
10111101001011010001001000110111
10111101000001010111111110001110
00111100101111101001100011011111
00111101100001010101100111010111
00111101000110010100010101110110
10111101100000111101010000001110
10111011011010100100001010100110
10111101001111000011000000111000
00111100000011011110000011000011
00111011100011111110011010000010
00111101011001000110000001110111
10111100111100100101100111100011
00111011000011000111001110111110
00111100101110101010011110011110
00111101100001011001010001100000
00111101000010001110010011110110
10111100100011100110001010100000
10111100110100101001000010011100
10111011001011001101100000100101
10111100100000010000010101010101
00111101010000111100101000000011
00111011110110011010110110111111
00111100101010001100011110111001
00111100000101101001000110110001
00111100110001110111001010011001
10111011001111111001000011100010
10111100101101101010001101110101
10111011000010100100110011000101
10111011110111010000100101101011
10111100100100001011110000000111
00111101001010010101110101101100
00111100001110101101010001001100
10111101000001001000000001101000
10111011100011100101010110100011
00111101001011001101010111011111
10111101011101011000000101000110
00111100011111000111001011111001
10111100101000010110100011010100
00111101001001000011110001011101
00111100110001111011001101101010
00111100010010011010001000101001
00111100010010001001111001001010
00111010111001000110001101101111
10111101001100011000000010100011
00111100111001101101001010000101
00111100101010001101010011010001
10111011111000101010010100110001
10111100101011110101111110101010
10111011011001001101110001101110
00111100101101001110011000111001
00111100100010000111000100110001
10111101001111101100111111100001
10111101010000000111111101111111
00111100110000011011010110100010
10111100101010111111111000100100
10111011111011110100111101011100
10111100101100001101010100101000
00111100100011100100000100000011
00111101000001101100010011011001
10111100101001110110000100101111
00111100111010010110101001101110
10111100010001011000001100001111
00111101010101010100011001100000
00111101001001000000100111111110
10111101001110011011001100000110
10111100101111101110111010100110
10111100101001100000000100100111
10111101011101000000100101111010
10111011110101101111001101100111
00111101011100100000000011000000
10111101010101101000100110100101
10111100101010010011011001010100
10111101001001100000011110110111
10111101010110101011011010001110
10111100001010001111101100110001
00111100000011110110010011111001
10111101100001001101100010011100
10111101011000001001110000100010
10111100111110001110000001001010
10111101100010000111011100111111
10111101010010100011110101101110
00111100110101011110101101111011
10111100100010001000100000101010
00111100100000110000001000100110
10111100100111110010010110111101
00111101010010101010001101001001
00111010110111010110100000010000
10111101010111010011111010001100
10111011100001011010101100010110
00111100001001001111111011110010
00111100001101110111111011011000
10111101000001000001100110111111
10111101001000100111011001001110
10111100000100011100100010000100
00111100111001000111100011100000
10111011101101110100000111100101
00111101011011001010011010011111
00111100111000000011100010000001
10111011110100000111000000100100
00111100101110111101110100010111
00111100110001110101111001101101
10111101001011101001101010000111
10111101010111010000000000001011
10111101001011011000110111010001
00111101000111100001110001010001
00111100001111010011000100101011
10111100000100100011110011111100
10111100000000001110101000111011
10111100101010101000111111100000
00111100101101011111011001010110
10111011101010101001001110000000
10111100111010100111100011110111
00111100001011011001000010111011
10111101001111101000010010110011
10111100110010011000101000000111
00111100101101101101001110000110
00111100001001000111110001111001
10111011111101111111110010101010
10111101011010101001110100100001
00111101010111001101111001100011
00111101000100000110011110011110
10111101001100001111011010110001
10111011011111000011100000100110
10111101010000011010111000101011
10111100101011110011010101011100
10111101000111000100000011010010
00111100001110100010100111010111
00111101100000000011111000010100
00111100100001000100010110000001
00111101001011110000000010000110
00111100011111111000111000010001
00111100111100110001110001011001
10111100101100101100010100101110
10111101011100101010000001101101
00111011001011010110010110110010
10111101011010010111011110111001
10111010111100000001110001000110
10111100011001010010011011001000
10111011001011010101010110010001
10111101010110010001101011001000
00111100011111110000000010110110
00111101000101011010000100110010
00111101001011110011000100010101
10111101001111001110001001111111
00111100010011101110101101000001
10111100000010000001010010011110
00111100100000010011011100001010
00111011110110001010000010100010
10111101001101110011011000111111
10111100101111011010010100101000
00111100010010000101011111110011
10111100100000100000011100000010
00111100000011011000010100000011
00111100111000011011111111101111
10111100100001010101001111100101
10111100000100111100111111011010
10111100101110000000011000010000
00111011110110100010001000010111
10111011000001100111101001011100
10111100110100110011000111011000
00111100100000111101101000110000
00111101000111100110010001011101
00111100000011010000011111110111
00111101001111001100100000101100
00111100100100010010010100001000
00111100110001110010000100111101
10111100011001111000000110011001
00111100010010101101101010100100
10111100011011100110111001010011
10111011011010111111101001100111
10111101000011001111101001000101
10111101010111010001100001110001
00111100110110101010101011101110
10111011110110000110110011000010
10111100101010110111100001101111
00111001001011111011101111100011
10111100011000000101010001000001
10111101001110100001000100111010
00111011100111110110110111110100
00111011011010110110011010100111
10111101001000010010010100111110
10111011101111000101000010000100
00111101000110001010000011100110
10111100100111000001100101010000
10111101100010111000010101101001
10111101010001010001000100101110
10111101100011000110000000001111
10111010100001011010100110001100
10111101000111011101000010100110
10111100100110110111110001011111
00111101000111010000011101111110
10111100100010110110110011000111
00111010100010010001111010011110
10111100000111011001000001110101
10111100100110111001111000011111
00111101100011101110111111001101
00111101000011111111001100101111
10111101100000100011011111011110
10111101010101001111100011010101
00111100111011101011010001101101
00111101001001000101001000101110
00111011110111011001100101001001
10111100011000101000100110001110
10111100101101100100010000110000
00111010001001100100110100001010
00111100011111111111110110000101
10111100010001111000111011110100
10111011100100000110101011000100
10111100111111000000000010001101
10111100111110011100100100000000
00111101100000011000110100000110
10111100011101100000000001111001
10111101100011011100100110010101
00111100100000001101111010100101
00111100110111110001001000001011
10111011010010001010111000000110
00111101000110010110100101110110
10111100101010101001110010111111
00111100100110011101010011110110
10111100110010100101110001111111
00111100110100000100010001110000
10111101011100000110101001001000
00111011110001001010001111010000
00111100101110100111111110001010
10111100100011011010101101010011
00111101001101111110110001011110
00111101010001101001011110001010
00111101010010100011101001000011
00111100001000100010000100111101
00111101010001111010000111001001
10111100100111110001111000000110
10111011011111010111100101101001
10111100010110001001000011100111
10111100100100110010011111010100
00111011111010010101010111100000
10111100010100101011011101011001
10111100110010110001100000011001
10111101000000011010100000011011
10111100000100011000000111110000
10111101000011111000001101001010
10111101010111101110000111110100
10111101000011000101011001100110
10111011110110100011010000110101
00111011101000110000001110100110
10111100101001011000000001100111
00111101000011000111111100011010
00111100101110110011001101000111
00111100110001101111111001101101
00111101010001001001101100011010
10111100111000010100101011111101
10111011110010001011011011011100
00111101000000101111001110100001
00111100101001110100000111011011
00111101010111000000001000000100
00111101000110011001110010011011
00111100100011101011001011111101
00111101000001000111111001011010
00111101010100100011011000000001
10111101010000001111110000100100
00111100101010000100011000100101
00111101011000001111111110100101
10111100000011110011111111100111
10111100011010110100111100100100
10111100110111111100010110100011
00111100100101010110101110011100
10111101010010100100111010111000
00111100011001100000010010100100
10111100100111111111101010000001
00111101000011011001011111000011
00111100110101101001010000011111
10111100100000100001110101101101
10111100000101001000111001111001
00111100101011101100101101010111
00111100000100010110010111001000
10111100010001111001011001111101
10111100110110101011010000100001
10111101011001110001010000010011
00111100100100110100100110001100
10111100101101001110101110010110
10111101000111001100000111011010
00111100010100010000001011101101
00111100010000101011010111001010
10111011010110100100010010110010
10111011100110010010100111111100
00111101011000010111010000010010
10111101010010000010001011110100
10111101011101011100110000001010
00111100000110110011111010001010
00111011101100001001010100111011
00111100000010000110101010110101
00111100111001101001100111000011
00111101100001111100111011101000
00111101011000100000010011101111
10111101001100111100111100111011
00111100010011001111101100110111
10111101000010010111001111011101
00111011110110100101000110000110
00111100000011001001101110011110
10111101001011111011111111001101
00111000111000101110110001000111
10111100111110101000100001010100
00111101000101010100001000010010
10111101000110111011011110000010
10111100101100000001011001101010
10111100001010100011101000111010
00111101001010110000111000011001
10111011000010101101000010101000
00111101000001110011010010101100
10111101011101101110010011110011
00111100101110110110001100000101
10111011000110100111001110001111
00111100111101101010000011110011
00111101011011011001001001111101
10111101001000100111110100100010
00111100000101101110011110100001
10111100010010000010100010011000
10111101001100111001101101110101
10111101010111110110001110011111
10111100111011001011100101101110
10111101010000110001111010000010
10111011111111101011111011101101
10111101000010001010111101010010
00111010000011000111011001010101
10111101100000001111110100001111
10111101001010100000001110101111
10111100100000110100111000000000
00111101100011011110011100111101
00111100111011110111010001100010
00111100100001001010110110100111
00111011110000110111111001111111
00111101010101001111110011111100
00111100110110010000001001010011
10111100000110100011100101000010
00111100001010111111000101001010
00111101000010111000111011010100
00111101011101111101110001001110
10111100111011000111101001001110
00111101010000010000001011001010
00111101011101001001001100110110
10111100010001101001110000110011
00111101000010110101110110101110
00111101000101100110000100110001
10111100000101011011110001000010
10111101100011100100100101100111
10111101100010111001100101000000
00111101011111100101001101111010
10111011100000110111010101110000
00111011010100010000110111101011
00111101001010001010001110101001
10111100110101110011100010001101
10111100111001110010010011101011
00111100000111101100010100011110
10111101011100001101110001010001
10111100000110010100101101100000
00111100101001010000010101101001
10111101100000010101100101010001
10111101001111000101110000101111
00111100011100010010000100100000
00111100101101001100110001010111
10111100000001110001101000110111
10111101011011101110111110001111
00111100101011110111100001000110
00111011110011101011000110001101
10111100011001100101001010100100
10111101001110000101100101101010
10111101000011101101010010100011
10111101001101001000010110001100
00111100001111111011110101111110
00111100001100110010110011110011
10111011100001000011110100001001
00111100011110101101011100000100
00111100011110110001100110100010
10111101000000010100101001011000
10111101000111100001111010010000
00111101000001000101110110110000
10111011111100110010111011010100
10111100101111111001100110100101
10111100110001111011110110101111
00111101011001001000111000110110
10111100111111101101110010100110
00111100100011001000101101110000
10111101010001110111110101011001
10111100111100011000110011001001
10111100010001111111010000110111
00111101010011000010010010010101
00111101000100100001111011001001
10111100001111101011010100100001
00111100101110011011010011001100
00111100110010111001011011011110
10111101001101101110100011110001
00111100111101111110100101100111
00111100010000011101110111110010
10111101000000110011111111111001
10111101010011101010001111101001
10111100100101110111110010111111
10111100100100011111001011100001
10111100101011010000000101000110
10111100000010010101011111001101
10111100000100101010011110111101
10111101100010111110001000010101
00111101001010011000001011010010
10111011010110010110111111101100
00111100100110000000100110100001
10111100010110110010000110111011
10111011101100111110100100111010
10111011100000010101100111111110
00111100100101001010001011101001
10111101100001010101111001010101
10111101011101111011000110001010
10111101000100010001110011111000
00111100000110000100000111111011
10111100110100100101100011100011
00111100111001111011010010100010
00111100100110111011110001111001
10111101010011111000010011001101
10111101010101001000100001001010
00111101011100010100101000101110
10111101001011110001000011000100
10111101100010101100010011100101
10111101001111010110101000101001
00111011111101010000110000010001
00111100100111101110001100101110
00111101010110010100101101111011
00111100100001101001101101010011
00111011101001110101101110011000
10111100111101010011001011101000
00111101000010100101001100010111
10111100001110010100010001001110
10111100010101010010011110000001
10111011100010010110111110100011
10111101011010110110100000011101
10111100011101101000110111110101
00111101000110000010011100010100
00111101000101001011001101101010
00111100111110010111110101001111
00111101110001101100100000111000
00111101001101001000011110101011
10111101000001101100000010010110
00111011101111100111011110100110
10111100001011111000111100111100
00111100111100111111010101000011
10111101101111001110100000111001
00111101000111011010010110111010
00111100111100100100011010010000
00111100011010110111000101011110
00111011011101101100010110100111
00111010111111011111100010011100
00111011001000010110000111110110
10111101000000010111010111101011
10111100010111101110110110011001
00111100110110111101100000000001
00111101010011100001000110000010
10111100111011111000001101011011
10111100000000001101001101110100
10111100111001101010100100101110
10111101011010110111010000011100
00111100111011110100000011001000
00111100100110110101011101000000
00111011101111000010010000111010
00111010100011011000000000010101
00111100110101101000110011011111
00111011100011000110111101001101
00111101010010001011110111010100
00111100101010001011000001111101
00111100111100100001010011001010
10111101001111111001101110101100
00111100101010101111010101100101
00111100001010010001100010001110
10111100111011001010000111111111
10111011101111001111101010100100
00111010100100011101101001111110
00111100000000111100110001001101
00111100110001001100010011011111
00111101011111000110101101010101
10111100101110001000000110101001
00111011000111000111010001111111
10111101001000111000011111100000
10111101010100010101110001001001
10111101001010111111011011101100
00111100010011000001011100010011
00111100011110101101000011011011
10111101000010001100111101101001
00111101010000000111100010110011
10111100110100001100101101011010
00111100101001010010111000001010
10111001001100100011010000101011
00111100100100010001111111001101
10111101010001101111111000000010
10111101010111001011111101111100
10111101011010101111101000011010
10111100100101011000001001100111
10111100101000110111000001010111
10111101001111001111001111010100
00111100110000010000101111111010
00111011111011111011100110000111
00111010111111100001010110110000
10111101001100000100110000011000
10111101100011110101010111100101
00111101100101111010010010110100
10111101010011101111011110000110
10111100110111001010111100111111
00111011100100001000000110100000
00111011011111000001001011110010
00111100011010000110111110010011
10111101100100010011001101010011
00111011101001011010110010001010
10111100011111000110011011111010
00111101000110000111101000111001
10111011010000111100101011010011
00111101010000001011001101100011
10111101010011110011111011000011
10111101000111110011011111110011
10111100011000001001111000010001
10111011111100000011110111010010
10111100001000101000111111110110
10111101010100110001000110111011
00111101001101000101110001111110
00111100110101101111011010101011
10111101101000100001101011111110
10111100101000011000011100100011
10111010100001011010010101101111
10111101100101101001110111100001
10111101011001111000011011000011
00111100110000110011001000110000
10111100100001011100101001011001
00111100110011000001000001111101
10111100000101011110001111011011
00111100100110010110011011101110
00111101000111001111101010001000
00111100101011100100011111000101
00111100010001000000001000000100
10111100111110001101111101101000
00111101000110010101001111101001
10111101001010000001111011010011
00111101000110100101100100101011
00111011010110010111001110011011
10111101011010000110011111010111
10111101010011011001010011011000
10111011111111010110011010100100
10111001101110100011100000101110
00111011101011110101110110011110
00111100110111100110101111111101
10111101000100011000011011101001
10111100110101000010101111101010
00111100011111110001001001000110
10111010100000011111101001100001
10111100101010001000101010110110
00111101010110101111110011001111
00111100101100101000000011100101
10111101001001110111000101010100
10111010111000100110100011100000
10111100111000000110101011000110
10111101000000111010011011101100
10111011101010001000001010110110
00111100001000000000010101010101
10111100010101110110101101100000
00111011110100010110110011011001
00111101010001001010110111011011
10111100000111101101111101101010
00111101001100100100100000100010
00111100011100010010011001100010
00111100011010010001001110110010
00111100100111110001110010110010
10111100000110011100100110101000
10111101001110101110101100110100
10111101011110101001011000000110
10111100100001111101001011110110
10111100100101110011011011111111
10111101001111110110011111011100
10111100011001010011001110100110
00111100100100000111100110011101
10111100110100011011110100101111
10111100101000101101010001010111
10111101000100100010110101101101
00111100011101110000101010100100
10111101100101010100101111110010
00111100111011111000111100000010
00111100110110011111000000111111
00111100100011010000001100010111
00111100111100011100100111000001
10111100001010110111010111100111
00111100111111001100101101110110
10111101010100010111101100001000
00111100011101101110011111111111
10111100010010010001100111001101
00111101000001101101000000000010
10111101001100110011001101001011
10111100100001001010100011010111
10111100100011001111001100001011
10111100000110111010101100110000
10111100011011101110101011100001
00111100000110011010010011111111
00111101000000110111010111111111
00111100111100101101100000000001
10111011010000101001010000100011
10111100010100010101100101001111
10111101010101110110100110111101
10111011011110000001101101001010
00111101001101111010110001010000
00111101000010111011110111000000
00111100001100000111011000110101
10111010101100001101000101001100
10111100100011001110010101011001
00111011001000101011101101111110
00111100100110110010110000001101
00111101011001111111011010111101
00111101010000001100011100011001
10111101010000100000011110001110
00111101000100010110000001111101
10111011001010010101101000010010
00111100100111100011101001000101
10111101100100001000011100011010
10111011101001011010101001110111
10111101000010100010111010110101
00111100110100000011110010001011
10111101000100100000010100010011
10111100110100101011010110000111
10111100101110011100110011100000
10111011100111101000111001101011
10111010100011001001101000100010
10111100111011011101000010010100
00111100101111011001011100101110
00111011101000001001000101000010
00111100110000000000010001111000
00111101000110011001111011010010
00111100101100111010011101000000
00111101000000000110111111000000
00111011111001101111010010011001
10111100111011101111101111111110
00111101001000000110010010100001
00111101001111110000000101100010
00111100100010100110000110111011
10111100110011010100111010010010
00111101000010100000110101100001
00111101010100111111001100010011
00111100110100001011010101011011
00111100001001100110100101100100
10111100010000101001111010011001
00111101001100000111010000100000
00111101100111111111010100001100
00111101001001001000001000011100
00111011010101110010011100111100
10111100110110110100010111010011
10111101000101111010001101001000
10111101001101010101101011000111
10111100100000011100100010010010
00111100001111011110101111011001
10111100111000101110100000111000
10111101000100110111100001010100
00111100101001011101001110010011
10111100001100110010000010111000
00111011000011000101000000010011
10111101000100110011001101010111
10111101000010011001100111011110
00111101001000000110010000011010
10111101001010111001010100000010
00111101010011101111010100100111
00111101000001110000111010110000
00111100101001010110011010000010
00111101000100110011100001111101
00111101010000011110101110101011
10111100011011101001011011111001
00111100010011110101011111000110
10111100000110011111001110011010
00111100100111001011110111110011
10111100111001000100011001011101
00111100110101101001001001011010
10111101000001110000100111000011
00111101001001000100010010000010
10111101000100011010111101010011
10111101000000101010000000000100
00111101010010000010000110111110
10111010100110011110111000100111
10111100010100011001010011100100
10111100101011100101001111100100
10111100000011010001000101011111
00111100000010110101001001101000
00111010101110000001111010001111
00111100101101000010001000010000
10111100111001000101111111110000
00111100110011100101011011010101
00111011101001001011010001111101
10111100111100110000011100010100
10111101001111101000101110010001
00111100000111110010100000100100
00111100011111111111110110111111
00111101001010011110000010100101
00111100011010111001110000110111
10111101001010010011000100010010
10111100011010011011010111110000
10111011000010011000100000000110
00111011110111110110011110101000
10111101010101010001100100011110
00111100110000111000001101001011
10111100001111111010101010010000
10111101000111011011011010000100
10111101001011111000011100101101
10111101000100100110000101111011
00111100010010110010001010110111
10111101100101101010111000011101
00111101000010001101011111111110
10111100110010011101000111101001
00111101010110001011000001010101
10111100101001010001101000010010
00111100011101001000100011111110
10111100100011100101011000010000
10111100110110101000101011010001
00111100101011010100000111011000
00111011000101111000000111010010
10111011111000100010010011110111
10111100100010110101101110010110
00111100110110110101100111111001
00111100111111100000110110001000
10111100111000111011010111011000
00111101001000000110000000101110
00111100100011111111100000111011
00111100101001011100001011100100
10111101000000111001001000011010
10111101001010000011110001011110
10111000100101010101000001101010
00111101000110011100110000010011
00111100000001100000010111010000
10111101101111001111111100001001
00111101001111100101011010101000
00111100000100010001110100101100
10111101001001111110101011101010
00111100010000010101100011100011
00111100100011110101110111110100
00111101001101011101101010010011
10111100101101001110001001010011
00111100101100000101010011001001
00111100011011101000110001111001
10111010100011111011110010001111
10111101010111101001110101110110
10111011001110100001100101101100
00111100100101011001000101100010
00111100001111000001011011110101
10111101000101011000000101101010
10111101001001001100110101000100
00111101100000010000001000100110
10111100101011101011110110111111
00111100001111111000101000000011
10111100100010100101001010000100
10111101010001000010011100100010
10111101000010001101111001000000
10111100111000001000101001000100
00111100111011001101111100111100
10111101010100011001011111000110
00111100110101010111011111011100
00111011011010010011011100001010
10111010101110100101001111110100
10111011100001111010111001011100
00111100011011110101010001011110
00111101001101011100011000111101
10111010000100110001110100101111
00111100101100010001100011100111
00111100101010100000010001010011
00111101010101101100111111001111
10111100101110111011010111001101
10111011000010010100001110111101
10111101001000101110010000001011
00111011001001110100100011100010
10111100101100101101111010110101
10111011111011110100100110000000
00111011100111010111010001001000
00111101000000001100000111100111
00111100111100111111010110111011
00111100100110110010110000100011
10111101100011010100000011011101
10111011000001110001010001100111
10111101000111000111111111001000
00111100101111101101001010001101
10111100110111100010001010001100
00111010010101100010101110000101
10111100101010110000011110110111
00111010111000011111011000001111
00111101001010001101001010001011
10111101011000100000000101101101
00111101011010000011000111110110
10111100110100001110101101100110
10111010101011111110000011000000
10111001101111100110010001001001
10111011100100011110010000100010
10111100011010011001100100110001
10111100010101100111111110101110
00111100000111000000001100110010
00111010110001011100110110001110
10111101100010100100001100111101
00111011101011011000010110100001
00111011110001110000001000010000
10111100110001001011011001001000
10111101000111010000110111001100
10111101000101011101000100111000
10111101010011111001111011100010
10111101001010110011111110001001
10111100101010110001101101101110
00111100101100001100110111000001
00111100100000100001011001100111
00111101111011001100000111000110
10111101001100000001001100010110
00111101101011100011111001101100
00111101011000000101011101000011
10111100001010010110011101011101
10111001010101101110100111100010
10111100001011000111101001011011
00111101000000110111000101001001
00111100110111001110111111110111
10111100000000100101100011101100
00111011000000011111101100011000
10111101011011011000110101011101
00111100111001011010001001100100
00111100101111110101101011110100
00111101001001111110101011110110
00111101001100110110001110001010
00111011110100001011101101001101
10111100110101111001111110000011
10111011010000000011001000100001
10111011101010010110010001011010
10111101010100000000010111111001
00111100110000111100011000001101
00111100100111100001110111111101
10111100010011001011100010001011
10111101001110010101010011101010
00111100100000101011011111011010
00111010000000010010110110000010
00111101010011001001111100010010
10111101000010000000000101011000
10111101000110010010101101100010
10111101001001101110011110010011
10111101010110000110011111011101
10111100011000111010101011011111
10111011010111010010111101111111
00111100010110111110100101001000
10111101010001001100001000110011
00111100110100010011110101011011
00111010101111011100111011000100
10111101001111110001010000100101
00111101000100011101110001101111
00111101011101111101010100101011
10111100110011001011111010011100
00111101001101010100010110110001
10111100110100101111101011010100
00111101011000100001010100110100
00111101010111101101101001101010
00111101010110100011010001110001
10111101100100011011010101100000
00111101010110100010110001010110
10111100001010110110010100100100
00111101100101001001111000100101
00111101001011011011110000010101
10111101010000001010101111010010
00111010001010011100100010110101
00111100100000010011111101100000
00111011111010111011010000010111
10111101011111111011011100001011
10111100110110110010011100101011
10111101010101011010000010001110
00111101000000011000011010110110
00111100110101001011010100001100
00111101100001001101100111100100
10111100000010101100001111111110
00111100000110100100100010001011
00111100010000000011111001101001
00111100010000101011011011011000
00111100110101111000000111011110
00111100110110001010000101011001
00111101000000001010011011001000
10111100011001111111001011111010
00111100110000001011001001000001
00111101011101110001101000010001
00111011000000001010001011100011
10111101000100101000111001011001
00111101000000101110011110010011
00111100001110111100000011011010
10111100001000110000111011101001
00111100000011001110111111001110
10111101000101010010010001111101
10111101001101100011011000110010
10111100010101111011000110101111
10111100010101100011011000000100
10111010111100011111100100000100
10111100101001000100101100100010
10111101001011110111100011110110
10111100100110010100000001101100
10111101010101100011101101001001
00111100101000111000100111000001
10111101000100001111101101101111
00111011010011110101100011110011
10111100110001000111011110000110
10111100100100100110010000111001
10111101101000001011011010111100
10111100001110100110001000111010
00111100110111011111011011011111
00111100001010001000111001100100
00111101010011100110001000101111
10111101010101110000010100001111
00111100110011100111001000100110
10111011001110111110011110111111
10111101000110000101110011101110
10111011100000100010010001100100
10111101010011010001000010110111
00111011100010101000011010111100
00111011000010111010011000111011
10111010101101010000010110111110
00111011101000000011010101111011
00111011110110010111111001100001
00111100111000001110101000010100
10111100010001011001010111101011
00111100111111101111101100111101
00111101011001010000011111000110
00111100111100101001011011010001
00111100010110110010010011101101
10111100100110111001000110101000
00111101011111101101110000010110
00111100100000000010100010110100
00111100001000010101111101011101
10111100100000100000110011111111
00111100001111111000101101011101
00111010100000010100100011001000
10111101100010100001001011111001
10111011000010110101101000111100
10111100011100101001100011101101
10111100101101111100000100011111
00111101010010011011000101100000
00111100001011101001111101001000
10111100100010001101000001101010
10111011101101010011000010001111
10111100111110100111001000100110
10111011101001000000001111110101
00111100101111010111110101101011
10111100011111111010111001110111
10111101010100101000001011011111
10111010110101111000101000011011
10111101000011100011000101100010
10111101011000001000101101001100
10111011100010001000011011111111
00111100100100110000011110000010
00111100110001011010110010001011
00111101001001010111010010001100
10111100001011001101100011100011
10111101010001011001001000010000
10111100110111110010010001010010
00111100110010000100111001001101
00111100100100101111110100110100
00111101000100001110100010010100
00111100000010001111000011111001
10111101001101100101001011000100
00111100000011001010001010101111
10111101000110001100111110111010
10111011110110001000110101011001
00111011010000010000000010000000
00111100010101110110000100101011
10111100110000000111110001011001
10111101100010111101000110100100
00111101100011001101011001000010
00111100010101100111001110111101
00111101010111010001010001101100
10111101001100011110101101011100
10111010110110011111110001100010
00111000101001110001111000100101
10111101001111001000111011100010
10111100111000110001011100100101
00111011111111011110000111100101
00111100100010000100100010000100
10111101000000101101001010011000
00111101000000011111000000101010
00111011100000001100011101110010
00111101000101010000011111101001
10111101000111011000000101001000
00111100100100010101011000011011
10111100101001001011001110001111
00111101000011100000000101110100
10111101010110101110011111011001
00111101111010101101111000100111
10111100111110010000001001110100
00111100000010011101001100000000
10111011101111101000001000100111
10111101011100101100000000110100
10111101000100101010111011111010
00111101100010111011100001101011
10111101110101111110000000100100
00111011010100010010011100100000
00111100110110011000111110010010
00111100101011100101111101110011
00111101000010111000101011111110
00111101001100101110000110111010
10111101000011100000000100010011
10111011111111001100110100111011
10111100111001010100111111111000
10111100110000000110000100110001
10111101001110101101111111111101
00111101000011110011010011011000
00111101000110001111101110100100
00111101000010000110011111001101
10111100000010000100000011100011
00111101011001000010100101101110
10111100110000100101010110000111
00111101001111110101010101110000
00111100101000110100111110000101
00111100010001010101100100000010
10111101000101001010011010011110
10111100100000110011100111111011
10111100110101011101010000101000
00111101000001000000101011010110
10111100111011001111110101100111
00111100011011010001001011000111
10111101011011010111011010001110
10111101000000000011110111111011
00111101000100011010010010001110
10111100111011000101000101010100
00111100100101001001000000100011
00111100111100101101100010100010
10111011101011101011010011010110
00111100100111111011101001001100
00111100110010010101111111010100
10111100001100001100101000001110
10111101000011010011011111111000
00111101001011100101001111001100
10111100000111111001000111111000
00111100101010110010110111011110
10111100110000111011100001000101
10111101000110101110011100100100
10111100100110011000000011111011
10111100001011001101011011111110
00111011100000100101001100010011
10111100101011001101000011100110
10111100100101111001010101111110
10111100110000100011111010011111
10111100100110100101011111110101
10111100111100110111000000110010
00111010111000010001011001011001
00111100101110001101001000100110
00111101000011010010111111110100
00111011000010000010010100000101
10111100111001001100100101011010
00111100010011101010010001101000
10111100001101110101101110101100
10111101100000000100101110010000
00111100001010110010110010110101
10111001100011010110111110110010
00111100101111001000010000100000
00111100111110111100100010010110
10111100000000101010000101111110
10111101110001001011101000000111
10111011011110111100000101000101
10111100110001010001101101001100
10111011100001100000100001100100
10111100000011011110001001110011
00111100011110111110111010000010
00111100100001100110101000010101
10111010101011110100101101101110
10111011001111010000101101111001
10111100101011101011101011000010
10111101000111101010110111001011
10111101010100001000011100000100
00111101011101100110000111110101
00111100001110110010110100100010
10111101000001011101100010110010
00111101001010001101011111010101
10111100101000001011011101100101
10111101101110001110000110110100
10111100001110111101011110010010
00111100000100110110110001001000
10111101011001111100000100010101
00111101011010011010011001010001
10111011111110000111101110010111
10111011110010101011010101100010
00111011000101011110011100011100
10111100011001010101001011001000
10111101000000011011100100010101
10111100011110111010000100101110
10111100010101111011100100001010
00111100100011001111010001110010
10111100101111100110110010010001
10111100011001011010100000010111
10111101100011101001101010011111
10111100110001101111110000001111
10111100110111001011000111100100
00111100100010001100001110001110
10111011101010100100110011011101
10111101000100001011011001111011
00111100100000010000111000101001
10111101010010110001001011110000
10111100110100101100100110000011
10111011001000111010010000110010
00111101000110111101000000111000
10111100001001001001100101001100
10111000100001110100111000111111
00111100100100110011110001111010
10111101001100001000001101110110
10111101000011001010010000100010
10111100110011111000111100000010
00111101010011000000111101101010
00111100000101110011011111010101
10111011110101000111101010111111
10111011001111010011111000100001
10111100111100001011111000011101
00111100100111111101011101010111
00111100100010011100010011111000
00111011100011111011101000000001
00111100101010100011100000010101
00111101001000101101101011001000
00111100011110100110111110101110
00111100110100010111011010001101
10111100110001010111010101101000
10111100101100111100001001101101
10111101001100110111011101101101
10111101010000011111001111100001
00111101100001101010111001000100
10111101000110000011000111101011
00111100100111111110010110110100
10111101000010100001000000000111
00111100010100011100101110010011
00111011000110110000100000000010
00111100100001101100000000100001
00111011111000001110111110100110
00111001100010110101111001010000
00111101100001001001111010101101
00111011110111101111001011100010
10111101101111000110001010000101
00111100000100111110000010000111
10111100111010001001010011101000
00111100011000011100110111000010
10111101011011111100100001010000
00111100110110101010000010110001
00111101000100000110000011101111
00111011001011000101110000111101
00111100110101101011100011100111
10111011001001101010001101011100
10111100101111111111100000010000
10111101100100010110011111101010
10111101010011011011000000111010
10111100010001100011101111110111
10111101001001100110010011010101
10111100001001001000010110001100
00111101000010000100101110101010
00111101001100110011110010111111
10111101100100001110101011101101
10111011111011100001101000101010
10111100100111001100010011010010
00111101000000111111110101100011
00111011010001000110010010111000
00111101010101101110110000011101
00111100000011001000001101011001
10111101000000101010101011100111
10111100110010100011110111111000
00111101100101010000011011011011
00111100111101101010011010100100
10111101000110101110000010011011
00111101001111011100101001101110
10111101001001111111111010101000
10111101001111110100101100110011
00111100001111001110001011110001
00111100010000100101010110010000
00111101000010111001001100101001
10111101001011000011101010011101
00111100111001111110111001100111
00111100101111001101000111110011
00111101001101010110011111111110
10111101000001101101001000001111
00111101011100011011110010010000
00111101000001001000000000010010
10111100101011100000010011001001
10111011110001000101101010001111
00111101010011100110100111110101
00111100110001000011001101101011
10111101010110010010010010101110
00111101011100101000001011101110
10111011100110110101101011111111
00111100101000010111000111010111
00111101010101000000101101010010
10111100101111011000110111010000
00111100110110101111010100111100
00111101101100000111011100010100
00111100111111010111101001101111
00111100100011011010100010010101
00111100011100000010001001100001
00111100100110100100010011010111
10111010101110111100100111100001
00111100110100010100110010100010
00111101001101111100001111000111
00111100100000000110000000110010
00111011111100011010110001010100
10111101000001000001001011001101
10111010101100100101100101110010
00111100111010101011010000111101
00111010101101011001110010111010
10111100110101000010111011100101
10111101010111111101110011011000
10111010100010010001000001111111
00111100110100000010011001100011
00111101000110111010100110001110
10111101000110101000111000001101
00111101100010001101101001001011
00111100110010111001000000111011
10111101000100010101101011000111
00111011110011110011000101011100
00111100111101001101001101101111
10111100110011100101010000111111
10111011001001000010011010110101
10111101010100001011001001000001
10111101010001010100001010110000
00111100110011100100011001100111
10111011111111011100000100000011
10111101010011010110110010000011
10111101010000010100001011100100
10111011100001111001011110001010
00111011000100101111111110000110
10111011110001010101001100110011
00111100100111000101000110011100
10111101000101101101110000010010
10111101010100010000110010011001
10111011100100110000101110110110
10111101000101011110101101101100
10111101100101101010100000101101
00111101010100010010110101110101
00111100100110111101100011110000
00111101001101010101100100001110
10111011111100010010000010100001
00111101001110101111100010111101
10111011000110100000101010101000
00111011010100000100010111001000
10111001111100001011010001000101
10111011110110000100001010000101
00111100100110001001001010001000
00111100101101000011010001010100
00111011011111100010110101010110
00111101010100001001011010100100
00111101010010110000101010000001
00111100110111110101001110001011
10111100101011110001011100101110
10111100111010010000000111001101
10111101010010000001101010110001
00111100101101101011001011101011
00111101001100000010110010101101
10111101000100101111011001010100
10111100100100010000100101100110
10111100100011010100010110111000
10111011101010011000110010010000
00111101001001100000111011010110
10111011000011111011100000000110
00111100010010111011010010111111
10111101001101110011110110110111
00111100001011001010000110100000
00111100111111010101110110010110
00111101011000100000110100101110
00111011101101000000100010100100
00111011101111100001101010001000
10111101000101101100010100110110
10111100101000001101110000000111
00111011101110110110101110001001
10111101010000101111000011101000
00111010011001011011101110010110
00111101010110001110000110000110
10111101010101011010101010010111
00111100111100100010001000100110
10111101000001100001011100101000
00111100011110101100000101011101
00111100110111001100101110110010
00111101001010010000111100110111
00111100011010100011110111111101
10111101000000110010000001101001
10111100111101010001011000110001
10111100010100101000010101110100
10111101010010000100111010010110
10111101010010101001110011010101
10111100111111000111100110101101
10111011111010001010011110111101
00111100011110101001001010001011
10111100111000110011010110011001
10111101001000010111111011110101
00111100101110100101101010010011
10111011000011100100111100111111
00111100101010110000111000010011
10111101011010110110010110000001
10111101010100011110001101111011
00111101000101100010101100101010
10111100101011100100110001010000
10111100001011010000011101000101
00111100111100101010000111110000
10111010010011001001010000111111
10111100110101011000011001000001
00111101001011100110101110000011
00111011010001100000111010001001
10111101001000101001001011100010
00111100111101001000110111001100
10111101010100001011100010110110
00111100010100111000010110000111
10111101000111001000000000100010
00111100110000101111100100100000
10111101000101101100100101110111
00111011100000001111110101101100
10111100011100101011100101110011
10111101000011111000000001010011
00111101010111000010010110001100
10111101010001101110111011111010
00111101000010011100110010010010
10111101000110101000000010001111
00111101000111011000111100010111
10111011000011001001111001000101
00111100111111001100100010110101
00111100011011001011001110011010
00111101001001001010001110001110
00111100110011100000011101001100
00111100000011100110011011111111
00111100100001101000000010001001
10111011110010001110111010001011
10111100101100001101110001010110
00111100111001111000111011101001
10111100000010001100000001100011
10111101001010001111111110101000
00111100100011111000011100111000
10111011010100000011010100011101
00111100110110111010110010110010
00111101000001101110111011011110
10111100101010111110110110000010
00111011101000000110100001010011
00111100000110000101111011010010
10111100001101000010100110010101
10111011100101101100001101101001
10111010111011000000100001111011
10111100110100110110111111010010
10111100100011111110110011101010
10111100110100100110011110010000
00111100001111010100000011011011
10111100000001110000000011101100
10111100010000011101010000001011
00111101010010111101111100000000
10111011100111101001010000000010
10111100101101110111101001000100
10111101001110101110000011100100
10111011100000011001000010001111
00111101101111101101100010011010
10111011100100000101111111111011
00111101001000101011011111001000
00111100010010010101000010101011
10111100110110110101110111011000
10111100100100111110001011000101
00111100011100111110110100000110
10111100100001001101011011000011
00111101010101100111010100110110
10111100010011001110001111101000
10111101001000001000010010100111
00111101001110110110111110011011
10111100101111101101001000001001
00111101001010001101001100101000
00111101001111001100111101100010
10111100101110010001101100011111
10111101010111110101101111110111
00111100101100000011011101001100
00111101010010011011111010011111
00111100001001111000110011000101
00111100110110110001010100101000
00111100111100110010110110110111
10111101011111101000101100010101
00111100110010100111001010001111
00111101010101011110001000001111
10111101000111011100000100110001
10111010010110001100110001111000
10111010111010100010000100100111
10111101011001111011010100001000
00111010101111001110100010100010
10111011110110011100011001100011
00111100111111001101001001111011
00111100111011010101110100011110
00111011000110011101000011100111
00111101010011101000110010001010
10111100101100100001011101111010
10111100000100100110001111100101
10111100010010100010100011111111
10111100000110111011010010000000
10111010110010100000100010110111
00111101010100000110011101010101
00111011110001011111101000001101
10111101001101011000000011001001
10111101011011101110011001011001
00111100100101110001011000010010
00111100010001010001011001011010
00111100001010001001110010011010
00111101011110110101110001101000
10111100101111001011010101001110
00111100110111001000100110000000
00111100111000101111011111000111
10111100011010100001111100101111
10111100110110000011101110000111
10111100110101110001010001000001
10111101011001101001001000000000
00111101001100110011111001000100
00111100101110101000011111100100
10111101010100101111101011110100
10111100101000101110001000001010
10111101001011100101110110101100
10111100110001011001011101111111
10111101001001101001011010000111
00111011010001001101011001001011
00111100001000010110110111100101
10111100110000011001000010101000
10111100101011010111111011110001
00111100000111000101011100101000
10111100101101011000111101011110
10111101000000001110011001010110
10111101011011100000101110000101
00111101010101111010011111111000
10111100000111011101011001110010
00111100101100111110000010101110
10111101000010101000011011001010
10111011000000011111001000010000
10111101101111100101001001100010
10111101000000011010011001011001
00111101000000110011000011010011
00111100110111101011110111001111
00111101000010010001001001010110
10111101001110000101011110000101
00111100110110101111110100001111
10111101001001100110100110000001
10111011100100100100101010010111
10111100110101010111001111000010
00111100110001111010011000100011
10111101000110111000010000001000
10111100100101111101110101011101
10111101010000010011000010101010
00111100101011101101000101110001
00111011011100010111011001001011
00111101010010100010000110000101
10111100100110111010100111100010
00111100000111011101111001110011
10111100010100011111101111111111
10111101010110001100010111111110
00111101001110110110010000001110
10111101001111100011011100100010
00111101000110001110001010100110
00111100100000101010101010100001
10111101000001011100110000101011
10111100111001011011000011110110
10111100110110101001010001000011
10111100101000000100100110000100
10111011010011110110111011100010
00111101000101100100001011110110
00111101001001000001101110001101
00111100110011111100011000000111
10111100001101111101011110111010
10111101100000010110111001011010
10111100001110100011010101011110
10111101101010010010000100110110
10111101001110100000100011010101
10111101110000011010110101111110
00111100101000100001010010110101
00111011100101111100010011001000
10111101100101100101000100001010
00111101010011000000111011110000
00111100011000011111001111100010
00111101001101110000001111010101
10111100010100010011010000011101
00111101010111001000101010010011
00111101010101011101101001111010
10111101100010001101100010101110
00111100101100000011101111100101
00111101001010011100011101001101
10111101000001110001110011010110
10111101000110100010100101100010
00111100100100100000100010001000
10111101011101101110111000011110
10111101001111001001001011010010
00111100100010110010101011001101
00111100101101110000110100100110
00111101000000100110001100000010
10111011110110001100011100110010
00111010100011110100100000010000
10111011110011010000000111101010
00111011101011001110010111001111
10111011101000000011101111011011
00111100110111111011010101111111
10111100010011100110000100001111
00111100001011010000101011101101
00111100001111000100110011011101
10111100100011000010100111011001
00111101000001101011101100101101
00111100111011011010111011101101
10111101001000101110010001010101
00111101010000101111100101101111
10111100101011011101101111111111
00111011100010010101101100010000
00111101011111110101111100001010
10111101001100110111011101100110
10111101010110011110011000100111
10111101100010111100101101111101
10111011101011100100110001000000
00111100001100011010100100101010
10111101001011111011111111101001
10111011000100011110011001100000
10111100110000000010010000100101
00111100010000101110101011101000
00111101001100111000000100000001
10111100011011000010001011001000
00111101001101000000001001100000
00111100001011000000101011001100
10111100011100010001010000111010
00111011100111111100000010111111
10111100111110101100111101010010
00111100111100000011000101011110
10111100110011010101000110100001
10111101001000001111100100010101
10111101000000101010110100110001
00111100000001101111110001101001
00111101000000101011000111110010
00111101011110001100010001100001
00111101100100010001010100001100
10111101001110011011100100100000
00111100101001110011110000110101
00111101000000110001000000110001
10111101001010001010001011100100
10111100110001001011000111010110
10111011110001000110011110100001
10111101011100011100001001100000
10111011011101011001101110111101
00111101011010010101000110001010
10111101000011011010111011111000
00111101001010000000101100101011
10111101001010000011000100110010
00111100110000000010011100100000
10111010101111010101101110010111
00111011011011010000010100001010
10111100000001000000011100000011
00111100011010000001010100110011
10111101110111011101010111101010
10111101011000001111010110011101
10111100111011010001000011100001
10111011100001010010011000101010
10111101001111011011000011111110
00111101001011101011010000011101
10111100111010001110011100110101
10111101100100000111010001001000
00111011111110110010100101011101
00111100010011110100110000000101
10111101001010000010111101011010
10111100110010101101110011010111
10111100100110110000100000011001
10111100110110100111001101100101
00111101010011011100100100001100
10111101100101000010100011110101
10111100101101001010000001010100
10111100100001010001001100101111
10111011010110010001110110110101
10111011101010110101101111000110
10111101010010111101111101010100
10111100000011111001001110000011
00111011101111010001101100000100
10111100101100001001001011100010
10111100000101101110001010111111
10111101000101111101101111101001
10111100001110011100010100011011
00111100111001111000000111010011
10111101010011111010011000001100
10111011010010111110011100001100
10111101011101110100000100001000
00111100100101011101111101001101
10111100110100000100101100111001
10111100100011000110111101110101
00111101010110000100011010110110
10111101000101100000010100100111
00111101000001100001110111011101
10111101100001000100110000000101
10111101011011111011011010100100
00111101000101010011011011011010
10111100101000010000011010100100
10111101110000101000000110100011
10111100100101001001010101111100
00111101011001011010111100000101
00111101100100101101001011010001
10111101001111100101110101010000
10111100010010101100001110110010
00111101001000110100000100100110
10111101100001110111111010000001
00111011110111000010110011000110
10111011010101101010001000111110
00111100110011000010110000110011
00111100100100011011001011110101
10111011001010101011001101101110
10111010101000111001101100100000
00111100100010101111100101011001
00111101000000000110010000111100
10111100110000011100000001111101
10111101000100011010111011111110
00111100110101111010101001000011
00111100011010101110010111100111
10111101001001111001000100001110
00111011011001110101101001001010
00111100111111010101001111110101
00111101010110000010101000101010
10111100110010110101000110000011
00111100100000101100111011011010
10111001101101010000011111000101
10111100000111110001100101011100
10111100110000001111011100100010
00111100111000010101010111110010
10111101100001001110100101111111
00111100101100110001000101110101
10111101010001010000101010001011
10111011010010001001010101100001
00111100011111110000010101001111
00111100110010100101101111101010
10111101001000000011000101000001
10111101000010101001110101100001
00111100100000110011011001110000
00111100001001010011110011100100
10111101101011010011000110111101
00111101001111001000001100101001
00111101010101110011101111110101
10111101100101001110011000010111
10111101001101001100010010100000
10111100100011101101101000111001
10111101101001111100011000000001
00111100001101000000000010111000
10111101001111110000000001100010
00111100010001111111000011101110
10111100101000111000111001001101
00111100100000100101011000111111
00111100100101000010100011101010
00111101000011100101110000111000
10111011111110010000101000010101
10111101010010000110100011000101
10111011111101001010001010101010
10111100110001100010100100101011
10111011110001100100100001100000
00111100101011111000001100111111
10111101010111100011000110000100
10111101001011100100000000111110
00111100110101110101101100110011
00111100101100101010001011111011
00111101001100001101111010001000
00111100110110101011111111011000
10111101000011000010110100101101
10111100111011000111110100111000
10111100011000011110110000000001
10111100111011000010010000110111
10111101000000111000101010010010
00111101000011001111001011110110
00111100011010111011000110010001
00111101010100111110100000110101
10111101001000011111111100111010
10111100101101101000011010001010
10111100001011010010100110100100
00111100101011111000001010010110
10111100110010011111010100101010
10111101100000011100011010100001
10111100010111001001011100111000
00111101010001100100000000011110
00111101000001010101010110001111
00111100010000011011010101011101
10111101100011011000110010111001
00111101000000101001011001001100
10111101010110100101000111111011
00111011011001111011001001011011
10111100100000001100000111001011
10111101100101100001000011101010
00111101000011110110000010011011
00111100111111011110000111001000
10111101001100100101101011100110
00111100110000110000101111011110
00111011000000111000100100100101
10111101001111110010011101100000
10111100100100100011010001100001
00111000001001110101101010111011
00111101010111110110000110111001
00111011000011110100001100011000
10111100000100011111001101000011
00111100100101001001111110010011
10111100101110100101001000100000
10111101000001111110000011000101
10111101000111111000001011101101
10111011110111110011001110110011
10111100111001100001101011101100
00111010110110001101011000101101
00111100100110000111101010010111
10111100011101110110110101111000
10111100100011000100001011000100
10111101001111010111001011010101
00111101011000111101100101111000
10111011100000011000011101000000
00111101000101111010110001111100
10111011100001011111011111111101
10111100110010001000100101100110
10111100011100111010000010101110
00111100001010001001110110101010
10111010111011100010001101111101
10111100111100011100000110110011
00111100000000100000011100111010
00111100011010110111011010000010
00111101011000011001111010010100
10111100011011011011011111100011
10111100010000111001010100100001
10111100111110110101100101100100
10111100100111110100100000011011
00111100011100001100101011100100
00111100110110010000101001101111
00111101100010111110001001100000
00111100110101011010001000001011
10111100111010100100100000100001
00111100001001010101001100100110
00111101001100000001110001100000
10111100111010100001100101111101
00111101100000011111110110100000
00111011100001011010101111101101
00111101000110100001011000001010
10111101001011111100000110000110
10111100001011011110111010010001
10111100101111100000001110001011
00111100101001000010101010100000
00111100010100001011001011100010
00111100110011110110111111100000
00111100010010110011011110100100
00111100100100110110000101011001
00111100010101100111001101001100
10111100100001001001111111111110
10111100000100101011010100011111
00111011110100000000011101111010
00111011111000010010110010100011
00111101000000001101010111110001
10111100111001100100101011011110
10111100111010111011110010000011
00111101001100101110101110111000
10111101000010110111010000101001
10111101001001110001110000111000
10111100000010101101010111100110
00111101010101001101010010101010
00111100101011110111010011110111
10111100010111011111010101001110
10111101011010000000111000001111
00111101000011010100111110011110
00111100000011110101000010101101
10111100100100111011100000110111
10111101001010100101000100011110
00111101010010001110100000101001
00111101110000100101110100101000
10111101010100000000111000011010
00111100101001101100000111010010
00111011110001110010010001110100
10111011110110000000101101110011
00111100111010011001110101111011
00111101010000000100001010101000
10111101001001000011101011010010
10111101000110001000100010000111
00111101101001000110111010010110
00111101001000010111000000101000
10111100111001100001011110011011
00111101100010101111101000110011
10111101001001011010100000010111
00111100000101101100111010000000
10111100001110001110000111100111
10111100110000010111100110000001
10111101001010100010011011000011
00111101001110000110101011100001
10111101001011000111100110110101
10111101000000001000100010101011
00111100010000001110101111001111
00111100010000010000011111110001
00111101001000000101001101100011
00111100101101011001110000110110
00111011110111100101011111001011
10111100110100011011111001011110
10111100111010100110011101110010
00111100110111111111111001011101
10111100101001001100110000001000
10111100111111111101110101010011
00111101010101101110010110111110
00111101011101111111001001110010
00111100101011111001101000000100
00111101100100110101010010001001
10111100111010000100000010011101
00111100100000011011110000000011
10111101100010010010100001110100
10111011000100000011101110001110
10111100000011100000110101111010
10111100100010011100011100001110
00111101100010011110101110100101
00111100011001111110010010111110
00111101100111110111101010111110
10111100100001100111111011110001
10111101011000100001101010111001
00111100101001111000111110110101
10111100111000000101101001011100
00111101000000101000001101011010
00111100010111100110110111001111
10111001100100101000111101101101
00111101010000011011110100100001
00111101001001110100011010110010
10111100010101110100000010101011
00111101100010111011010011000111
00111100101011010110101001000111
00111100101010001111100110111100
00111100010101111111100010100011
00111101100001101011011110100100
10111101101100111010011010000000
00111100001110011000110100000000
10111100000010010111010100110101
10111101010100111010110100100111
00111100100100100011011010100011
10111100110000101101010110011011
10111011110111100110011000100100
10111100100110010101101000001010
10111100001101100010011001110000
10111100101001110101111011000111
10111100010100100100010110101000
10111101001110100000100011110110
10111101000001001001011101100011
00111101110100000010010111000100
10111100100110001111001110000000
00111100001101010110101110110010
10111101101001000110100100010001
10111100000110011100101011010111
00111101001100111000101010100110
00111100000100111001001000010100
10111100100001110011000110111101
00111101000001001000101011110010
00111101000101001011010011111110
10111101000000001101011001101000
10111100100111101000110001000001
10111101001000001100111101111110
10111100111001000010110111001101
00111100010000101001110001111000
10111100000110100001110100111111
10111011010001100011111101101100
10111101001101101101100000110010
10111100111101110010101101111011
10111100100110011001000000100110
00111101000000101110011110110101
10111010101110111010000110110010
10111101010111011011110100100111
00111100111111110101001110111110
00111100000101110100110010010001
10111100001000100101011110001110
10111100100000000100111001001001
10111100110010101001111110000011
10111100110000000011000100101100
10111100101100101001101111001001
10111100010101111011110101100110
00111100100010010001111010100111
10111100110101100101001110110111
00111100011101111101011010111110
10111100101010000100000000101111
00111100001000000011000111101110
00111011101001101011010111011001
10111100000001011001101100000110
00111100110010011100100100100001
00111011100001100011011011110101
10111101001110100000111001010011
10111100110000110101100111101001
00111101001001011100010000110110
00111101100011011100000000111000
00111011110111010110100010001001
10111100101010111100011101111101
00111100010100111111000110010101
10111100011000010110011000111110
00111101000101111100011000110100
00111100111101111100010110101100
10111101000001101011001111010001
10111100011011010010101110000000
00111101001110000100001101111001
10111011110100011010111011001100
10111100011010011110011011100011
10111100001000000101011101101110
00111011011100000100111001001111
10111100010011000111111001110011
10111011101100101011010011011101
00111100111100010011100111010011
00111101000110010101000010110011
10111100110000100111100000011010
00111100100011000011100000101100
10111100101001000011001111100000
00111100111110100001010110001000
00111100111100101010101111010111
10111100000001001011110010111100
10111101001010000010000011010000
00111101010110101011110010010000
00111101001010101100010111001111
00111100101010001011010011001001
00111100111001010110001011100001
00111101000011010010011111110010
10111101010101000100100101000010
00111100001000000001000110011000
00111101001000000100100001101101
10111101011101011001100011000101
00111100100110110101111110000110
00111101011001000011011010010111
00111100011100100001110101101010
10111100101001000111100111100101
10111011110101000110101111001111
00111100110101001111011001011000
00111100101110111100100011111111
00111101001100000000101101101010
10111101011000110111010010100010
10111101011111100010110100001010
10111101010001101101101011011111
10111011101001011000100001001100
00111100000110100111101111001110
00111100110110101000110001110110
00111101001110101000100011111110
00111101000001111111011101001110
10111101100001101100111001101000
10111011111111101011010111100000
10111101000010001001010101110101
10111100110100110010010111000001
10111101101010101100000100100000
00111100011000010010110011001010
10111100001100000010000001001101
10111101001110011001011001111011
10111100110111100011100101001001
10111100110110101011101111001000
10111101010110001110001001000100
00111100101001001110111010010110
00111100111111000010111101100000
10111100100100101100010000000000
00111101001110011110001000010001
10111100100110001001110101000001
00111011111001010000100110111001
00111100110101011011010011101000
10111100111110110011110000101101
00111100111001100100111000000001
10111011101001011000000011100001
00111101011011111101011001001011
10111101001100010100101000100111
00111100110011001001000010110110
00111101000000011110101011010111
00111101100001101000111001001000
00111100110011101111111110010010
00111101010111001010111011100011
10111100000110001111011000111000
10111101011011111110011100011010
10111100000111101000001110011100
10111011110100010100101000011100
10111100100001101000010101010011
00111101001111110100111100000110
10111101001011001010101001011110
00111101000100110010101011000000
00111101001100101101111011101010
10110111100100111011000000110011
10111101000000000010110010110101
00111101000010110101100011101100
00111101010010001010001001101110
10111100010011100101011110000000
10111100111011101100101100100111
00111101001011010011111101101100
10111100010010001011101100001100
00111100001000001000100001000101
10111100101001011100000101001000
00111100011110111100001100011110
00111101101111011110001111001001
00111101000010011001010110010100
00111100101000001110001011010111
10111100000000111101000100010111
00111100000110011101100111101011
10111100000011111000000000001110
10111101100000100110101010111100
00111011111001101001001010010101
00111100111101100000011011111111
10111101000010110100001110010110
10111100001010000001011000001011
10111101000100101001010001111100
10111011100001101111111011001000
00111100101010001001000010111010
00111100110110000100101110110010
10111100001001001111110000110001
10111011010010101110011110101000
00111101001010101100000100000011
00111100000001000010010011111011
00111100100101000001010000101100
10111100100010111110011011000110
00111100011001110011010111100001
10111101010100011111011111011110
10111100110000110110001010111001
00111100110111010100111001011010
10111101001101110000111010001101
00111101100001010100000011000010
00111101001000100110001101101011
00111101011000101100111000110101
00111100110011101011010000011111
10111100000111110000110011101011
10111011111110001111111010011000
00111011000100111011101100000001
00111010101100110111110011011010
10111100110000110110000100110110
00111100101010000010100010001010
00111100101100111001001111000011
10111011111000001000000100111111
00111101001100001000111110101010
00111010100111011011000100110111
00111100100000110111011001101100
10111101000101100110101000101010
00111101011000011111010111111011
10111100110001101011001011001011
10111101011101000010010011000000
10111101001001000110110001100000
00111011000001100010000011001101
00111100011000100011101010001000
10111100010110001010000010000101
00111011111001010000101111001000
00111100000010011101000101111101
00111101011000011100000001000011
00111100100101011000001110101001
00111001111000010010000111111101
10111100001100001100011110011010
10111011110111011000011100101001
10111101010001011110100001111110
00111100110010111001000001100010
10111101000001110011010101011011
10111100010101101110101100110110
10111100001100011101001110100000
10111100111001000001000100111011
10111100101010001010000011110010
00111100101110001000000001010111
10111101000110000010101110101110
10111100111001000110101110101101
00111100111001010010010010010011
10111100111010111011101110010010
10111100110101100110010101100010
00111100110101110110110000101100
10111100100100110011111011001101
10111100100101110111101011110100
00111101000010111100001101100101
00111100001001010100000110100011
00111101010110011100011010111110
10111101000011111100110011111001
00111011110011001110100000100101
00111101001001010000110111011100
10111101100011011110000100011001
00111011001111000110101011000101
00111100100101100100001001011111
10111101001100101011101000110100
00111101000000001010001101111110
10111011111111110011110000010011
00111100000000000101101011101110
10111011111000101100101110110001
10111101000000001111010110100110
00111100000010111001011010101010
10111100110011010110100100010111
00111011011010000101111110110000
10111100110011000010000111101101
00111101000010101001110101110010
00111100001100100001011111011011
10111101000111100100000101110001
10111100111111110001111101100010
10111100010100101101000000100101
00111101001010110101000111011011
10111100101011110111010001000011
00111101001110001100000111110000
00111100110101010111111000101101
00111101000010111000000001000000
10111100010101011101100111001111
10111011111000101011001101111010
00111101011100100110011100000010
10111101001000111011001011111011
10111100001011101101110110011001
10111100001000010001110000000001
10111100101011101100011001000101
10111101010010101011100111000010
10111010110011111010110111001010
00111100010100011110100110101011
10111101011101010111011101100100
10111101001011010110100010110001
00111100100001110101110101110101
00111100010101111100001100100110
10111101001110110101111011011101
10111011110000111111000010011111
10111100110111100001110110001110
10111011111110001101111110001000
10111001111011111000000110111110
00111101010001000111001001101101
00111100101111011110101111010010
00111100011100100101010000001011
00111011000010000001110101001111
00111100000001001101110001010111
00111100100011000011110101010100
00111101000100010010010010000001
10111101000101100111011011001011
00111011110001101011011000001010
00111101000100001111110011011111
10111100011101000010010011001011
10111011010101111101001111100101
00111011110111011011010111101011
00111100010001001001100000010100
00111101100101111010110011110110
00111100100100100001111011000101
10111010101101100111011100000110
10111100100100000001000000100001
10111101000110001011110010010101
10111100100000111011010010100100
10111101000101011110010011010100
00111100011100010111000011001000
00111101000101100010111010001110
00111011101111001110100101011110
10111100001101110010101100010101
00111101010101001110101011101001
10111010100111101011000011110001
10111101010011101010100001000010
00111011100001001000100010010000
00111101001011111010001000111000
10111101000111100111001001011011
00111100011011000101000110000100
