10111101011100000000101001110100
10111100001000110101000110111111
10111100101111011111110101100010
10111101010101000111010101101010
10111100011110110101101110110010
00111101011001010111111110101001
00111100101101000100000110000010
10111011011011101010111100011100
10111100001011111000111111011100
10111100101101000011100011011101
00111001010100000000100011110010
10111101101001000111011010101101
10111101100111010011001001010011
00111101010011110110011110010110
00111100100101100110001111010100
00111100101101000001000101010110
10111101000010110101001010001000
00111011010011001110111111010100
10111100110110111100100001100000
00111101010000000111001000001000
10111101000000010011010111111010
00111011110001010001100111001011
10111101011110110100010110100111
10111011100001000011010001111011
00111100101010000111100001111011
10111010001010011011101001010100
10111100111001111010010101000101
00111101010011101111010111001001
10111100111111010000000110000100
10111100100101000011101011110110
10111100101011111001001011000101
10111011011110110011011010010011
00111101010000100100100100111100
10111011100000110111010011111100
00111100010110011110001010010100
00111100111010010010010111000111
00111101000011100000011010111100
10111100000000010011100110100011
00111101001111101111000100111001
10111101011000011101010100001101
10111101010011110010011001010100
00111100000100111000100001011101
10111101001111000111100100001010
10111101010011000010101000101100
00111100000001011110101111111110
10111101000110110001101011111011
10111101010111110011011101000001
00111100100100001111100010101100
10111100111100111100010001000110
10111100011111101110101010001100
00111101000010010110110001111010
10111100011010011010010011100000
00111100111001101100000110100011
00111100100101011100111100111000
00111100010000001001001000101110
00111100001111100011100100110011
00111100001000100010011111001101
10111101001011111100100100000111
10111101101101000000000000000010
10111101001011011001101100011000
00111101101011110010010111110001
00111101010101000100111111110011
00111100001000001110001010100111
10111101011100110000010001110011
00111100110110101011001000010111
10111101010000101010011011110000
10111101001001110101001110010100
10111101001100000010011100010001
00111011011010001100101000100100
00111011100011000001001011010111
10111101000100011000110111001111
00111100101101101111110010111000
00111011000010011001110000110010
10111101001010111101111100010010
10111010101011111001010000100101
10111101001101100011101110111011
00111101000001111101111110100010
10111101100011110100000010101000
10111100110000111000110100011000
00111100101011001110110010110101
00111010100100010101110111101010
10111101000000011111110000011101
00111101011010101011111110000101
10111100101111110011000001110110
10111100110000101010001110100010
00111100100010101110000111001001
00111011111100111001010010111111
00111101001100101010001011111010
00111101100011110010100111111101
10111101100011100011100101011111
00111101001111011010010111010010
10111100011010100101000111011110
00111100111010111010111111001001
00111100011000000111001001001100
00111011111101100101100100111101
00111100010100010010111001010010
00111100111100100100011111001011
00111001101100101110110011101100
10111101000001111111011001011010
00111101001111000011001110001000
00111101010001100101011101110100
10111101000000110011011000010101
10111101101000010101011001011110
00111101000101110011100001110010
10111101011100100011010100011101
10111100101100010001010000001010
00111100101111000100010111100010
10111101100010000000011111010010
10111100101000001100110001001001
10111101010000101100101010001101
10111101001011000011000111101110
00111100111010010000010010111111
10111011101000011100101010111101
00111101010000001111001101110001
00111010010000000010101011010011
00111010001000111011010100101001
10111100110110010010101000110001
10111101101100100011100101101011
10111101100000100000111110001001
10111100110111010001011110101101
10111100010000000010000111100100
10111101110010010001110111101010
10111100111001000111111100111010
10111100111100010011100000111100
10111101110100111010111001000110
10111010100101100001101100011010
00111101100011000101001010111110
10111100001101011010010100011100
10111100010000010010011010100111
10111100111011011101011011111100
10111100110100111010010000000011
10111101001000111010100000011000
10111011011100010110110011011011
00111001100000000011011010100110
10111101011011001100110001001111
00111001100101000000000101101100
10111100110111110111001111010110
00111011110110111110101001100110
10111100111111001100101110100111
00111100110111001001110110101001
10111100100110011001000010111100
10111101011000001100000101000101
00111011100001000011111011011101
00111100100011111010011100111000
10111100111110111111100101110000
00111100110011011011000101010000
00111100111000110001111100011001
10111100000011011101101100111011
10111101000010011010000011100010
10111101001100101110111001011001
00111100011110011010010011001010
00111101000010110011100111000111
00111101000100100010011001100100
10111011011110101001001111110110
10111101010100100101101001101110
10111100110010101000010111110010
10111101010011100000001101110000
10111100000001001100111010101101
00111100100111001011011111111111
10111100001010100111000110110000
10111011110111001100100011110100
10111011101110101101000110001101
00111011100100101110010001111011
10111101101111010111101110001010
00111100001000001001110100101001
10111101100111111001001001110001
10111101101011010001100101100100
10111101001101001111000001001101
10111101100011100101000011110110
10111101100001000000000001101010
10111101010101010110111101001010
10111100111001100001110011001011
10111101000010011000100011001110
10111100011111111111010100111100
00111001100110110001100100011000
00111101011100101011101010000000
10111100111100010110110000110100
00111101110000011001111110010011
00111100001100110000010010111011
10111100111001000101010000000010
10111101000000000001011111000001
00111100000011100010111111100101
00111010111100011011010111101001
10111101011010101100010110000000
00111100010001010101111001110110
00111011001011110100011110100100
00111101010110001010000100100011
00111101010100110000001000100011
00111101000000010011000110001010
10111101000010001010110011111011
00111011111010010111110100001101
10111101000110010010011101010111
00111100010100111100101001110000
00111011110011110000101101111111
00111010101011010100011100111001
00111100111001111001011011011011
10111100100010000010000000100010
10111011000000100111101101000011
00111101001110101101101111101111
10111100111000010100001111001001
10111100011011001100101111001100
10111100100100101110001001010110
00111011001001000111110011001111
10111101010100001100011101111110
00111011100100000000000101010110
10111101000010110110010110111001
00111010001010011100010000001100
00111100101101111111011100100010
00111100100100001101001001001100
00111101001010110010100001001111
10111100001011110100010111100100
10111100101110010001101010000111
10111101001111011010110110111001
10111011101110110100010011001001
00111101011000011110100100100010
10111100101001111100010111101000
10111100001000101110010111001111
00111101010110000001011111111100
10111100001110001000001010101011
00111100011011000111001110000111
10111011101001100011111011000111
00111101010100000011011010011110
00111100101010011100000000101010
10111101010100101100101101010100
10111011110110001001100111110011
00111100001110100100100001000010
10111101001101001110010110000010
10111100001101001010101011110100
00111011110001001101100101110011
00111100110110111010001110111100
10111101010111011110010100101111
10111100100010000010011001101110
10111100000000000100000010001000
00111100100010000001001101011010
10111011001111111100011011111101
00111010100001000011010011001111
10111101001100110001011011000000
10111101001010101110011011011010
00111100011111110110000110000011
10111100111101001001111011111001
00111011101110010001010011110011
00111100101001110011000101001111
10111100011111101101001110001100
10111101010010101101010001100100
10111101000011101001111111100101
00111101011010000110110111111011
10111000101010111010100000110001
00111101001111101000111001110100
10111011010101111010111110100001
10111101000010000011100011001000
10111011100001010010101101000001
10111100100010100111111100001010
10111101010101101100110100110011
00111101010100101111111010010010
10111101001110001010000001100010
10111101001010111111100000101000
00111100000000101010001110001001
10111100001111101010000110100110
00111101010100111111110100100100
00111101000001000011011011100101
10111101011001011000100001101000
10111011011010011110110111000110
00111101000011101111011001000011
10111100100001100100000100010100
00111100110111100001011010001010
10111100110011010011000100110110
10111100001000011010010000010001
00111100110010101011010101001011
00111100100010011010001111000010
10111011011101001011011111110010
00111101110010010100101110001011
00111101010001010110100110100001
10111101011001001100010011100010
00111101010011111001000101111111
00111101001011110100001010000010
00111100111010100001000001010111
00111100011100110011101001000000
10111101010001011001110111010001
10111101011110010110100010110100
00111100000001100101100111100111
10111101100001000001000011111010
00111011100001000110011101001110
10111101000000011010011011011100
10111100010001101001111001000010
00111010000101100010000011001101
10111100001001110011101111101001
10111101001100101111100001100110
00111100101011000011001100100010
00111101000000110111001100010001
10111101101011111011000010011001
10111101101101001110010010001111
00111101001011001100100000101101
00111011100100001110001000110101
10111100101111110001111111011100
10111100010001010000000111110110
00111101010000110011010010011111
10111101000101111000001110011111
10111100011110110101000000101001
00111101000001011001100010011000
00111100001111010011010110011111
10111100110011000001000010011000
10111101010101110010111000001101
00111100100010101001111100101100
10111100110001100100000110101001
10111011101010011110001001010100
10111100110101011010001011100011
00111101100100000100101100011011
10111101011110011011010110010111
10111101100101110010000100100111
00111101100110001111010011010111
10111101001101110010011110010100
10111101100110010011001000100100
10111101000001011001000110000000
00111100100101001100000101000111
00111010000101100001010111000001
10111100100001110101000100100000
10111101000000010111000111110101
10111101010011010110111000101100
10111100010101100001111010101111
00111101010000101111111110001110
10111101000110100111100110011000
00111101000000001000111101000100
00111011001110010110001010010001
00111101000100000101001111000011
00111101100111100001011000000100
10111101010010001110000010011101
10111101000010011100110110001010
10111010010110001101001010001010
00111101000000011001110010110010
00111100010101000001010011011100
10111101000001001011011101011010
10111100111000011011111101000110
00111100100110100101100101000101
00111100110001011000100100100010
00111100100010100110001111110010
10111100110110011011101100011111
10111100100001001001001000101010
10111101000010011100110100001000
00111101000000110101010110010010
00111100100011011101101100100000
10111101001001101111101000110101
10111101110001011101101111110101
00111100111111010111111001010011
10111100110111100101110100100111
00111011001011100110111111000100
10111100011001010011101100000111
00111100111000010101010110001011
00111100110100011010010000001011
10111101011101111000001001011000
10111011101110000101110010001110
00111011111011011011110001000010
10111011110011010011101101011011
00111100110011001001100000101001
00111101000111111100000110001011
00111101011100001110001011111101
00111011101000001010011111010111
10111100100101110111111011010001
00111100000011000000000011000110
10111011101010101111011110011110
00111101001010010011000110101111
10111100101111010110111110100110
00111011010110000010101000100001
10111101100010011010001011000110
10111101100010000100011000100101
00111011100000011011111101101101
10111101001100011011110111111110
10111100111100010001011000000000
00111101000110101101110100011000
10111101010001100101101011100101
10111100111101000001011010101110
10111101000011011110010101011011
10111100010000110100001111000011
10111101000101010001000111001011
10111011101001011110000011110000
00111101011000000111010111010000
00111100111100011110111110111111
10111100000100101101101001100011
00111100100001100010100101001000
00111101010011101110001100001001
10111100111011111011001101010101
00111100110001001000010001011110
10111100110111100100101110100010
10111101000000010100101100001111
10111100100101101011000101001011
00111100111000100101001100001101
00111101010111001110100101000100
10111101001000001011100011011110
10111100101011111110100010011000
00111100101000011001001111101110
10111101000011111011111001001110
10111011010001111001000110111110
00111011100111111001101101111101
00111100110101111100101010010110
10111101011100010011100001101001
10111100011101010111011000000111
10111100000010010010111001110011
00111101001010111000001000111000
10111101101101110001010101100110
10111100101001111110100011000111
10111101001100010000111111010011
10111101100110100101100010000011
10111101000010000011100101011011
10111101010111101110000000111010
00111010011100001011010101101100
00111100000011111010010101110000
00111101100011101001101100011110
00111100011111110111101000111111
00111100101001101110101000001110
10111100110101110001111010011011
10111101100010111000101111001010
10111101000000011101010001000111
10111100011111011101111001110011
10111101100100111101110110110111
10111101000100000000111111000001
00111100000100100111100010110110
10111100100111011001100000010011
10111101000001000101101011001111
00111101001010111111011100100101
00111101000100010111111101111111
00111101000100001110010000100000
00111101001000100000000011110110
10111101010000101101101111010010
10111100101001100100100011011101
10111100110110010111110000011101
00111100111101000111111110111001
10111101000010000101100111000011
10111100100000010001010110100110
10111100100111111011011001101011
00111101001010100110110001101001
10111100110011000111101010010101
10111100000001101011100101101111
10111011000001000000011111101111
00111101101100110100011011110011
10111101101110100110101110001110
10111101101000101110101001011000
00111101010110001111100000011001
10111101100100010110101111100100
10111100100010100000011001100001
10111100110101011001101111110101
10111100101000111001000100101000
10111100100111001100000101001001
00111100000110000101011001010001
10111101011010000101001010001011
00111100100010001011000111100101
00111101001000101000010010001010
00111100110001001101010010111010
10111100011001011010000101111101
10111100000010010101111100011101
10111101000001111110111100110001
10111011001110111100101101000011
00111101000010000011001110100001
00111100111011001001000000110100
10111100010010101100100101111001
00111100010001110010100110000100
10111100101011101101001111011100
10111101000110110110010010110101
00111101001000100010000110101100
00111100101101110001000001100000
10111100011000110011000110100100
10111101011101001011100111111111
00111101011001001000001011101100
10111101001100101010000011110010
00111100100001010000111010001000
10111011010101011001010110011000
10111011100110000101100010011000
00111101010000011010011111010101
00111101001101010001001100100100
00111100110011010100111100011110
10111101010101001111000001001111
10111101010000000011010001001011
10111101010101111111001110111111
10111101001011001101101101011110
00111011001101110001011101101101
10111010001001010110000101101000
10111100000111110011010001001111
00111100011100100001001100100110
10111100010101101111101000110110
10111011001110111000000010101011
10111101100000111101110111101001
10111101000011010101110111000101
00111100011100010011010100100011
00111011110101111100010110101101
00111100110111101111101111100010
10111101001001101011100111100111
00111101000000111100010001001100
10111100110111000000011011100010
00111101100000000010110001110000
00111011100000101011111010100011
10111100101011111011011100100011
00111100011000010111101111110001
10111101000011111000011011011111
00111100001000110010110100000001
10111011011001111101100001011010
10111100100011010100001110000010
10111101100001101100000100001011
10111101001100011110101010000101
10111101000001010011010011000000
00111011100000100100011110100011
00111101001000111011111001010011
10111100111101000010111010100000
10111101001010100011110001010000
10111101100001110110100001110001
00111100100000000110110001001111
00111101001100100111100001111110
00111100000101110100110111100100
10111100001010100011101110100010
10111101000111001101111101011110
10111101010011111101110100010011
00111101010101101111111101010101
00111011111111000100000001001101
10111011101001011010110110011001
00111100110001000100101011111111
10111101010101010110111000111110
00111101001110000001011010110010
00111101011000111100111000000110
00111101000110100000011001011111
10111101000111000011111010110100
10111100100001011011010000101010
10111100100111001111001001110100
00111101000101110011110010100001
10111011100011001011111110101010
10111100111101010011100001001001
10111101001001011101001100111010
10111011101111011011100001101110
10111100110000110001110011010001
10111100100000101011001110100010
10111101000100111111101010010111
10111100111110001101111110110000
00111100100100000000101010110011
10111100110101101010000010011110
00111101001011100101010110000011
00111100100101110101110000010111
00111101000111110000011011111111
00111011101100001011010100111011
10111100101110011000111010110001
00111011111001011000011110100101
00111101000011101000001011100011
10111100001110111010010001001110
10111101100001010001001110101001
10111100111100011010001111110011
10111101100101001011011100111111
10111101000101110101110100000110
00111101000100111111001110000001
10111100011111000011111110011001
00111011001001100011101000100000
00111101000011101010000111101011
00111100110100001011001111100101
10111100000001110111100110011100
10111100111011010101011100000110
00111011011100110011100000001001
00111101101111110000110100010011
10111100101111100000111000111111
00111101010110001011011010000100
00111101100111000111100011101000
10111101000010010111011010100101
10111011100110010000011111111111
10111101100101000101010010101101
10111100101000010010101010110110
00111100110100011101010110100000
10111100101010101011110101011110
10111100001000111100011110110101
00111100101110001000010000111111
10111101011101111100100110110011
10111101010001001100001111111100
10111011110100010011000101110000
00111100101111101001000110011110
00111100110010011011010010111100
10111101011100010010100101111101
00111011010100011010100000001100
10111101010100000001110001000101
10111100111111100001010001000110
10111011111011101010001011000101
10111011100011010101101110001010
10111101001101010001101000011011
00111010111100111111001101100010
00111101001101101110010010010000
10111101011100000111001010011000
00111100100010101000101010000001
00111100101000010101000101000000
10111101101011111100001111000010
00111101101000001011101111100111
10111101000010010000100101110001
10111101010111011010110010001000
10111100000000110001110110110001
10111011110110010010011001010000
00111001000001110100011011111001
00111101000011010101010000001100
10111100100100111110100001011111
10111101010000110011111111111101
10111101001101001101011010100000
10111011100100001010011100000010
00111100110111110001111101011101
10111100011100011110111111111010
10111101000001010000011010001101
10111100101111111011110101000101
10111010000011011100100100000101
00111100010110101111111011100110
10111101011101010011101110100000
00111101000010111001110010100000
10111101001011111110110101000111
00111010100011000011011111101111
00111100010000000001111011010101
00111100111011010001100101001011
00111101000000001001001011111110
10111101001011000111001110100011
00111100101110101010011001000101
00111101100101001110110010101001
00111100011011010010111001010000
00111011101011011011011111011000
10111101011110010001110000110111
00111100000011101010001001001111
10111101011011011001101011001101
00111101011111110000111010101110
10111100111000001011001100001000
00111011000111100011111001101001
00111101001100011010010100100110
10111011100101011110000100010110
00111101100000100110101100011001
10111101000010011010000100101011
00111100001101001011010101011101
10111101100000100101100000010001
10111100001111001111111100010100
10111100000100111101100010001000
10111011000010010001001010001011
00111101011000111101001101001101
10111101000010001111000101100110
10111101001000001110001111100001
00111100110110011110101101101001
10111101100010111100010101011100
00111010001101111011001010110011
10111101100010000110100010010100
00111101010110111101000010111001
10111010011011110110100001101111
00111101011110001011100010100100
00111001101011111001001011000010
00111101001001010101001111000110
00111101000101101010100011000001
10111011110001100100010011110011
00111000110011001110011101001001
00111011001101010101110111101011
00111100101001111101111100011111
10111101010010101101100010110010
10111101000111111101001001100011
10111101000111110010010010100111
10111100100101101101111111100110
10111100111111110100101100100000
10111101001100110101000111100010
00111011100010101001111111011101
10111100011111011100000111001001
00111100101011100011110111110100
10111100111100110110101001000001
10111101100000100000001010001100
00111100101000010001001111000101
00111100110010110100011001010001
00111100111011111101010100001111
00111011110011101110100001111010
10111100110010110111100001100000
00111101001100011111110010100010
10111100100010011010000010010011
00111100000101111100000100000001
10111101001010101101001101101000
00111101000101100010101110010011
00111100000111111101001000001010
10111011000001011101111010101100
00111101010000101111101011110001
00111100100110000011101000101000
00111100001001011000100100011001
10111100011101011010000011101100
00111100111010011011010010010110
10111100101111111000111000010110
10111101100000011011010100000100
00111100100101001101000110110001
00111100011011101000100110100010
10111100101110101101000001011101
00111101001010101101111101011010
00111101010100100010000000111111
00111100101010111001011000001010
10111100001010101001100101101010
00111011001101101110000010010011
00111100100011101100010111110001
10111101010110010101010010110010
00111100101000100010100011001111
10111011011001010111011010100100
10111101001101100001010100000000
10111101001010001011111111000010
00111100011101100010000010011001
10111101000010000101001010001001
10111101011100001110111111001000
00111100111011110111110001000110
10111101110001011110110110111000
00111100001011100010100001101010
10111101001100001111111011101111
10111100111010010011100110110100
10111100100010000111010001001111
10111101011011110001111010011000
10111010111001011101010001101101
00111101010110100110010111100011
10111100101011101010111011111001
00111100001000101111100001010111
10111100000010001001000010100110
00111100000010001000000010110111
10111101001100111011101101010101
10111100101010000011100000110100
00111100110101000011011110011000
10111101001111000111011011100001
00111100100001111100100000101100
10111101100111010001110101010000
10111101100010010101100000000001
00111011000000010110100000000111
10111100101100011000000110010011
10111100111001011100101111101101
10111101000111101011010100010110
10111100000111011100011010111100
00111101000011110110100100000110
10111100100110100101101100110101
10111011011110111111110111111100
10111100011111111111010011011100
00111101001010100110111101011010
00111101001111110010011110100101
10111100110011001100111100110111
10111011111100101001011000101111
00111101100010101001010111011010
10111100000100101010001100111010
10111100100000010010010110011000
10111101010010111011101010101110
10111100001101111010101011000111
00111101000000011111001011000110
10111101001010000011100001001100
00111100110011011000111110101011
00111100111010110010100111110110
00111100110010011010100000111011
10111100101111111011111001100110
00111101100010000111100001000101
00111101000000010000000010011111
10111011110001100111011100101110
10111100100011001000101110010110
00111100111110111111011011001110
10111101010101101111110100001110
00111011101000110001101111011101
00111101001000001001101001011010
10111101100011010000010011101110
00111101001101101100100000101111
10111101100000001110110101110011
10111101000001110110100101000101
00111101100101111010000000001111
10111101001010111011011110011001
10111011100101110011100101010110
00111011100001101010100010110000
00111101100110001111001101101001
10111101000101111001110010110000
00111100111101011101011001001111
00111101010100000110100000000110
00111101001110111001001110000101
10111101010010010011100000000011
00111101000101110101000100001001
10111101001011101100010110000101
10111101000101001111101101101010
10111101000001111100001011101011
00111100100100010011010110011011
10111100111010010111110101011011
00111101001000010000100000110100
10111011110011110010011101100101
00111101010010110010010110100101
00111100100101000100101000110010
10111100100110100010111000100101
10111010001110101111000000100001
10111101001001000110110011000001
10111100001110111100100111101000
10111100100001111100001100001110
10111101010010001100000110001001
10111101011110011001000100000111
10111100100011110101000101001000
10111101000000111000011010010111
10111100110010010101011011101101
00111101000010010010001110000101
10111101011101100011100010001010
10111100110100110100010100001011
00111011111001011100100100010001
10111011101001100010011100000001
00111100001111111010111100001101
00111101001111000100010000001000
10111011100101100110001000011110
10111011010000010100101010001001
10111101011000000001011010011010
10111100010101010001001001011001
10111100100011000101101100010000
10111100111110000011010100000111
00111100011010001011110110101101
10111101000100011101010111010100
10111011100101010011000010110100
00111100100011101001111101010111
10111011001100011000010011010000
10111100111001010001101101110111
00111100011001101100101001010011
00111100010010011100000100111101
10111100111010011110111000011100
00111100100100001011110000000010
00111011111001011001001000111011
10111011011011101011010110101010
00111100100011010011101111011111
00111100010111001111000010110110
10111100110000000101110101100011
00111100101000101100010011111010
00111011100100010100001111111010
10111100011011011111100011101111
00111100101010001110000111001111
10111101000101000100010011101001
10111101010101000011100100100101
00111011011111010011010100010000
10111101010111100010101010111000
10111010110110011010110001100100
00111101000011001001001001000110
10111011110101100110101111110011
10111101100000101010101010000100
00111011101011010011100110110010
00111101001010011110111101000100
10111101011000110101101100011001
10111011001101100011101101100111
00111100001001001110100001010100
00111101010011011110001111010110
00111101010101101010111010000011
10111011101110000000001011110111
10111100100010111000010100011111
10111101000011110101100001111111
10111010000011110100101010111011
10111100010100100110000110111111
00111100100011100101000101111100
10111100100000000011001011001011
00111100011101001111000100110110
10111100011111010101001000000101
00111011000001111111101100110100
10111101100011011111101101001100
10111011100111001111111011111100
10111100101011101111111001000001
10111100010101010010110010111010
00111100110000001000111010111011
00111101001001010110000111010011
00111101000101101101101111110110
10111101001111000011111000111010
10111100011100000001001110110110
00111100011010000011101011011000
00111100010100100100001000100010
00111100101010101101001111010111
00111101010010110001010001111000
10111011100010111110100011001001
10111101010100010100011100100100
00111100111011001111011011000110
00111100011000111001000100000010
10111101001100001001111110111111
00111100110010110101011001010110
10111101100001011001111101111011
10111101100011000101000110111111
00111100100101010001111110011111
10111101011011101011000111001001
10111100111011010100101010000011
00111100111101101011101111101011
10111101011111011100111110011101
00111100011000111011100100101111
10111101001010001001111000111000
10111100100000101110100011011100
10111011101101001000100101100001
00111100011111011100110011011011
00111100101101110000001011001011
10111100100100111010001100001000
10111011110010011000011011100000
10111101010011101110010001001011
10111011110110001000001000010000
00111101000001001011110101110110
00111011101101000110111010110011
00111100000100010110010111000011
10111100100010010001011101000010
10111101011100010001000011101101
00111100001110110001001000100110
00111101001110011011111000000011
00111001000011001010000100101010
00111011110101111001011000101000
10111100100011010100010110001101
10111100000101101110111001111100
10111100001111011010100011000000
10111100101110000011000110110100
10111100110101100011110110001010
10111011111111010010100100100100
10111100100001011010011110001111
00111100001101111000100011110101
00111100111111001100101010010100
00111100100000101111011110010000
00111101001010011111011011000010
00111100111000110100010101101100
00111011101011100110110110110010
10111101011001100001011010011011
10111011111001001100100010000010
10111101000011101101000110001010
00111100001101101101111000101110
10111101010000110111110000000001
10111101001011000111010000000110
10111100110100110101011010110111
10111011110110100011011101000010
10111010010011100001010010100011
00111100100100010011110101110011
10111011000100111100100100111100
10111101001111111111000111100001
10111101000111101010001111010111
10111101100100011101000110110000
10111101100000111001100100001111
10111101100110110100101101010100
10111101010110010011111010110001
10111100001100011110100110110101
00111100010000000011010101100011
00111100000111100111110111010101
10111100100001010011010000110000
00111101001111011100100000000000
00111100110011011000011101101000
10111101100101110111000110011100
10111101010110010100010101000000
00111010000100101000100100101010
00111011110110011100111010110010
10111011110100001000000000110000
10111100001101010101101110010110
00111100110000101100111011010100
10111011000101110000111110110101
10111011111011110111001001011001
10111100110110110110111110001011
00111100001011110000101000110001
00111101000111011010100111111111
00111101010111001001011101100110
00111011000101011101001101100000
00111011100010100010100010001010
00111011110101100011100100111101
00111011010011101011001111101111
10111010110011110101111110011000
10111011000010110001111000101010
10111011111010011011010010001000
00111101000110010010010010110110
00111101010111100000011101010111
00111101101100100011000011101100
10111101011000101001110010110101
10111101000010000100111010111100
10111011010101001000111101001100
10111101011101001100001000000010
00111011111011101011110000111111
10111100011000000000011000100001
10111100100011100011100101000100
10111100100101100001101010101011
00111100011010110000101011001000
10111100011001101110111101111011
10111101001011011011000111110010
00111100011001100101011010000111
10111100001111100101001011001001
00111011010100011001000111111000
10111011100011000110010000101010
00111100001101111010111110010100
10111011011110010110000111100100
00111011110101000110011010011010
10111011111010010000101000011100
10111101010100111101001110011111
00111101001001101010110011000011
10111101000101110100101001110110
00111100110110000101111011101100
10111101110001000100111001000000
00111100011000101100100011010111
00111101110010101110110100111100
00111100100011101101110010001110
00111100101100010000000000101100
10111101100101010101001011011000
10111101001111100101001000111010
00111101001000110011101110101010
10111101000000100111000000011000
10111100101011000110001111110001
10111100100000110111101011101100
00111101010011000100101110100110
00111100000010011111001000010010
10111101000100000001110010110011
00111100000100101101110011001011
10111011000000111011110001010101
00111101000000101101111010000111
00111011110001011101110110111011
00111100110000010001001010010101
00111101010010110100010001010011
00111101000100110011101101000101
00111010100011110110000101010110
10111011111001101111010100001000
00111100101010010011011110010000
10111101000001101010011111101000
10111100100011101101011110100011
00111010101101101001111001000001
00111100100010011100101111101011
00111101001111000011001101100001
10111100100001011010000110101100
10111011101000110000011001000100
00111101000100000010111100110010
10111100001000010101110001100010
10111100110001100101000010010111
00111100000110000111000100101110
10111100100011010010101100011010
00111001100100110001000011000010
10111101001101111110010111101100
00111100110011001110110011011111
00111101010010001101010100010000
00111101000100110010100100100000
10111100100011100111111001010001
00111100000101101010011001101000
10111101100001010010011010011110
00111101010011110001100011110011
00111101100100100110100101101001
10111101100101110110000001111111
00111001111010011100111000000101
00111101010011001111010011000010
00111101000000000110011101100111
10111100100111101101101101011110
10111100100101111001011011110111
10111010111010011011111100111000
10111011110001001001111000100110
00111100111010111011000010100111
10111101011001001100111110111000
00111100101001100110100110011001
00111101000000010110001100100011
00111100011101000001101010111100
00111101100001000111111110010100
00111101100010100011100110110100
10111100100101011010010100101100
00111100000001010001010000100111
00111010010111011110011110110010
10111100100101111011100000001111
00111011111001000110110101000011
10111101000111110110010111000010
10111101100000001000011011101100
00111100110100101000010101011100
10111100111100001110100110101101
00111100001010011111100101100101
00111101010011001111100010101101
00111100000101010001111011100010
10111010101110100000111111001000
00111101001110110011110111110010
10111101000011110110101000001010
10111100100101011111101110001111
10111100100100111111011110100110
00111100101011111010111001101111
00111100001000101010011001100111
10111100011101100010111001101101
10111101001001101000000011111001
10111100100011110111011011000011
10111100101000000000001101000011
10111101000110011001111001100000
10111101011110101001001000101101
00111010110100100100000110100111
00111010111101001010100111100111
00111011101000001100100110101001
00111100100001000111001111100000
10111101010010000001110000010111
00111100010111110100110011111011
10111100111101011001011110001011
00111011110011111001001110000110
10111101010100110011100001000111
00111100011100000111000001100011
10111101000111000000101101011100
10111101000101111011101010100001
00111100100111111110110110011111
10111101010000010101110111111100
10111101001000010111100010010010
00111011010010010001111011011101
10111100010000010011010100101011
10111101100010001110110110100111
10111011100010100101010101110110
10111100111101100110001101100010
00111101010000000111010111100100
00111101001010110001010100101001
00111011111100000110011010011011
10111101000000010011110101000100
10111100110000101100000010000101
00111101011010010011100101111011
00111101001111010101011011001110
00111100111110010000111101110111
00111100110100101011101111101001
10111100100100010111101001100001
00111011010101001010110100100110
10111100011100001111110101101001
00111101001100011111111110101101
00111101001110110000000111011011
00111101001100011100011111000100
10111011010000000100111111000110
10111100110010111010110000111100
00111101010001011001101001100110
00111100011100001101000001000101
10111101001011101101110000010110
00111100000111000000000010111110
10111011101111001101000011010011
00111101001101100010100111110111
00111101100011011000001110101001
10111011101100100110001111010011
00111101010110101000011111000001
00111101101010111000111001110110
00111101001011000111011010101111
10111100110000111111100001000000
00111100111010100110101100000000
10111011000101110110100000010001
10111011011100011110110101011000
10111100010011010001100100001011
10111101100011111001001111111010
10111101010001000101000000000011
00111100110111100110000100110001
10111100110101010111011101111011
10111101010100011110101110011000
10111100110001000111001010001101
10111100110010000000010100101100
00111100100011100010001111011010
00111101000110101100111101111101
10111011111101111011111110011101
00111100100000110100110001110101
10111011101001101100001101111110
00111101000111011000110110011100
00111100100010010100011101111000
10111100101101101100111100111001
00111100011111101101011001100111
00111101101100010010100101111101
10111100110110001100000010111010
10111101000101000100001110001010
10111100001001110101110010110111
00111100101111111000100001011001
10111101000001011001000100011100
10111101010111011001001001000101
00111100000100000011100011001000
10111101000000100010010111011010
00111010000011110101001101110101
10111101011000110101011100100011
00111100000000100100011001000110
10111100011011101100110111100000
00111101011110010011000101010001
10111101010111100010111100100110
00111010011000011110101001001111
00111100110001111100011100100110
10111100011011011111001111001101
10111100101101000010101010000111
00111101001101000100100101101101
10111101001110001110000001101111
00111101000100011011010101100011
10111101010100000001111111011010
00111100010000110000000101101010
10111100100101011110100000101111
00111100001110111100100001110010
00111100110011001110101101001001
10111010010000110100011010010010
00111010001001011110100010100011
10111100100100110011001010000011
10111011101000000010110101011101
10111100111101101100100111110101
10111011110100010001000000000110
10111100001000011000110011001110
10111101001101111101000011000000
00111100111111101111011011001011
10111100001001100110011111111000
10111011101001101001100101010110
00111100111000011100110100010111
10111101011111110011101100001100
10111100110001111000100010110100
10111100100010101000110001111110
10111011000101001011101011101010
00111100101000111000011001001010
10111101001000001100100101001000
10111100111000001100110000100000
00111101000000011111001011011100
00111100010111011110100110011000
10111100010011010111010000001000
00111101000110010011100010010000
00111101000011000111011110011011
00111101001110111010101001101100
10111101000101001101000001000111
10111101011001110001110010001010
10111100101011100010101000010101
00111101000110000011000110011000
00111100010000100110100110101100
00111100111011100110101100110110
10111100010000011111110000100111
00111011011010100111000101000011
00111100100101001111010111011010
10111100100011001001111100111100
10111101001010100000001011111110
10111100101011111100111010000100
10111011100011010101011000001001
00111101010100110011110111111111
10111101111100101011100010010100
00111100100001000100000001101111
10111101101100110111101101111101
10111101110101011111011000110001
00111100100010110101100101010100
00111100100010111101011100010111
10111011110010000011111100001110
00111101011010110111101111001000
00111100111011000111111001001110
10111100101011110001001100110110
00111011000001111011011010111110
00111101010010101100101000101001
10111101100000011011011110101100
10111100110101100101100111110111
10111100101101000001011010110000
00111100010100000001001111010010
00111100110111010000111010100010
10111011000011100011101010001100
10111011111010111101001101101100
00111101000011000001111001111101
10111101010111100011010110011000
10111101000111100011110110101110
00111100000100110100001000101011
10111100100100001011111011001010
10111100101110111111100011011000
00111101000001110001000010111010
10111100101010001110110001100010
10111011000111000000100110000011
00111100110100001110111110000001
10111100111010010001110100110101
10111100110101010110111101100101
10111101011001011011110110100011
00111100100000101100111010011111
00111101000011011110001100111110
10111101001011100000000100101001
00111101000000010100010110101101
00111101001000011001100111100100
10111100100011000111010011100000
00111101100000111110110010011101
00111101001110011100100111101101
00111100100110111000000110100111
10111100000101000000111010001001
10111101010001101101111001011110
10111101000011001110000010110110
00111011010001001001111100011000
10111101100000000001010011100100
00111100100000110010110111001100
10111100101111010011010001100110
00111001111000111001111010101110
00111100101100100110011100000000
10111100111101000001110110101100
00111011101111111111001101110101
10111011100010100001011100100010
10111100100110000111100111100000
00111101001010110011001100111111
00111101101001101100000110100101
00111101000111110010001011000100
00111101100011100001110001000010
00111100101001010000001101100010
10111100100110101110100100001101
00111100111000110011000110100011
10111100011111000100011011011010
00111101000111000111111010100101
00111100101100111011011001111011
10111101000100001101011011111101
10111101101100010111000111010000
10111011101100001110001110010010
00111100000100101010111001011011
00111100101101001111011001100110
10111101101000101001000001111110
10111101100011001110111011001011
10111101000001100010011101000111
10111011011011110110010000001110
10111101001000110100001111001000
10111100011001101001000101001001
10111100111011100000001110000011
00111100111100101110001101111011
10111101100100111001010011000110
10111100010011000110110000000101
00111101001110111001100111100100
00111010110100010101100110001111
00111101000001111101110011001101
00111101000110001000010101011100
10111100110100010111010101011100
10111101100000001101101111100111
00111101000100000001101111110011
00111100001011101011000101001100
10111011101000010010100110001010
00111101010000000000101010000010
00111010100011111001010100010100
00111100100010101100111011001101
10111101100001011001010101111101
00111100100000100100111111011000
10111101001101100110011011000000
10111100101101010011000000101100
10111011010000111011000101001110
10111001000101001100001101101110
10111101010001101100011001100111
10111100100001110100010011011100
10111101000110111100100110010111
10111011001101100011010001101110
10111101001010011100000100010000
10111100111000011010000011001010
10111011110000001100110100011010
10111101100100110110111110110000
10111011110110010010010110101110
10111101001001011001010000110001
00111010101000100010100111100010
10111101100011110000101110100110
10111011011101011101001011010101
00111011010001000010000001010011
00111100100111010011000011101111
10111100110000110001011011010111
10111011100000110101101011001000
00111100011001011111011111110110
10111101001101111100110100101011
00111100101110100101110110110001
00111011111011100110100011111111
00111100001011100100101101110111
00111100011001100010100000110000
10111101010100000110011011111011
10111100000101010000101110101010
10111101101000010001011010110101
00111011111110010011111110101100
10111100101100100100000001101011
10111011000000001110111110011111
00111101000001011000110011110101
00111100110010011100101111101101
10111101101000110000001110111101
10111011111011000000011110100010
10111100001101011111100011111001
10111101000000011000001110010111
00111101000101101101011101010001
10111100110100111000111100110011
10111101010100000000110101011001
10111100100111000000110110101100
00111101100011000000010001000101
10111101001000000100110111000000
00111100100000001001111001010000
10111100000001110111100110101001
00111011010000011101000000001110
00111100100010011100101011010001
00111100100000101100101000011111
10111100110011010111100000000111
00111101001010111101110000001100
10111100000111000000010111100100
10111100010100101011101110000110
00111100100100111001111101001000
10111101100101100010111011011110
10111101010011010001101110100111
00111100010010110000000001000010
10111101101100010010101110000100
10111100011111001011101001110110
00111101001111110100001000110011
10111101010101101000011101100001
10111100100100101100111011100110
10111101001011101011101101110000
10111101010100011000101001110101
10111100111111001101011011000000
00111100100010100101110101001011
10111101000001111010001000100100
10111100010000011011111110011011
00111100010110110101010100101010
10111010100001001001000111110001
10111101001100011000010000100110
00111010001000111100000110110000
10111011001011001001010000001001
10111100111100110101001100001010
10111100010011011100001001101000
00111011101000101001010110100100
10111100110101000010001001000110
00111101000100000110010001011011
10111101010011100011000001111101
10111100111110000001001010111000
00111101010101111100000011011010
10111001100000001001100111101111
10111101000001111010011110111110
10111011110100010010000010110111
10111101001111011111111000011100
00111101000011011101011100111100
00111011111101010111111011001101
00111100001110101001101110001000
10111011101111100111011011011110
00111101000000011001111010000110
10111101001011010100111111010110
00111101000001111001100001010111
10111100101110011001111001001111
00111101001100110111101100011000
10111100111110101101111110000110
10111010001101010111000101010110
10111100100001100101100000111110
10111011001001101001100010011101
10111100110011100100110111000011
00111010010111100000110010010100
00111101000010010001010100101111
00111101000110011101000000010100
00111100110011000101110101101100
10111101100110000110010001000001
00111100111000011011110101100111
10111100100000101001100100110100
00111101011100000000110010111010
10111100101000111011001100011001
10111100111000111011000111011100
10111010000101011001100110100001
00111100010100010110111101100001
00111101001101010111011001111011
10111101000101110110101110010111
00111010110011100010001110110101
10111101000101010111101000010100
00111011101101000101111110010001
00111101000100110110100100101001
00111011011110000001001010010110
00111100111000010001110000011111
00111100001011000101111000011011
00111101011000101100010000110010
10111100101000111010110100111101
00111101000001100111100111010001
00111100100011000011001000101011
10111101011111011000011101001111
10111101101001010111001111000010
10111100101001001011000001110110
10111101000100010001011000011011
10111010100000011101111100100111
00111100111110101001100100110111
00111011111010100000100111110110
10111100101010010100100000101010
10111101011101101111011001010101
10111011001110101001000010000001
00111100101100011000101001111111
10111101000100101111010001111000
00111100111001111011000110010101
10111100001001010011101110000001
10111100101011101001001100010110
10111100011011111110010010110000
10111011011001010010011000010000
10111010001001100000011110101001
10111101000111110001100110111011
10111101101011010111111011011100
10111100110110001111011000111011
10111101101111101101100110010001
10111101010011001110001101101011
00111101001010011101010010011000
10111100110111110110011110011110
10111100100101001001100100011101
00111101010000011000011010111101
00111010010110110001101101100010
10111011101011011001010101001101
00111101001001000101100000001011
10111100101100110000110001110100
10111011101010000101010100110111
00111101010100111101110010011001
00111100111011101100111111111000
00111101010100000101111101000001
00111101001111111010000111010010
00111101000000000111001011101111
00111011011010111000001001101011
10111010001100100010011011110011
10111100101000010110000111100100
00111100111101100011101110100000
10111101001110111110000001000010
10111100000111011101010001010101
00111100100100011000001010011000
10111010110100101110111101010001
00111100110100100010011000110011
00111011101111011100100011000110
10111101011000010011101000101100
10111101001110111101001111111100
00111011011110010101100000101001
00111101000110010111101100000100
10111101100100110001100011101110
00111100011101000111100100011110
10111011110101101110010000111011
00111100111011111011110001000100
10111010001101010010110011001101
10111100101100010110101111101011
10111010011100100110000010011100
10111100010001101101010111000110
10111100101100011110110010010000
00111100000010011100000100001110
00111100011101010101111010010111
00111100011110000011111111111101
10111100110110011001001000101101
10111101001011010001001110100011
00111011001000010100001000000010
00111100100001110100101011000011
00111101001000111101101101101001
10111101011011101011110110000110
10111100100001000011111010101000
00111101000001111010010101010100
00111101010001111001000011000101
10111101010000100000110111011110
00111100100001111111100100100101
10111011010100111010001010110001
10111100011010111111011100010001
00111011110010000111110110001101
10111011000001011110000001101011
10111010110010010110110010010110
00111100100011101011010010000101
10111101010101101001010001011001
10111100010001101000111101000101
10111100101000101100110111001111
00111100001111010011100100111111
10111010100111101011000101111101
10111100001000010010000100010100
00111011100101111101110100110010
10111100110011001101000111010111
10111101000100101011100100100111
10111011001000101101100100101100
10111100110110011000010101000101
00111011101001010100000100110101
10111100110000110100001111010011
00111001101100100010101101110010
00111101100111101000110110100000
10111100100001011100000111001111
10111011110110011100100000100000
00111100011000111000111101101011
10111101001001000001001011101001
10111100011001100101000101010111
00111101001000111101101011000001
00111100100010011100100110111101
10111101100100100001000000000000
00111101101101111001010000000001
00111100101110101000110110111010
10111101001010000011110110001000
10111101100011010011011001010010
10111100010111111100111001001101
00111100011100101110010101010010
10111100101010010011000111011001
00111100110110011110100111010000
00111101011010010011001000000000
00111101011010101001001100100100
10111100101011000011000010110100
00111010011100100011000000111101
10111101000010010011110011011000
10111101001111101010010000000101
10111101011001011011110110001010
10111100110000100101000100101000
10111100010001111001101010001001
10111101000010000101011001001010
10111101000110011011101010011101
10111101011000100110101101101011
00111100110010000110110010010100
10111100010111000100100011101010
00111101000101111000110110001001
10111100111000100001011000111100
00111011110010110010110100101101
10111100111000100101111100100100
10111101011011111110011011111111
00111101001001100110000010110011
10111011101001100001011101111000
00111101011001001000001101000011
10111101011000001011000110001110
00111100010110011011100011110111
10111101010100001010111100101010
10111101001001000110111011100011
00111100101010100111101111111100
10111100101000111001110110111011
10111101001011000011010100011001
00111100000111110110101011010110
00111010101101101101000100100100
10111100101110001101000000110110
00111100001011111111101101000100
00111100111111011010101111011101
00111101000010100000110011100010
00111011110001011011110011000101
10111100110100110011100010000010
00111101000100101011100110111001
00111011100010110001100011110001
10111101100010100101111110111110
00111010011100100101110111101100
10111101000111011110000110010000
10111101010011101110000110001110
10111100110111001001011011000100
00111011110111100010011010110010
10111101100010010101100000010000
00111100110001011010100111001110
00111011010101100100011111111010
00111100101000110000000010101011
00111011111101011000001110011010
00111101010111000111100001000101
00111100011111010100110111010011
10111100000011101010111010111111
10111100101001010101001100110111
10111011000110111001010110110011
00111101100001010100010010010110
10111101001100000100010100110110
00111100001100010100110010000010
10111101100001011000010111001100
10111010010001111010010101110010
00111100000010110101100110111010
10111100101010110100010111000001
00111011110111001010010011111000
00111100101010001101011001001110
10111011001111000100100101011111
00111100110100101111000100111001
10111100100110100011001000110010
10111100100100110000010001101011
00111100111100001111110100001010
10111100101111101101000110101010
10111010111111100000111110011100
00111100000111100110101101011001
00111100011100000100010001101111
00111010111010011010001110101010
00111011101100100101110100110001
10111100110001000101110110100101
10111100011010100001011110101010
10111101000001010110011010110001
00111101001011011100011000111000
00111100100010011110101000100011
00111101010101100010001001111000
00111101000101110100101011011100
00111100001100101100110001110000
10111100100100010110100110011110
00111010101001011010101101000010
10111100101100000111100111100010
00111100000110000101011010110111
10111100010111000101000111010111
10111100100110100011010010100110
10111101010111011100010010000111
00111100111010111110111100110011
00111101010101100110100001000000
10111101001011001001010000110010
00111011100111111111010110110111
10111100011110111110100111000101
00111100100000101101101000001110
00111011100011010001010101001001
10111101001100010110001101011010
00111100110100001010011011010000
10111101000001110100110101101110
10111100101001101010111100000100
10111100110011110010011110010010
00111101010001101011101011000010
10111011111000010101111010011010
00111101000000000101010101000000
10111100000110111101100000101011
00111101000111001111110000011000
00111101000010000111110110111100
10111100001111001101101100101010
00111100111111010100001100001011
10111100000000101000011110011000
00111100100011100100011011000001
00111011110010010000111001100011
10111101010010101001000001111011
10111011111010000000111101110000
10111101001001001001001001110110
10111100111001010111000000011011
00111100110101001101000001110000
10111101100000011111001111111011
00111101001100000001011000011101
10111011111101111011000110111110
00111100100100010011111001000110
10111011101110011110111011010000
00111100100000100000000100110000
10111101010001001011011011010111
10111101000001110010111111000111
10111100000011101111101010011111
00111100100001110101100100100000
10111100100011011101101010101101
10111100101011000010110101010010
10111101100111111011010011110010
00111101010100001111010100100010
10111011110001111000100011101010
10111101000111111000111100100110
00111100000000001110110011111000
10111101100011100111101100111010
00111101000000000111011011110100
00111101001001110000111001111100
10111100010010101001101010001110
00111101010000010101101110000110
10111101001101110001111101011111
10111100101101100101000001011000
00111100110011111111100001011000
10111101110001110110100110110101
00111100011111110010011011100100
10111101100001001101111101011011
10111100100110101011000011001100
00111100011011000100110001101111
10111100110000111111111111101101
00111011000101111011111010000001
00111100101111011100111100000110
00111100001101001010011011100111
10111100000110101110101111101110
10111100111000001000011100111001
10111010000010011101110111100111
00111101100111000101111010010100
10111101100111010010000111000010
00111100100111100101110011110001
00111100010111000000011111001011
10111101010111110100110111000101
10111100101111101101100110101100
00111101000010101001011001101111
10111100101111110100000011111111
10111100111011110010101011010101
10111100101010011001110100001110
10111101101000100011110010010011
00111100101010101111110110000011
00111100100110111010000000001000
00111001101010100111000111101010
10111100101011100011010000100111
10111101011101000000111110011100
00111100100111100100011000001010
00111101000001111110001001011101
00111100001101001110001001001011
00111101010000011011010010100110
10111100010100101110110100100000
10111100001011000100000010010001
10111101011000100100111001001100
10111100001000001010001110010100
00111101000100111001001111000101
10111101000010000000100001010001
10111100111011010000011101100110
10111101000010011101101100111001
00111101000000111111001001010100
10111100101100010000000001111110
10111101001100111010010000001111
10111100111001110110101000001010
10111101011000010010101110100001
00111101101110100011010101001001
10111010100010101110100000010000
00111011011010000011101110011100
00111101001100011011101001010110
10111001110111100100001011101110
10111100001101101011010010001111
10111011110000100011010111000110
10111100101011111111100101110110
10111101000001101001011100000010
00111100010101101110101100000100
10111101000001000110010010010110
10111100110010110101100001001010
00111100000011110010100101001110
00111100100110100001110110011001
00111101100100001000100000001110
00111100111000110010110101000100
00111100101111011101001111100100
00111100101010010000000001110111
00111100100010110101010101101100
10111100100010010000001001001100
10111001001101100010010111110001
10111100101011101001000001100000
00111011001010110001001000001010
10111101000101001100101111100000
00111101001100101011100111111010
00111101000101000100101100100010
00111100011101010001011111111101
00111011011111000110011010110000
00111011100100011011010000101101
00111101100111000011011000001111
10111100100001101110110001001001
10111011000110111001001001100111
10111100110111010000100100000110
00111100110001111111000001001110
10111101000000001110100101001100
10111100101001011011000110100011
00111100100001001100110000100001
10111100110000011011111010010010
10111100110100000000111110011100
10111101001110101010101111011011
10111101000010000110010010111101
10111011010011110100011010110000
10111101001001100100000000101001
00111101010111110101110111011100
10111100100010011010000001010100
10111100111111101111100010100001
10111100110010110010111010110111
10111101000011110111001000111111
00111100110000010110011010100110
10111100000011000101011100010110
00111100100111110000011100111111
00111100011100101101011101001100
00111100010001001010101111110011
10111101100100000110000010011000
10111011100101101111110010000001
10111011111001111111000101001010
10111100000111001110100111011001
00111101000111010101001001011010
00111100111000001100101010111011
10111100100111000111111101101001
10111101001001111010111000010101
10111101000010001100001010101111
10111011010011100011001001011110
10111011101111111000000101001111
10111100010001110011001001011101
10111101001001110010101111110111
10111011111000101101101010000001
10111100011000111101000001001110
10111101000001011011000011110010
00111101001001011111001101100110
10111100111001101011000110111000
10111101110100110010000111010110
00111101000101001101101111000011
00111100110111000010010010010001
10111101001110111101100000001110
10111100111101010101101001110100
10111101100100101001000010101111
10111101001000110000010110100001
00111100110000011110011010101101
10111100001101111001001001100100
10111101001001110100111010111111
10111010100110001001110111110010
10111101001100011111000111010001
00111100001011000001001000101111
10111100101100001000111100110010
00111011011010101101011110011100
10111101010011100010010010010110
10111100101001110000010001111010
00111100100011001001010011111011
00111101001000100110101001001100
10111011011011001100101110111011
10111101000001010011110101110000
10111101011111101011111010101000
10111101010000010010111000001001
10111100001011111111111001000000
00111101010111000110001111010111
10111000110011011111000011011010
10111101001111001011100011001010
10111101010100001010001100010111
00111011011000000111010000110010
00111101001000000000000001000100
00111011001000011010100101101100
00111101001110011110001110000001
00111100010111000001110110111101
00111100101111010110101101100100
10111011110011011010110110010000
10111101101111011111110001001101
00111101001010100110110110010000
10111100100111011101100110011100
10110110110010100101100111000000
00111101000010111000111100000110
00111100111111011111010011110001
00111100110010101000101101011000
10111101000001000101100101010000
10111100111000110011011001011010
10111101000100110010011000010101
10111100011000001010101101010100
10111100110100010101000101100100
00111100000110011110001011001001
00111011011101011010111111000001
00111101011110010001000001111100
10111100101010110110110010011001
10111100101111001101110110001110
10111101001001110000001110010110
00111011100111011100111000110101
00111100101101101010000101000111
10111011111111100011101001110011
00111100101001010011010100011000
00111101011111011001111011110100
00111100001011111011011101010111
00111100111110111100001110110101
10111011101111100101000111100110
10111100111111111011110111001011
00111100100111000110111000010001
00111101010111111011010110010111
00111011100111011010001110001010
00111100110111101001010001001111
00111101010001000001111110000001
00111101100000011110110110101100
10111100101100111000011110001100
10111101001010001111001110100111
10111101010000110111101000010101
00111100000110010001001011000110
10111101001111010100001010000101
00111011100001010000100011011011
00111100010100110001101110111101
00111011101001110111101011111110
10111100001010000000100010001101
10111101010000011101110111011011
10111100101000100010010001001100
00111101010000010111101101100100
10111100111000110010000011100010
10111011100110000001101010010101
10111100001101001111110010000010
10111101011001001111110000001111
00111100101010001100001101110011
10111100001001101110001111110110
00111011011101011010001001111001
00111011001100001100010101101100
00111100110000001011100100011101
00111100111110011011101010000000
10111100101000111100000101010101
00111100011011010111110101000101
10111011101110111111111010100001
10111101001110100001111110010110
00111100010011010011100001000001
10111100010011000010000000011000
10111101000111010110100000000111
10111100111111011001001100111111
10111101010001100110000000101011
00111101010001101001101111011101
00111100100111100100000100010101
00111100101110010110110000101001
10111101001011100010100111011000
00111100111010010001010110001101
00111011101110000111100001001011
00111100001000111010000001011100
00111100101110110010111000111000
00111101000110011111010010000111
10111100111001111100010011001100
00111101100110000001011011101001
10111100000101000011010101000110
10111101000100000101000111011101
00111101011110111001110101001111
00111100110011100101101001111010
10111100100110011001011100000000
10111100001010010101111101011010
00111101000100100110110001110110
00111100101011110001000101101011
10111101100101101011010010101111
10111100101111110010001111110010
10111100110011111101110010010011
00111011000010010101001111000001
10111101011111111000010010110111
10111100100010111101001010110010
10111100111001111011011100101000
10111101100101110110100011011001
00111011000110010001011001101011
00111101101100000000011000000000
10111101010110110111010101011011
10111011011010101111010101001000
00111100000100011111011100100100
10111100111111111111101001111000
00111101010100001001010111001111
10111100011011001101101100110000
00111101100000000111011101000001
00111101001010111010110111111110
10111100101011100110001000110100
10111100101101011101100000011100
10111100101101010101000100011001
00111100111111100111110000000100
10111010100001001101010011000011
00111100110100111100101011001111
00111100110111111000010110100001
10111101010101111110001111110111
00111100111001010111110111111111
00111101011010101000000101010011
00111101010001110100100110011010
00111101000000111011110110010010
10111101000011011110011111100101
10111101011111110110000100011101
00111100111001101011010011010101
00111001110000110101010010000110
00111100000010001111011010100100
10111101001010111111001000010001
00111100000101010100001000001001
10111011101111111001110110111101
10111100000100010010010100010110
00111000111001011101001010100001
10111101000000101001001101111010
00111010111101000010111011101110
00111011100001110011011000100101
00111101001000101011000111100001
00111101000010110010101111101011
10111100001010000111110000001110
10111101000000001000110001001111
00111101000001001010111010110001
00111100001101111001001010101100
10111100110000111001011110110101
10111011110111110111101001100001
10111101111000110001000111001101
10111100100001010001100100100110
00111101000001011010010111101010
10111100101101010111111000001000
00111100011011110010110100011100
10111101000000011101110100000111
00111101000110110101110001001010
00111100101011111001001101101001
00111001111011001100111000000001
00111101010101101101110100110110
00111100010000000101101000000000
00111100100000111000010001110110
00111101000110110101111110100011
10111100111000000000001001001110
10111011100100010001111111011100
10111100001010100010110100001010
10111100000100110101010000111100
10111101011111100011000011010001
10111100010101010011100000111110
10111101101111001111110111011010
00111100010110000000000011110010
00111101100000001000110010110001
10111101001010111110110011001011
10111010101011000001110010111011
00111101000011101011111100001110
10111100100010101011001100000110
10111100100010010100000010101111
10111101011000010100111000101000
10111100000111000101111100100001
10111100110110100111100011011001
00111100110111001011011110111101
00111101011001000001010010111101
00111100110100110110001111010101
10111100111010100000001010001100
00111100010001101000100001001011
10111101100100110110110011110110
10111100011101000100110010100111
10111101010100010000100100011101
10111101000011001110011100100111
00111100111100000101100010110101
00111100000011001011110011100101
10111100100011101111110101100100
10111100101010000001110111000010
10111101011101000000000010111100
10111100101100000010101111100001
10111100100010011001111000001000
10111100100111100100100100001100
10111011100111100111001111010100
00111100111110100011001101110001
10111100001010111000110000000100
00111101011101100101110111000001
00111100000010011100100111011001
10111101000101101101110000011101
00111100111110010011001011101110
10111101000110011110011111101111
10111100110001111110010100001110
10111100011011001001100011001100
00111101001100110100101010100110
10111100101011000101011000010110
00111100100111110111111011110111
00111101011010010111010110011010
10111100110000001011100011011000
10111101001111010011001011101100
10111101100001000110000100001110
00111100111001010011000001100000
10111100110100000000010101110010
00111100001100111110101110100011
10111100110101001011001110111011
10111101010010110011110100101001
10111100110100101011000000100110
10111100101111111000001100011001
10111101010111001100111100111101
00111101000001101111110111111010
10111010001101001010001001000110
10111101010001110110100110110000
00111101101000101011001110101110
10111100110110100001100100001011
00111110000101101110000011010011
00111101000111101011111010110010
10111101010110110101101111101011
00111100000010110101100001000101
10111101001000001111001010001100
10111100101010011001101001111010
10111101001001101111000101101001
10111100001011011000110010000011
10111100110011001000111111111001
10111100110101000010111000010111
10111101100001101101100000000101
10111101010000100010010001001000
00111101011101101011011100000001
10111101000100010011110001110000
10111101000000110011000011111100
00111011011000011111001110101101
00111101011001000011111100100010
10111101000000011011101000100111
10111101001101010100001111001111
10111100111011110010100011110010
10111101010110100110100101110111
00111100111110111011100001110011
00111100100101011101111010001100
00111100010100010101111010011000
00111100110000100110001111011000
10111101010010100110000011000100
10111100101111101110111011011011
00111100010111010001010101110111
10111101100110011001000110100110
10111101001101001011101100010010
10111100001010000111100011010001
10111101011010001111110110000101
10111101100111110111000110001010
00111001100100001001110110110110
10111101011100111000110011001110
10111100100111110111010011110010
10111101101010010111010101010101
00111101010100100011101110110111
10111100111011111000111011100110
10111100110011000111011100100111
00111101010011011100011011111001
00111010110111000111111111000110
10111101010010001000011100111100
00111011111100000101001100101000
10111101000100011010110110101000
10111100110101101000001100001011
00111100111101100000101101001100
00111100010001110001110000001100
00111110000110101001101000000110
10111100000011111110011011000011
00111100101000110011110110011100
00111101100010011101101100000011
10111100111000101000011110000101
10111100100000100100000011111111
00111100101101111001000111001011
10111011011111010100111101001011
00111100001010100101011010001111
10111101100100010110110000111100
00111011111110001101010100011101
00111101010001111111011001100100
00111101000001010111101001111000
00111101100011001110101000000101
10111101001001100000111100000101
00111100011101001101000111000011
00111100010011111001011010010000
10111100001110010010100001001010
00111101010111101110011110010010
10111001011100110111100101110101
10111100111100101110110010100100
00111101101010111001000011101111
10111100110100100000000000111010
00111101000101100011001011001011
00111101101110011110000101111110
10111100000111110000001001100111
10111101010010111110011101001001
10111101000010000111110001010001
00111100000011111111101011100110
00111010101010101111010010110011
00111010111100110111101010111011
00111101010111001101000000010111
00111100100101011011100100011110
10111101000111010010100001011010
00111100110010101101100011110011
00111011111110100110111111111011
00111100110110000111011110111011
10111101001110101010000000101100
10111100101011001000010111101011
10111101000010101000100110101101
00111100000111010000010100000101
00111100010001000010110011100111
00111100001010000010000100111100
00111100010001000001100001100110
10111101001001111111000001110101
00111101010001110100100001000011
00111011100100101001001011101100
10111100100111000101110111001001
10111011100110010011110010110001
10111100100110101011101001100111
00111100101100011110101100111001
00111101001000111010011110000010
10111100111110111100110111011101
00111100010101010010100011111100
00111101010000111101001111111111
10111100000010000010001010010101
10111011001110001010011101100001
00111100100100011001010100000110
10111100000010011111010001111001
10111100111011001110100110011111
10111100100111110100110100110001
00111100100011000110011111000011
10111100001110000111100001110000
10111101010101010000111000000000
00111101000100010010010100110011
10111100010110110100101100111111
10111100000011000010111101101001
00111100111110011001011110111000
00111101010101110001000100010100
00111101101111111110101111100101
00111011101110001110001110110111
10111100110001001000111010001010
10111100001111100011011100001110
10111101100010101111100010110011
10111011100101000101100010011010
00111100101110110000111101000001
10111100111001000111001111011100
10111100100101101000011101000011
10111101010111011101100111010010
10111100101111100101000010100110
00111010000000001000011101001010
00111101010101110101000000111011
00111101011011001111000011010110
00111100101101111000001100110011
10111011110011101111110100001011
10111100111011011111001010100110
10111101100000000000101100101001
00111100110011101000101000101110
10111100011000110010000011010000
00111100011011100100101011101011
00111100100111011100011110101100
10111101001011111110001100000110
10111010100010001110001000001000
10111100010110010000011111000011
00111100010111001000110110001011
00111101010100001011111110101111
00111100100100110000010001010010
10111101011100110100011111010110
10111100111100100011001011100111
10111100101000101011100110100001
10111100101100010110010100101100
10111011100100010111110110010001
10111100100001011100010001100001
00111101100101110001011011011110
00111100111101010010011011111111
10111100110011001110011001001010
00111101111011000101001011010001
00111101000111101010101010110000
10111100100001011100101001101111
10111100001001011010111110011000
10111101100110110111110101010001
10111100100110001000111101100001
00111101000001010111010101101000
10111101101011100000011101001100
00111100100011010111000110100001
10111101001100111111001111010111
10111100011110110000100101100110
00111100010101110101111011000111
10111101010000001010101010101010
10111100000101111010100111101001
10111100010010111100010000111100
00111101000000111000001010111110
00111100101101100010100101010101
00111100101110000110111110001101
00111011110011111011000111111000
00111100111101001101110011011010
10111100001001110111001001110011
10111100100000100111011011101101
10111101010110001001000110101100
00111101000110010111001000111100
00111100001010010110010110110010
00111011110010111011110010011101
10111100101000111101110101110001
00111101010101010010010000000010
00111100101101101110000110110000
00111101010110000001100001010000
00111010100011110101100100110101
00111100111110110101100000110101
00111011011101010000110100110101
10111100111001101110100100101111
00111101011000000111000111111111
00111100011110100100001111101111
00111100111011011000111110100110
10111101110101111100100001110001
00111011111100111000010000101000
00111100100101001010111111011010
00111100111110101011101011101100
10111101101001000110011010101000
10111101010011111000010110110110
00111100110001110111000101111011
10111101000000100100101011110011
10111010101000011100111111110011
10111101100010110101001000100110
00111100100100111110100010111110
10111101011100011110101001101011
00111101000110001100101101001001
00111101000111001101111100010111
10111100101010100000000101111100
10111101010000110001001001101010
00111100100001111100101100000111
00111101001010010100000010110010
10111100110000000010000100010010
10111101000010011001101001111100
00111100101111110100101001011111
10111100111000001111010100100011
00111101010100110100001000101111
10111101010000011010000011001110
10111100110001110010110111100011
00111011010111001011000001000111
00111010100000101001100110110000
10111101010000110110001110100001
10111100100011001111000100111111
00111100000101010011100100101110
10111101010000101100101100010110
00111011010011100101011001011100
00111100110110111010001100010101
10111101000110011011100011100001
10111101010101101000011000000000
10111100010001001011110100000010
00111011001010101011001111000101
10111100001001110111111001001010
10111011110011101010111011010001
00111101000111001000110011001111
00111100101110001001101101010010
10111100001111110101010010100000
10111101001010101111101110011011
10111100000100111110100011001110
00111100001001000001011111111000
00111100010010010010000100100100
10111100010110110001010101100101
10111100101000101111001111111110
00111100101110101000111001101110
00111011101110000000011110110111
10111101000110010111101100111100
00111100111110011110110111010000
10111011000001011000110010010011
10111011100101101001100100100111
10111100011000000000111100001110
10111101001001000000100111001110
10111100010110110111100010110010
00111100100010111010011100111100
00111100000001011101101100100010
10111100010000000110110100011100
10111101000110010001101101100100
10111100000001100110001100100011
00111100111101110110100111110100
00111010011100111101110011010001
10111010100000011000001101110010
10111101101010010011011011101111
10111100110100111111101100001010
10111011110000010010000110010011
10111011001010000111010101111101
10111101001001010110011010000001
10111101010011011001011010011111
10111011110111111000010111011001
00111010100111111000001010101010
10111101011110101000011111110000
10111100100101000100111111110100
00111011110111001001001101010000
10111101001101101110010100010101
10111100110101101000110100110111
10111101011001000111010111000111
10111101000111110100010100110101
00111101001010101001010010001100
00111100010001111110101110000110
10111101110000111110101110011011
00111101011010110110101001011010
10111100110101010100100000101111
10111101000110110010001111100011
00111100110010010000111111000010
10111101000011001011011100101000
00111101100110110001100100100101
00111101100011000011010011010011
10111101000110111011000010101100
00111101100101100101001101101011
00111101001011100010111011111110
10111011010011000110010100010110
00111100111101101011001011000000
00111100100011001010101111111011
10111100011111000011011111111011
00111101100000000110111100010010
00111100000101110000111100100101
10111011010100010010101011010110
