10111011111110011110100111001001
00111100110110111010011001010010
10111101010000100101000001011010
00111101000001001011101001010110
10111100111010100110011001011001
00111101000010101110101001110001
10111100011010100010010111111111
10111101000000100001011101001110
00111101101001001001011100011101
00111010010010010010100110100011
10111101110010100110001000010100
10111101011001011010000001101001
00111011111111110110010001101101
10111101100001000001110111110110
00111100010101101000000000110010
10111101000100011110001001100000
00111100100001000100100000000110
00111101101010101011111110001110
00111011111101101111111111101111
00111100011010101111010011000010
00111011100111011010001101011100
10111100111010000100001011010011
00111100000110100110010000010000
10111101011010100100100000000001
10111100100010001111010000011100
00111100111011010001000001011100
10111100111101101110010010010011
10111011100101000010110010000111
00111100010000000010100001110001
00111101010000110100110011100111
10111100010110101000000001110010
00111011111010100000110101111001
10111101010010110000010000111001
00111100011111111010100001001111
10111100010001001000010000110000
10111100111001101001110000011010
00111101010000011100110110101001
00111101001101101001010000000100
00111100011110110110010100011111
00111101100000010101000000110111
00111101000000010001100100001011
00111010100111011110100010101000
10111100100110110010011001101000
10111100101100000110010110100011
00111101010000100111010001011101
10111011101001011010011000000111
00111100110110010001100101110100
00111100011010001101011111011101
10111101100100010010101010101001
10111101010110110101100011000011
00111101001001100011011000010010
10111101001100100100111011001010
10111101110000000001011110001110
00111100100100100000010111111010
00111101010010110101001010001100
10111010111110011010000000011011
00111100101111011101001110000111
10111101011010110011011010001010
10111101111010111001111001110001
10111101010001111111111011101010
00111101001101010000010111001100
00111101000010111101111001001110
10111110000100010111000111011101
00111100110000101110001101100110
10111101000111100110000011110101
00111101010010111110010101101001
10111101001110100101000100001100
10111100001110001111101111110010
00111011111011100100000100110111
10111100111101101010110100101010
00111101011100000011110100010010
00111101100000100101000000100000
00111011111111111000100110110110
10111101011110101010001001011010
10111101101101111100101110000101
10111101011010010000110011001111
10111101100011011000100001011110
10111100111010000100100110110100
00111101100101111000110010110001
00111011101100010000000011011110
00111101000001010011100000100001
00111001011111011111001011100000
00111100101001011001111110001110
10111011100010100110110110010011
00111010001101101000101110110110
10111011100001001101111001000100
00111100100100010110100001100000
10111100110010011100110101000100
10111101101010010010001001011011
00111101011011000010010000110000
00111100100100000001011001110111
00111100101100100001101001001110
10111100010100010100001001111100
10111011100000111110100101111100
10111011011100011101101010001101
10111101010110000010110010111100
10111100110000100010000110000000
10111100111010110010111010110001
10111100101001100110110011101100
10111011011010100010011100011000
00111100101100010111100001010001
00111100110010000101111110001101
00111011100010101011000000001110
00111100010000110110101010010101
00111101001101010001000110111000
10111100011101111000101100000100
10111101010001010011110000101101
00111101000001011001111011101000
10111011001000100101111001001010
10111100011000101100000110011010
00111100000001010000000001100010
00111011101010110110011011001111
00111100000001001000010101100100
00111100101011000011001100001011
10111101110001110110101011101010
10111101000010101011011101001000
10111010000010110110101100011101
10111100000001001110111101101010
10111101011101100110001111100000
10111100101000110001001000001000
00111100011001010111110101011010
00111100011010000101101011011000
10111101001110011000111111001110
10111100100010001111101110111100
10111101000101001010001000010000
10111101100011101011011101101110
10111100101001111110001001011101
00111011101010011011101101010010
10111101000011001101011101100101
10111101001101100010110110000101
10111010101111010001001101010100
00111100001011110001110010011110
10111100000110110010000001101000
10111101000111011010111101100100
00111101011011011001000111101101
00111100111111100011110010100101
00111011011010110111111110110011
00111011101001111100111111100110
00111100001111011111101101001011
00111100110100010011001000000111
00111101000011110100111100001010
00111101100100110011111011111110
10111011001000110011011011110010
10111101000111111111010111011110
10111101000100001000011000101000
10111100010011111000110010110110
10111100001101001010011000110101
00111010100011010010010101010010
10111011001010100011101010110000
10111101100000110110011001000111
10111100111010110111110101000111
10111101000100001110001110011100
10111010100110111000001110110100
10111001111000000110000010010001
10111100100000110010100001111011
10111100100000101101010101100010
00111100000001111110001110010010
10111100101000010000001110101011
00111011111100110101111101011010
00111100111100101011111100000100
00111101001010011111011000000001
10111011110000100011001011001010
00111011001011010101101001001010
10111101011001010011001010100110
00111101100100010000001100010110
00111100101100110001100100001111
10111100110100001011100011000001
00111011010111111001010100000010
10111101000010010001111010011010
10111101011110100111111111111101
00111011101110110111010111100000
00111101000001110100011010100011
10111101001011111001000111111010
00111011011000100010110110001000
00111011111110011111111001010101
00111101000011011010100011110100
00111101010110000011000011100000
00111100000110111010100011001010
00111101100001101100001100110110
00111100100100000111101011011011
10111100100001010101010001000100
00111101001100001011000111111010
00111101000001010011011000110110
00111101011111011000110100101111
00111101010100000001100000111100
10111101011100111110111011111100
00111100000011100100101101111101
00111100110010010111010100000110
00111100111000010111001110100111
00111011100001001110000001011111
00111100000110100110100111011101
00111100000000100100110010101000
10111101000011111001010110001000
10111011010001010100000010001101
10111100101100011000001010001000
10111100110101000010011111000110
00111101100010011011000100000001
00111101001101110010110001111011
00111011100001111101101010001011
10111101100101000100011000110001
10111100110111110100010001100101
00111011111011000011001000010101
00111011101101001110000101001100
10111110000001100101100100111100
00111101001010001100111011111100
00111100100000011110010001010101
00111101011110100111100111111001
10111101011011010010101000011000
00111100001110000010001110110100
10111101000001011000101010111101
10111101100101001000101110101001
10111100011011000100000000000000
10111100100101011101001001101000
00111101000101100011011000000100
00111011000010001111110110011001
10111101000100000110100111011001
00111101000111011011101101000000
00111101010000010100110111000011
00111101000101110101011101111100
00111101011101011111000101010101
10111100110000000110011101100110
00111101010101111111000101011100
10111100001001010110010000001010
10111100111011111110011100011010
10111000110100100001100001110010
10111101100011010101010010010011
00111100111010010001100100010011
10111101001110000010010111010000
10111101011001111000101001111010
10111100111010000011111011000101
10111100101110110101000110010001
00111011110011001011010010001111
10111100100101100101101110010111
10111100010110110000011001101010
10111101010111101010100010000111
10111101011101101001100001010000
10111101011110101101010000011100
10111100100111101010101110111110
10111101010100010110110111110101
10111101000001110001111001001001
00111101000011011001011111000111
00111100111001111110111101101001
00111101100110011100001110001100
10111101010100110111001100010011
10111011101010000000010011010001
10111101001100001101100111001101
10111100000111110101011001100011
00111101010111101101101011111110
00111101100011110001010000000100
10111101010100101111111000101011
10111101000111001110001111000100
00111100011010100001101110000111
00111011110000011001111101001111
00111011111010111111010111110001
00111011110100000100000101100111
00111100100101011100100010110111
00111100101011100001110000100111
10111100100000101101001001000011
00111100001010111111111000111011
10111101001010110011011101001010
00111101001011110010100101001101
10111100110011000011111010110000
00111011011101110111011011001111
00111011111101011000001000001000
00111011010000111111010101111101
00111100001010101111011100101101
00111101000011111011010100101001
10111011101110010101101001100010
00111101011101100101111000000100
00111100001101110110010100001010
10111101001000101100000100110100
00111011110011100110000100101111
10111100101111110100001010010011
10111101100000100000110100111010
10111100010001000000001111000001
10111100000010100000011110101110
10111101100110010110101010000000
10111010110011010100101101100011
00111100110000110010111000110100
10111101001000100010011011000011
10111101010011110111111000111101
10111011110000101100010101000111
10111100100011101100110100001011
10111101001011111011000101110101
10111101010100001001111011101001
00111100111010001011110101100110
00111101001101001101001001111010
00111100110011100001011101010100
10111100001001011001000100101101
00111100111000111110100000111111
00111010100100111001000101100100
10111100100100100001111010101011
10111011100101010111010001010010
00111101000000010111111011000011
10111100111111000010111010100111
00111100011011101011001000100101
00111101000001001000111101000011
10111011101100100011110100001111
10111100111010010010100111011110
10111101000001010000110101011000
10111100001101011101001000001100
10111100001011011011100100001101
00111101011001100001100101001101
10111101000100000000110101111010
10111101001100011110110110001100
10111100010100010110010000000010
10111101000010101010110100010101
10111100100110100101001001010001
00111100110001100010111111011101
10111101011010000111000001111110
10111101100101011010011110000101
00111100101000101110001011010111
00111100100110101011100011010010
10111100100011000101110000101001
10111101010010100010000001100011
10111100111011001011111111010001
10111101000010001001111100101110
00111100100000011111000100001001
10111100101011010100101001110011
10111100001111101101110100110110
10111011011001011101100111111100
00111011100101101001100110011011
00111100100011100001110101001111
00111101000110001001100111010111
00111100100110000110000011110110
00111100011011001100001110101100
00111100110100000011111011010010
10111011001110100010101000100111
00111011101100101101100111001111
10111010100001111100000101011100
10111011001110111110111100101000
00111100101001110001001011001111
00111100111100100110100100010101
10111100001111011011011001000010
00111100100100101010010101010110
00111011100110101001101000010110
10111011111100010111110010011100
00111101011000110100010000000010
00111011100001111000011110011101
10111101011011111111010100000000
10111101001001000000000110110001
10111101101010001010110111101100
10111100110101101100000110001111
10111011100100101111110110100101
00111011110001010010100000100101
00111100100010111111111010010100
00111101000111010100111101010101
00111011110110010011111111101110
10111101000011100101100010011010
10111101001101100111101000111011
10111010100111111011101010111100
00111101000001111100010101111100
10111100010101000100111011001100
00111100110110101011111111101110
00111101011100010111101010010110
10111100001011011101000000001000
00111101100001100010010010011011
00111110001001010101011000001010
00111101111101110010001010110111
00111100101001011100011001101011
10111100010100000001010001101001
10111101101100100110111110001001
10111101001001111000100011110000
00111100101111000001100111001110
10111010110011110000101010010111
00111101000011110111011010011100
00111100011010011011010011101000
10111100001000001100000011100000
00111101100111010001110111101011
00111011111110011001000110111011
10111101001011111011011001111001
10111101100101010001111000000101
00111101101000011011001100110011
00111101010000100110101001110011
00111101011000100100011111101111
00111101100111011111100100110110
00111100000011110001000010010110
00111001111101111111110100111011
10111101000100010110011110101010
00111100111011100001101001110001
00111100100101101100101011100010
00111100110000100101011000110011
00111101101011100100001100000001
10111100000010100111011000001010
00111100111100101010110010111001
00111101010010111001101011110100
00111101110000101110001111101010
00111101000100100110100011100000
10111100000111011000011111111101
10111100000100111010000010111000
10111100011101001000000011110001
10111100110000101010011000111101
00111100010101010001110011010000
10111011110001110010001010101000
10111101100000111011011010110111
00111011011001101001011010101011
00111101000000001011110010100001
00111100000010101101000110001010
10111100111000101110011000011010
10111100001010110011111101011000
10111101010010011010110110010101
10111101000110110100001111101110
00111101010100101011001110000010
00111011101100001111101111010001
00111100000010011100110110110000
00111101000110000100011100111000
10111010110110101000001010001010
00111100111000111000010000001001
00111011111011001010011101111110
00111101000101100000011111011010
10111100110010110101011110101111
10111101011111001001010000101111
10111100111000100101111101111001
00111101010111011010001110010011
00111100010101011010100110111100
00111100110001111011100011110100
00111101000001111011110011111001
00111100101101101010111101011101
00111100010000010100100101000110
10111100101110001101001011011111
00111011111011110101110011111000
10111011001010010100100100101111
00111101001001010011010011011111
10111100100011000111011100001000
10111101000111010111011101101010
00111011000000000101100101111100
10111010111010110010100100011001
00111100100011001101011011010101
00111010110001011000011110001111
00111101100000011101011000110010
00111101101010111000100111000110
10111100101101010100111100100100
00111100000000000110111111111010
10111101100101011110101010000111
10111101010100100100010000000101
10111101100001101110101001011001
10111101101001000011010000011110
10111101100011101100011110100111
00111011110101011110110111111101
00111100111111010111111111001011
00111101000001101111010001000000
00111011111111101111001010010111
10111100011111001000011111010110
00111100010101000001111101011001
10111010111010110110111001010010
10111100110010011011011111101011
10111100000110011000011100101011
00111101000011010001101101101101
00111100101100000000001110010111
10111101000100111001010001110111
00111101011011101010011000010101
10111101000000111011001011001101
10111100001111001010011110001110
00111100100100110110000000001011
10111100010001110010010001010101
00111011100101001110101011010100
00111101100100111001001001101110
10111100101110011011111100010111
10111001011000001011110000011010
10111100111001000101011011001100
00111101010100011110101110100000
10111100100010000111110111000111
00111101011011000101010001111111
00111100011000011001010100011111
00111100011111111100001101010111
10111100010000011110111000110100
10111011011001000000111111101110
10111011100000110100110000000001
10111101010000101001101110000001
00111101000000010011000101011111
00111100110010110100001101110100
00111100111000011001011001101100
10111100101100000000010110111001
10111101000000000001010100000100
10111100100011000000111011001011
10111100011101000011101011110010
00111100010000101110100010111011
10111101010110110001011011110110
10111100110111101010001100100110
00111101001100101101111111000011
10111101001011000111111111001001
00111101000011001000001110101000
00111100011000110001101010011110
00111100100000001010111010111011
00111101000100101101100101111011
00111101101000101111110110110001
10111101110001000100101100111001
10111100010011000110000011101111
10111101100111011101001010101001
10111100110010110111100100110110
10111100000110000101101001010011
10111100011001101010011001100101
00111101001110001110011011001100
10111010000101101000010100111111
00111101001110010111000111100001
10111100011100010000110111000000
00111101010100000011100011011100
00111101100000000100011000000010
00111101101100101101110110000010
00111101010011100110010110100110
10111101000010001111010000011100
00111101001011000001101000111010
00111101100011111100010100001100
00111011110110110101100010100010
10111101000111001011001010011000
10111100110011111001010110100010
00111011110101011000000011010100
10111101010011001110010000111110
10111101011000100000010011100101
10111101010101010110100110111011
10111101011001010100101011011101
00111010100011000101111100011111
00111011000111111011110110011110
00111100001000001101110001000101
10111100010001100011010100010101
10111101110010010011001000001010
10111101000110100100100100100011
10111101010000110101110001001010
10111101000100110101001111111001
00111101010010001001100100011100
00111100110001111111000111100011
10111010100110011011001011111110
00111011111110000010010001011000
10111100000011000100011110001110
00111101001111100011001101000101
00111101010010111010100001011101
00111011101101110110110100110001
00111100000001001110100001010001
00111101001000000011000010101010
00111011001001101100101011101110
00111100011110100001101001110100
00111100101011011001001101010001
10111010111111011100011001100001
10111100100101011110010101001011
00111100101101000111111110011011
00111101000110100011100001000001
10111010110100110110010010011001
10111101000110101101001110111111
10111100000110101010011011011010
10111100111001111000100000000110
10111101000010100100111111110011
10111101000101111001101010100000
10111101000101111001110010011001
00111101100110001000110001000001
00111101101100001100110101000011
00111101001100100100111110101010
10111101101000100001101111010110
10111011101010111101110010101110
00111100101100000000000101111000
00111101001000111100110011100101
00111101000110111000101010110010
00111100110010011010011011000010
10111100111110111100001001000011
10111100101000000100000011000000
10111101001110110010101000110000
00111101110001011101000111110010
00111101101011010000101101111100
00111100100010111010111101011101
00111100001000111111010001101010
10111100001000001000101010111001
00111011101001100010110000001100
10111101010110010101100111110000
10111101000011010101010000001110
00111100101100100011010001010000
00111100110101000111110110010100
00111100101101110001101000101011
00111100011011100010010111001110
10111101010111001011111011000110
00111101010001010110011011001101
10111100111100001111011001100111
10111010100011110000101111100011
00111100100111100011111101001111
10111011001111010111001110010010
10111100011110110010011001000000
10111100011100111000000111011001
00111100011110010000111111001011
00111101100001011100001011011011
10111100111100100111100000001100
00111101100011101000000011010010
00111101011110100110010111101001
00111101100000001000000001100110
00111101100110100111100011000101
10111101011110101101010011111001
10111101100011111100110001110101
00111101100101001011101111011011
10111100100100111001110111001001
10111100010000001001100101011011
10111100100011101101000011000010
00111100000011010000011111000111
00111011100100011000000001010110
10111010111100111010100111010001
10111100111100010111010001111111
10111100001101110100011010010001
00111100010011101000001100110011
00111101011001110110100100011010
10111100110100011011100001010101
00111100101011001100011101111011
00111101000010000101001101001101
10111100111111001000110100011100
00111101000101111110100110000100
10111100101100111110101101001110
00111100111111111011110011101001
00111101000111010110110111010000
00111011011111111110110100000111
00111101001100000110010001110010
00111101001010011101110010001011
10111101000100111111111010001110
10111010110101000010011001111100
00111100100010000101011001110001
10111101110100100111000000101001
10111101101000110000101110000010
10111011111010011100111101001101
10111101100000001010010001001110
00111101010000101011001001001110
10111101001111111010000100110111
10111101101100111110101101001100
10111101001000110111010110100000
00111011010010111000100100110101
00111101101001100001110000001101
00111100111100010000100011100110
10111100001000000111101011110100
10111011001011111001000100010000
00111100010000100010111001001011
10111100001100011110100101100100
10111100110010001100011100001101
10111100100000000101101100101100
10111101000001001001111110001111
10111100000100001001100001001011
10111100101000011110000010010110
00111101001111001011100010111111
10111010001111001111011110010101
00111101010110100010111101101011
00111101010101010010000100100001
10111100100101100111100000100100
00111100101100001000010100001000
10111101001010111111111111101011
00111101001011010010001010110011
00111100100011010100110100001100
00111100011010100110101001001001
10111100011100100001110001011100
10111010010010001100010100001111
10111101011100111000100010101011
00111100011001110110011101011101
00111101010110100111101011110110
10111101000010001100000001100110
10111100110101100000110110100101
10111101101111101100101001011111
10111101110110100110111010111010
10111010100100000011100011011111
00111011011001000001111101100001
10111011000100101111100001100100
10111101011011100100010110100000
00111010110101010000000000111001
00111101001011101011010010010111
10111010100111101000101000000101
00111101101110111110110010011111
00111101110010100001100000101110
10111100010001110010110111010101
00111100111001010000011101100100
00111100101110000111000000111001
00111101000001111101100010110011
10111100100010010101001110111011
00111100000100110110010011011010
00111100010011100110110001010110
00111100010111000100111100101101
10111100111110010001011000110100
10111101000111101011001100101101
10111010110010100010100110100000
10111001111101100100110111000110
00111101010000100000010111010010
10111100111110101000111000101110
00111100001011110101001101100110
10111101001110111001010010100010
10111100110101001111101010010100
10111011110110100001001001000001
00111101011010100011110110100010
00111100110000110001110100100000
00111100110011001001101000001000
10111101011111000110101010001010
10111100110000010100000011010010
00111100110000001011000000101110
00111101000000011001110011010010
10111100111011000110101010100111
10111011000100011100110001011011
10111100000100011111110010101010
10111101011111101111111110011000
00111101010001010001010100110001
10111100010110001001110111000111
10111101100000011000111010010010
10111101011101100000010000110110
10111101001000000011011010100010
10111101000101010101101010100011
00111101100100111111100010011000
00111100111111010111011101110011
00111100100011110010110010001100
00111100000010010000110011111111
00111011111000100000111111001110
10111101100001000010000000111100
10111101100100011100001100100110
00111100010010101111100111100001
00111101001011011000011011100001
00111100000110000111010010110101
00111100011001100101111101100101
10111100010101110001101001101011
10111101100101000000011100111101
10111011101011110000111011101001
00111101011100001011100010110101
00111001110010010110000111100111
10111101011010000000110001110010
00111010110011011000011110111110
00111100011101011010111111001001
10111100111011100100110111010100
10111100101111011100001110110110
10111101010001001011101011100110
10111100001111010111110110111001
00111100001001110001111100001000
00111100010000011010101110110001
10111101101010000110010001111001
10111011110101110011110100010010
00111101000010011001001110100100
10111010110000110001110101111010
10111101001011011011010010000101
10111101000011100110111100010011
10111100111100110101000001100000
10111100100100010110011000010011
00111101001001111110010110101100
00111101001101011101111010011010
10111011101101011110111111110001
00111100111111011010001010101110
10111101110000000000001101111111
10111101100100011010010011010110
10111101101111011110111101001111
10111101100110100001110000111111
10111110000011111011010011100110
10111100010000100011100011011010
00111101000111100110111100010001
00111101010100101001010110111111
00111101000100111110101110110010
00111100110101100111001101011000
10111101011110110110101010011100
00111100110100000001010110101110
00111100010111110100010011000101
10111101011011101101011010001001
10111100101101100001100101000000
00111100010110110010001000110010
00111100100001101000011101101100
00111101011001110101001111011011
00111100011100001011110011000011
00111100101101010010101000000001
10111101001010101000101011101001
10111101000100111101110110011100
10111100100110101010001000011100
10111100000111100110011011110101
10111100000000110010001010111010
00111011110010001001000010000100
00111100101100110001010110011101
10111100000000001101001111111110
00111101011011100001110110110110
10111100111000100101100001110110
00111100000111100110011000100111
00111101000010101011111011100100
10111010101111001000001011111110
10111010100100010000100010010001
10111100001110011111110001101000
00111100100000110101011000100110
10111101000010101111111100000011
10111100100000111100011011010010
10111101010101010100011010001000
10111100110100110111010010001011
00111011101111100100010100100101
10111100001111101110111001001000
10111101101000111000100011000101
10111100111001010100101110001010
10111011111101000001100111111111
00111101100011001111101100100000
10111101010000000110111101011110
10111100001100011000111101000110
00111100101011110000000001101010
10111101001010100110110000101110
00111011101101101100111110111100
10111101010011011000101011101110
10111100110110100001001110110001
10111100101000000100000001110111
00111101000110000001100100101001
00111101001110001001000100100100
00111010111011111000110011001000
00111011100010011011101001101110
00111100001000000000110100101000
00111011101000011010111001000001
00111101111001011010101101010001
00111101101101001011010011000011
10111101001110110010000101110110
10111100110111011010000011010111
00111100100100100101111001011110
10111100010111100110100000110011
10111101001001011101010011001010
10111100110110011001111100110011
10111011110110010101000001011011
00111100110011110011100000011010
10111010110101111000011100110000
00111100101011111011000100000001
00111100101000101100110000110001
10111101000100110100111111100111
00111100100011110010111110011111
10111011111110100111010111001110
10111101010000101000110010010111
10111100100111010001000111001010
00111011010110100100011001011100
00111101000000110101001111001001
00111101100011010110010000011100
00111100001001111001100110100101
10111101100100110000010100100100
10111101011100100110001101000110
10111101011101111011011001111010
10111101010100011110000100000010
10111101101001101110010111110000
00111100110010000100010100100001
00111100110111010001111000101101
10111100111001111000001100111000
10111100101000100111000010010001
10111101001000001111100100011011
10111100001111010010001100101111
10111100111111111010111011101110
00111100110100011001101010011101
00111100110001101100000100110010
10111100100001110101111001110101
10111011101110110000111011011000
00111101001000110111001100001010
10111011011001101111001000011111
10111100010011100011011100001000
10111011100110000000100110101101
10111100111101011111101111110010
10111100010101110010010011011110
00111101100111110101100011011100
00111101001011011001101010100101
00111100100110011100011011010000
00111110000011100111111010111011
00111011111011010110101001000101
00111011101111010010011110000111
00111100000001110101100000111000
00111100101101101111110001000101
00111100100011111001110111001110
10111100000100100100111111101111
10111101000011000011110011110001
00111101010110101110110000000001
10111001100101110000000010111111
10111100110101001110001110001110
10111100111111000111001010100111
10111101010100011111111101000110
10111100111100000101011111001011
00111101010110111100100101111010
00111101100010010110010101011101
10111101100111010000111011110111
10111101011001111001101010010000
10111001101001011001100100110101
00111101000111000110010000011000
00111010011111100000111110010111
10111011111111100001100010011000
10111101011100000110010111111100
10111101000001100101011101000000
10111011100011110111010111000100
00111100011111010000001010001100
10111101100101101011011111110000
00111101111010010000100011100000
10111100110001100011100001110100
00111011100100111100000000111110
10111100110100111101000110101010
10111101001001101101110001000101
10111101000010110010001100011001
10111100101001010100111111101110
10111101011101001000111011010111
00111010001011111010101001000000
00111100101010101101001011010110
10111101000100010110101110110000
10111010100111101110101011010111
00111100001010100010101010100110
00111100110000000000101001100111
00111011011010100000100010011000
10111101001001111011100111111101
00111011001100001000000100010001
10111101100110111001110000111111
00111100001111010111111010101100
10111011010101101000010101100000
00111100101100110011011001101111
00111100001101000101011110111101
10111101000010001100010000010111
00111101000100111111011000001110
00111101000000101010010110011111
10111101101100001010101110001001
10111101000100100101000001010001
10111100110011010101100100101101
00111100000010100110101001010101
00111100010101110100011001101010
10111101011100011101100101000101
10111101011001100000010111010100
00111101000011000111110110100101
00111100100010111100010100000001
00111100101000101100110111101000
00111100011000100111010111100101
00111101110001000000110000010011
00111101100001011100000110101101
00111100110100000010010000000110
00111011110001001010110001000001
10111100110011111010110001110011
10111010111100110111101100010111
00111100110011111001001110101000
00111011010110011110111000101100
10111100101011101110100100111100
00111100101011100100000111110001
00111100101001111011000001011111
00111101010111100001011100011110
10111100100110000010011001000010
10111101010010100011001101001111
10111100101111101000111001001001
10111100000111111101101011101100
10111101001110100101011011000011
10111101100011110100010100110000
10111100001001100110010000101111
00111100100111100001110111001101
00111100101100000010110000110000
00111100101110000100011010111110
00111011010101011000101110100111
10111101000001111011010111111110
00111101011001000111101000000000
10111100011011001101100000101010
00111100001110101111001000011101
00111101000100101100110101100010
10111100100111100000010111100001
00111100000111010110111011111011
00111011001101110101110001000010
00111100011011110011101010000101
00111101001101111010100111000001
00111101010001000000011010000000
10111011011100110011001011000100
10111101100101010101010011111000
10111100010011101000101000000000
10111101100010111100000001001110
10111011111101111010001001110110
10111100111010000101011000110011
00111101000101111111011100011111
00111100101001010010110011001101
00111100100101010001101111110011
10111101001010100000000111011111
10111100011110001010100000111011
10111100101000001010110110101101
00111011010100110100001100010100
10111011110000000110011101000001
10111101100000100101010100111011
10111100010100001101100110010000
10111100110101000000101100010001
00111011010100001101101111000110
00111100000111101110110010101111
10111100100111111101011111110100
00111100111001011001011111011101
10111010010000101001000001010100
10111100001111100001001100010000
10111100101000100110010110111101
00111100111110000010111010010100
10111011001100101111100110001011
10111101010100001101010010111000
00111101001001111100111001011001
10111100110011011101101011010010
00111101001000101001011101011111
10111101100001100110100101010101
00111011011010100001011001010001
10111101011000111011110110111011
10111100101111101101101011000111
00111101000110010100110110101001
00111100110101011000010100100100
00111100110111011100001110111110
00111100000001101110001110100001
00111101100101001000101011110101
10111100000100100101110110011001
10111100001001001000100100110110
10111101010101111111010001000111
10111101001100010111000101110010
10111101000101101110100010100100
00111100100001100111011101100000
10111100100110010111010001000110
00111100010110011000111101111001
00111100110101010100000010000110
10111100100101001010111111101011
00111011100010010001100111110111
10111011001110010001111110111110
10111100101000010000101101001101
10111100011011001111110110011111
10111100000100010000101000110000
10111101010010001101000100010100
00111100111000000101010100011000
00111011000010000101111100010010
00111100110111000101010010111101
00111100100011000000100100000101
10111101000011001000001110000110
10111100101110111101111000110111
00111100101001101111000000111110
10111101010011110111011010111011
00111100011101011010101010001011
10111101100110101011110010101011
10111100111110001111101010101001
00111100000011110010110110000111
10111100010000001110111001101001
10111100111001101011001111111101
10111101011111111110111110000000
10111100101101100011100110011100
10111100100011011001100011101000
10111101010010011111101110001010
00111011111100000100101110000111
10111011001010101011000101011101
10111100110010110100100000010000
10111101101011010001101000010001
10111101011100000111111010000001
10111100100000101001000011001101
00111101001101001010010001000110
00111101000000110011001011101101
00111101101001010111010011001100
00111011000110000010101000000010
00111101100011101001100010101001
10111011000111001101100100000000
10111101101000101010001011101000
00111100010101111111010101110101
10111100100010100100111000100110
00111011100111110111001111011110
00111100000000101111100100100000
00111101100100100001101000110101
00111101000011110010101111110111
00111101001011101010111101111110
10111011111001101101101000011111
10111101000011000001000010000010
00111100101010110010000111001100
00111100010101110000000101110000
00111011001011011100111110110010
10111100110000111101011001010010
00111011011110011010000101010110
00111100100010100110000101100001
00111101000000101110101101100100
10111100100000000001001001010100
00111100101001000001001000100100
10111100100011010011110011100011
10111011001010001001101110001111
10111101000000110100100110001011
10111100001100101011010001010000
00111100110000001011111010001011
00111101011111010000010101111111
10111100100101101001001010100000
00111011000100111110011101100010
10111011001100001011100110001001
00111101000000010001110101111011
10111011001011001011111101001011
00111011010110100001010011000011
10111101000000000101001100101010
00111101001111100101100110000010
10111100011101101010011100100110
00111100110110111001111111011000
10111101100100011111101111011001
00111100010110001100000110010000
00111101000011100010010011010101
10111110000000100000010000001010
10111101010100010011111100111101
00111110000010111000101110110000
10111101011000000001010111000110
10111101100000011101001001001111
00111101101110100011000001100011
00111100010011010110001101110101
10111100000010011010011010011101
10111010111111001101101101000001
10111101000010011011111110110110
10111100110101001111011111100110
10111100001100010101010000000110
00111100101100000000010100001011
00111101000001000110101111110011
00111100001100110001100000101000
10111101011001000000011100010100
00111100100100000101010011001010
00111100011011101000101001111011
00111100111000111000110100011000
10111010111100011000101010110110
00111101000010010100110000110111
00111100101010110101010110011111
00111101010001110011100011110100
10111011001000100101111001010100
10111101011111101110101001001001
10111100100100101111111100110111
10111101000010001111010100000100
00111011110011001111010010001101
00111100011011101110101010110000
00111101000101011101001011100010
00111101011010100011101000111000
00111100111000111011010010111011
00111101101000000000000011000110
10111101001001110000010001010000
10111101100101000101111001100001
10111101101100101001101001101011
10111101101011000100010101101100
10111100101110000100000101001010
10111101011110001110011000100001
00111100111100100001011100111110
00111101001010000110100000101000
00111011110011111100001001001011
10111011110110101001011111010100
10111100000111001111101001000000
10111101011001000101010111111000
10111100000100010010111011000110
00111011110101110001111001000110
10111011100101000110111011011010
10111100111111110010011001000010
10111101000011000111111001101110
00111100010101101000111100110100
00111100001111111111001111000111
10111101000000111001110011100010
00111100110101011000100110001001
00111100101000110001011010010001
10111101001111100101111111011111
00111010111101001111111001001101
10111100111100001011100011011111
10111100000010101110101100011101
10111100011011001000101011111111
10111100101110001111100111011010
00111000111111100101000110110000
10111100101001110111100000101000
10111101001110011000111101111110
10111011111011110011111010111101
10111100110000011101011001110110
10111101001100100000001100100000
10111100000111111101111011011101
00111101000000001000100001001000
10111101011011010010101101111100
00111100010001011111011111101101
10111101000011110101101011011010
00111101001111000010010001000100
00111101001011101000010010101101
00111100111101001000001011000011
10111011101010011010101110101001
10111101101000101101101101101010
00111101010111000001100010101000
00111010100101100001101111010000
10111101100100101111111000101100
00111100110010110000110000001101
10111101001001001101000001101011
10111100110011010100011111011110
10111101011001100010101111000011
00111100101111001011100000000011
00111101010001000010100111101110
00111100111011100011010010000011
10111011000100011000101000001101
10111100111001100011101001101010
10111101100000101000111110111110
10111101010101001110101000101110
10111100000011001110010011010001
00111100101000101010100111110011
10111100101000111000101011110010
10111011011100000110101100110100
00111100100010100011001111100101
10111100110101001110110011001101
00111101001000010011000001010110
10111100110111100000000111011011
00111011110001001111001100111001
00111100111101100000011000101100
00111101000100010010101000110000
10111011100011010111100000011001
00111011100110000101100110110000
00111101100001101111100101101000
10111100101111001000110111110010
00111000100000010101100011111110
00111100101100101001000010100001
00111100100101101111110101010011
10111100100101011111010011010000
00111100110101100011101011111100
00111011101000100110010000001100
00111100010101111000111101010011
00111101100001000000010011000110
10111101011100111010111011111010
10111100000110111010001100100101
10111011001111101001000101011111
10111100110101011101110011110111
10111100010010111001001010011011
10111101001110011001000000011011
00111100000011011100001011101001
10111101011110000101000000010001
00111101100001110010111101111010
10111011111001100010011001110011
10111100010110101001110111011110
10111101100000011111101100100100
00111101101011100010001100110111
10111101000000110000100001110101
00111100110010111011111011111001
00111101110010111100101111010110
10111100110101100100011011100101
10111101000100011000011001101110
10111100001011000000000001000100
10111101011110001100000101011001
10111100100000100101100100000000
00111100101000100010100101101000
10111101000001110101010011110101
00111010101100000010001011011011
10111100010110011001010100001100
10111101011110110011111101010010
10111100000000101001110110001011
00111101001000000000001111000001
00111101001000010111111010000000
00111100110110110100110001011100
10111101000100010000010011100100
10111101001011100100111101100100
00111011000100001111111100100110
10111100100000000010110100101000
00111101100110000100001010100110
10111010001101101011101101000001
00111011111100111101100111001001
00111100100001101000110110111011
10111100111000110001000111101011
00111000100011111111110011001001
00111101000100101100001101100011
00111011100101101100000011001110
10111100111111001101011000000100
00111100000100010001110101101111
00111100100000101010101110110101
10111100001001010000101001101100
10111100010101010010010010110001
00111100000110111100001000111010
10111100100001001101101001100101
10111100101000111001100100111100
00111100110100011101101101101011
00111101001001001010100000001110
10111011111000101101011101000100
10111100000111101101110000001010
00111100100010111110000001111000
00111100000101011001010010101001
00111101001100001110000101011010
00111011100110010110100110001010
10111011000111111100101110111010
10111100111010011001110001001101
10111100100010111001010100000101
00111100110001011011011111100111
00111101001001100001011110110100
10111101001100010001000110110001
10111100111011000000011101011011
10111101011011100001011010101110
00111101010100110000011101011100
00111101000010101000110011010011
10111010111100101001000000011111
00111101000001001001001000011100
10111100101000001010101001000000
10111011100011110000110101011110
10111100010011111100100100000000
10111011010010010010001101110010
10111101010110111010110111110100
00111101000000011010001111010101
10111101001010111111010110000111
00111101100011011110110001010011
00111101001100001000010110111101
10111100000111100010111001001100
00111100001000101100001100010000
10111100101001011001000101001000
10111101001011001001000111111101
00111100011110111100100111101111
10111100100000110101100001110111
00111100110011100010111000110011
00111101100011100101001001110011
10111101001101000001001011111001
00111011010101110001100000100101
00111100011110111000000001111010
00111100100010110001110010100011
10111101010101011101000010100100
10111101101111001100110001001010
10111100110111100001000111011101
10111100010100110100101101010110
10111100100110001100001001001011
00111101000010010000100111010000
00111010011111010000101110000101
10111100010100011100000100001011
00111011010110100111110110000101
10111100010110010000100000000000
10111101100111111000111000111010
00111101000000001100001000010001
00111100100000000010110111101010
00111101011001101010110110110110
10111100101001111110111001111110
10111100110010100100110110000000
10111101000100100100011000100111
10111100100011111111110110010010
00111101000101001011100110011100
10111100101111010101000011010101
00111100110000010101010011011101
10111100111110001000101001110111
10111100010001111010110000101100
10111100111011001001011000110001
00111100000011111110100010010101
00111101001111010100010110001110
00111101010010110000110101110001
10111011111110010000110101110111
00111100000001000010110100010101
10111100111101100010000001110111
10111100111010000111000111011000
10111011100111111111101101111011
10111101000111100110100001111001
00111100000000111101100100001011
10111100111110101110001001110011
00111100111001000010000110010100
00111100011000100000001000000001
10111100111000111011110110011101
10111101011111011001011011010001
00111101000111001101001111111100
00111100100111000100100100011101
10111011111100110010000001011001
00111100101001100010000011010001
00111010011000110111001100111011
10111100001111011011011111010110
10111101000011100100110001101010
10111011101101100101010001010010
00111100010000000011101101001000
10111100010011011100110011010001
10111100000111000000000111000100
00111100110010000000101111001110
10111100101010011110110001111110
00111011111100110101000010111110
00111101001110111100000110100100
10111100010111000010101100101101
00111100101110101111011001101101
00111101010110110111100101001001
00111100110000010010000101111110
10111100001001111111100100111010
10111100100001001011001000000110
10111101001001001100100010000010
10111100100000101011001010001110
10111100011101111010000010010000
00111101001010000111000110001111
10111101011100001011011100000011
00111101100000100000111000110000
00111100011100100001100111100110
10111100011010010100101110001101
10111100101100001110100000100101
10111100101110011010111000000101
00111100010010110110101111010110
00111011001100000100001010100101
00111100001100100101100110100110
10111101100101000111100011111010
10111101000111000001100001101010
10111101100010001001011000000101
10111101000011111101101010011001
00111100100101001010011110011001
10111010010000111110001110010010
00111101010111011011010000010100
00111101000101111100001111001011
10111100101011111101011110001110
10111100110101001111100111111000
00111101011000100001010101101110
00111101000010011110010010001011
00111101010011010110110111001100
10111101011111001001011111111110
10111100111110011101010011110010
00111101101100111010001011101101
00111101100010110011001011101101
00111100001111110011101000010000
00111100100001100110000101011100
00111100001000110110000110000100
00111100111000110001011100010010
00111011110001110011000010000100
00111100101000001011001010101111
10111100011001110101111110110101
10111101001110110010100101101010
00111100100000001001011011011110
00111011011111001101110110111000
10111101000111110110001011010001
00111100010111010000000001111000
10111101000000010110000010000000
00111101010001110011100011000101
00111011000010100110001001101100
00111100100110001000010010010110
10111100101000100001110011111000
10111101000100100011011001110011
00111100100000100111100111011011
10111110000010011101111000100010
10111101101111011000100100110101
10111101100101100110010000101101
10111101011111111101010011000100
00111100111000110111100110100000
00111101010101101110011011101100
00111101011010111011100011110100
10111101010011000010011111110011
10111101100100101110100100110101
10111101101001110111001110011111
00111100100111010011001001111011
10111100101101101000111001011101
10111101010101010111001110111011
10111001100000000101101100010001
00111100110110001010110010000110
10111100010111011111111100001110
00111011101110101110011000111110
00111101010011010001011101001010
00111100111001101110011011010000
10111100110100100001010010100010
10111101010101010011001101010011
00111100100011010101000001001101
10111101100000101001110101101011
00111101000100010110111001110110
00111011000101010001101001110000
10111101010101000000001110111111
10111011110110101010110011010011
10111101011000001100110101110011
10111100101001100111110101000101
10111110000010100101101101110101
10111101110010110110101110011011
00111101001001101001001000101110
00111101001010110100111001110110
10111100101001001110111110001101
00111100100010101111111100010111
00111101001000011111011010110111
10111100110110011101001000111011
00111100001101000111001001000001
10111100111101100011000101010100
00111100111110011100111001111011
00111100111000100101110011000010
10111100100110110011110100000110
00111100111011010111011100001111
10111101010101110110001101111111
10111100010101111000010110001111
10111101101001111000100111100011
00111100111111011000100010110111
00111100010000011010101000110101
00111100110011101010101010100101
10111011100101011110010000100001
00111100010111110111111011111110
00111101001010110010000111110011
00111101010100101011101100001100
00111100000011000011011001110010
00111101001100010010101110001110
10111100000111101011001010010111
00111100011011100100000010100101
00111101001111111010100010100000
00111100101100111011011100110100
10111100110000010000000010110000
10111100010011000110011110010010
10111011000010001001110011010001
10111100110111100111100111010110
00111101000101001100100100111110
00111100111011011011110001010111
10111101001011010101010001101100
00111101001011011100010101000001
00111101101010100010111000100000
00111101100100101001100000010011
10111101000011111110010101010110
10111100010111111110110100101010
00111011101100101101101011101101
00111100111101110010100000000101
00111100001111101011111100110101
00111101100101010011100100101011
10111100001110010011111000100010
00111101011011111000001110011111
00111101000011000011011101001010
00111100101110000111111001001101
00111101011011111001100000000100
00111100111110101111101001101010
00111011010110000001110000101001
00111100001000110000001101100110
10111011110000100111000100000011
10111100100100100110101110110001
00111001101001000101001000100101
00111100100101001010111110011101
10111000000100100010101010011100
00111100101011100111110100001111
10111100100000011011001010011000
10111010000001100011101000110000
10111100100010011110110101010101
00111101000011010000011000111000
00111101001110000001000010100011
10111100111111111001101101011000
00111100100000100110110010011000
00111100101011100001111001100011
10111100110111100011011111110000
10111100100110111111110110011000
10111100110000101110010000110011
10111101010101110100001001100110
10111101010001101100110110010000
10111101100001000011101101011110
10111101001011000110011001011110
10111101011101011000100110100100
00111100100001010100100010101001
10111100011100100001111011011011
00111100001010000101110100001111
10111101001011100010001100001000
10111101100101000001100011100011
10111101000110101001111010101010
00111011111010001110000110001011
00111100000100011010110111001110
10111100010010111010001011100000
00111101000101010011000000111010
10111100111101100101000111111111
10111100001000001000000001010011
10111100001111110001001011111110
10111011111101010010101001000101
10111100100111010000100001010010
10111100101111101010000101000110
00111011101001001100000001110000
00111100110001100011011001000001
00111101101011001001111111111101
00111100111110101010001100101001
00111101001110110111010001110010
00111011100011111001010101111101
10111110000110010101000111100001
10111110000011111000000001100111
10111101111010101111010000110101
10111101001111011111101100110101
10111101000110011000011001011111
00111100011000001010101111010110
00111100010100111011110101100011
10111101001000110111000011101011
10111100001101111010101110100111
00111101100001011100010010100000
10111011011001111011100101101000
10111100101111001110101110011110
00111101011001100100111101000010
10111100101001111110111000000011
00111101001000000100000111011010
10111100111110111000110000101010
00111101000010111000101010011001
00111100000111011010101110000001
10111100010001011011111101110010
00111011010100001111100001000100
10111100001001001101110111101101
00111101010100001111001110010010
10111101010100101010011111010110
00111100000010110010100101001110
10111100001110101011011011010011
00111100101100001111100100010001
10111011100011011110000110101101
00111100111000011111001000111010
00111100010010011000001001110110
00111100110100000100000000110100
10111011110110011110110101010000
00111101001100001000000011100010
00111100100010101011000111010110
00111100001110100010011111011011
10111100110100111010010100101001
00111011001110100100010000110000
00111011111110111011101011010110
10111101101001000010011110100100
10111100101100100111100000101100
00111101111010101111110101101101
00111011111010110000010001010100
00111101101010010110100110011101
00111101010001111110111101111011
00111100110100110100000100001000
10111101001010000000101011001100
10111100001001111001111111110010
00111011010111010111110000010100
00111101001001001110110001001101
10111010110011110110000000001100
10111101000110101110000000101111
00111011110001110010110001110101
00111101010100101110100100011011
00111100001010001001001011101001
10111100101101001111111000101011
00111101000000100011111101011011
10111011010110111110001110111010
10111101010000000101001001000011
00111010000111001111000011011010
00111101110100111000111010010110
00111101100011100110101101100110
10111011110000001010011100001000
00111100000100101001100001111111
00111101001001000011110100011010
00111101000101011011110111010000
10111101000100011111111111110111
00111100110100101101111001011001
10111100111111101000110010011101
00111011100011011100100101100000
10111101011101011010110101010000
10111101010000110110101001010000
10111011110001110101100111001000
10111100101010111101100000111100
00111100111001111101000010111011
00111101011001001011110110010100
00111101101000110101100100100000
10111100001010111010001101010110
00111100100010010010100100000001
10111101001000100100000101000011
10111100100000000011111010111000
00111101000101111011001100100111
10111101011001100110101110010000
10111011111100000110000011110101
00111101000001101001010011100011
10111100001100010001111000110000
10111101001001001000111101010001
10111101011011001100111101001111
10111011010001000000110011100000
00111101010001001010110100110101
00111101000101011011100100010010
10111100101111100001000010111011
00111100110000111111110100011111
10111101100011110100101000110011
10111011101111011000100011011010
00111011011010011011010101110111
10111101100001001101101100101100
10111011101000110100101001001100
00111100100110000001001000010001
00111010011011011010001000111100
10111101011011001111110111110110
00111100101001110000101100110110
10111100111100110000100110010010
10111100011011001111110011100111
00111100111110100111001110101010
00111011100101100101011110110011
00111101011000010110011000111110
10111101011011010101111000110000
10111100101010010110000001010010
10111101000101101000111111100011
00111100110110011000000111000111
00111100001101010110101111101001
00111100010011011100101111101111
10111100110110111100000010110000
10111100011110000001101110001010
10111100100010000010101110111101
00111101000011101010101011101000
10111100101010110011110100110101
00111011101000011111110000011010
10111100011101010111101100101001
00111101001111010010000100000000
10111101000010011010100011111110
00111010110001111101111100011000
10111100110011111111010111111000
00111100110111110100011110111111
00111011101000101000111111010101
10111100000010110011001001011111
10111101000101011011100001011001
00111101000010100101100101011101
10111100100110101001111101110110
00111100111100110001010100101010
10111100110010011111011111110000
00111100111010010101000010000000
00111101011010001110111110001100
00111101001010111011011000110000
10111100111100011100100010100010
00111101000100101110111100010100
10111011011001001100010100111000
00111100000101010010011111001000
10111100101000110011000101111000
10111101001011101010000000110011
00111100100011100000011011101010
00111100000010000110010110101011
00111100101100110000101000001101
10111101011100011110011101111001
10111101011110001000111001110101
00111101010011000010010011001011
00111100111000011000010000111101
00111100111010010110100011101010
10111101000001111011011000000000
10111101000010101011111100111101
00111100100110011101000000111000
10111101011011101100111000001100
10111101000101000010100010110101
10111101110011011010111100110010
10111100111100101101100110010110
10111101101111000010001000000001
10111101100011110001011011000011
00111101011101000010100110000100
00111100010110001010101010011110
00111101001001011110110001111010
10111001010011101001000100010000
00111100000110110011010010011110
10111100001110100010110100101101
10111100101000110100000011100110
00111101101001100011100100001011
10111100101001100011001101010100
00111100001011101010001111110111
10111101101110010001010011101100
00111101001011101100011001011111
10111100000110101101001011011011
10111101100110101110000010100001
10111101100101110000010111010001
00111101001010011011011011110110
10111100100000000110001110101101
10111100111100001000011100110100
10111101001001010001010000101001
00111011000110001011000000111101
00111100111111110000111100011101
10111100110001100000101011001000
10111100010001010100110101001110
10111100101101101100111111010110
10111011110010001110111101000000
10111101010000011011110110011110
00111101000010011011110011111000
00111100110110010000101000100000
00111101010000000000010011111010
00111100100111100100010101110011
00111101100001011011101110111110
00111100101001010100000110101010
00111011100011001101011110100100
10111101001010000010001000001101
00111100111111011000000010111110
00111101000101001111100000101000
10111010001001111000000100100101
00111101011101001001001100001011
00111101011000001010111001001000
00111100100111100110001011110111
10111011110010111001001101100100
10111011001101010111000010100111
10111100000000000101000010100100
10111101001011110101100101010000
10111100001100000100110111111001
00111100100111000101001010010011
00111011100111111110111000011110
00111100010001000000110010111010
10111100100011011010010010101001
00111101011111111000001000111110
10111100000011100100011111100110
00111101010111101001100100011011
10111100111100001101111010100100
00111011110010100110110010001010
10111010110110100111010011110011
00111100111011100000001100101111
10111011000010000010110011001100
10111100110111111000010011100000
10111101011010010001010111001110
10111110001010000001001110101001
10111101100011111010000010010110
10111101110101001001100110010111
10111101010011000011011101101001
00111100110100011111111111011100
00111101010001101100110110000111
00111100101110011111000110011010
00111101010000110001000011010001
10111100011000010101011010100110
00111100100011100011101101011110
10111100000000111010101110101110
10111101100100001110010011010110
00111100001110001000111111111100
10111101110000010111000000011110
10111101101111001000000100101000
10111100000000000100110001101011
10111101101010010001010001111001
10111101101000110001010011000111
10111101100011110000010110000100
10111011100111000010011100101100
00111011011011000100000110000001
00111100001101011101001010100001
10111100001101000110100010101101
10111100000110001010000000010010
00111101111001111110110100101001
00111101000001011110100001100000
10111100010100111101110100001100
10111101101010000110111011111111
10111101100111011001010010100110
10111100010011010111110111110100
10111101001011001000111101010000
10111100101101111111000011000101
00111100111111100001101011100111
10111010101000001100000001110000
10111101000001000011010111110100
10111100111101111100000001101001
10111100001111000100000010010101
00111010100010101110101100101010
00111100101111110010011000110100
10111101001101111110100001001011
10111101000110000001000010110001
00111100100011010010000001001001
10111100100001101110101101011011
00111100101101100011011101111111
10111100010000000110101000001001
10111100011100111001100000011111
00111100110001101010110111001011
00111100100010100010010000101000
00111101010101010100011101011101
10111100001110011110010110110011
10111100101100101010101111011101
00111100111110001011000000100000
10111010001001011111000001111101
10111101100010000000011110011100
10111101011100101010011101000010
00111101001100010000011011101010
00111101010001101011010010000111
00111011111011010010011111001110
10111011001101000100000111000000
00111100000101100101000010110110
00111101011000101011100001000101
10111101010110111111000000010000
10111101111100000111000101011000
10111101011111010100000110100001
00111011011100100110111100000100
10111100000111010101111011011011
00111100111100010000000001101100
10111101100110100111111011111010
10111101011100110000011110000111
00111101010110000110111101001011
00111101010110111111000010110010
00111011101101001101000100000000
00111101010001101011000001001101
10111100101100111000000110111111
00111100100111000000011000111110
10111100000000010001000010100011
10111100111010001101111100010010
10111101101010101010000011100100
00111100000011101000001010110101
00111100101111100011101011001111
10111101000001000010011001011100
10111101101011111111111111111010
10111100101110110100001010001110
00111100000101010001010001110110
00111100010111010000001000101000
10111100010000111000011010001001
10111010010100001100101000100010
00111100111110011111111000001111
10111101001011111001111101101010
10111101001110001010111000100001
10111101001011100011110111000110
00111100110100110000111100110001
00111101001111001101000111000000
00111100111110010110101011001110
10111101001101011101100111001010
10111101010000100110111011110111
10111101010010111111101010000001
10111100100000000000010010011010
10111100010100001100110100100111
10111101011000001010101100110100
00111011001101110000110100110111
10111100000001011001100100111101
10111101000000111000111001101111
10111101000100000011000000111111
10111101101110011010000000001000
00111100100010111001101010010110
00111100010111111001010000100011
00111100101101001011001011110111
10111100101101111010001001000001
00111011111111111000101100111011
00111100011000111001100101000001
00111101001110000101000100111010
00111010011001101001000000100101
10111100101000100100101011111010
00111011010111110010100110001100
10111101000001111111010000110101
00111101010011000100011000111001
10111011111110111101001001000001
00111101000110100111010011110001
10111011101111111000110011100000
10111100110111111110110111000111
10111011011110011011111100100000
10111101001111011001110000101010
10111100011010010101001001001100
10111100101001100010111000011100
00111100011111010100001010011100
10111100110010001010000111011101
00111100000001001110100100101010
00111101001110100101101001111111
10111100100000001100010010001100
00111011111011011110001011010001
10111011001100101111100101100110
10111100111111110011000100110001
10111001111100011000100001010000
10111101010100000001111100100100
10111101001110011010101101101011
10111011000111001110110010001011
00111101100111101111001000101111
10111100100101101101101101010111
10111101001001010001011011001010
10111101010010101011010110001010
00111100111011010011101110000100
10111100101100001001011101110000
10111100101000110100001010011111
00111101110110111111110001101100
00111101110110101010001011100110
00111101101001000100011111010101
00111101011001010011000011100111
00111010000101101101100111010110
00111101001001000011010001101011
00111101100101010111100011001100
10111100111000100101100010111010
00111011100100110101101100111001
00111101000111110111011100111100
00111101001010010101000000011110
00111100010010011010110110101100
00111101000100110001100000110100
00111101100101000101010110001110
00111100101011001001011000011011
00111100001111001011001101110101
10111100100110101100110100011101
10111100110001000010100111000001
10111011000000000010010010111000
10111101000101011011100111100001
10111101010110111110000111001110
10111101001010111101111100101110
00111101011101010011101001011100
10111101001101111011101000011101
00111101011000110101110110110110
10111100111001111111000000111000
10111100110011110001010011101000
00111101011000100000011000100011
00111101000010001110010110101000
00111110000001000000001111001001
00111101011001111010000111110010
10111101010110000000010111000100
10111011100111001001111101010001
10111101010011100000100100111011
10111011001001010100010000111110
10111100100110101100001100000111
00111101000000101110101011110110
00111100010111111110010001100001
10111101100011100110000100101011
00111100100000110010011111101000
00111011011011010010000110100001
00111101011100011111111101000101
00111101000101000101110100011101
10111100111111101111111000101010
00111100100111001100011000101000
10111100111111011000001010010000
00111100001100000011011001001001
10111101001001100101001101101011
10111101000101011111011000100101
00111100101111101100000101111111
10111101010111100011010110011111
10111101000100110001001010100000
10111100001100001100100100011001
00111100100001011110000010110000
00111101010110101011000101101011
00111100001110000011000000001110
10111011101000011111011011000101
00111100001111110111100100001000
00111100110101101001011111001000
00111100010110100100101011101100
00111100101101110001000011010101
10111100001111100111010000110100
00111101011001100001110100100000
00111100010011011010011000111100
10111101100101001001010111101011
00111100001000110000100010111001
10111100011001110010110111000100
00111101011010001011111011110011
10111100101010101100101111011010
00111100001100001110101000101110
00111101010110111011001100111010
10111000101000101000011000001001
10111100110111001010100001100101
10111100101010010110001100101001
10111011111010111111110001110101
00111011111001001011000010101010
00111101001110011100100110110100
00111100110011110110100101110111
00111011111010111100011010001110
10111100011101011001000010010010
00111100100001011110000010111110
00111100110111001011100101100100
10111100100011010111110111011101
10111011111101111101001100001100
10111011111110001011111001101101
10111101000010100011001111100101
10111110000001110001010001000010
00111100100010010101100011011001
00111100111111010100100011111101
00111101011010000101111111010001
00111100100001001110100011110110
00111101100100100110010110101000
00111101011011000101110011111001
10111101011001110011010101000000
00111101010000011100000010001010
00111101001011100110010010011001
10111100100000001001100100100000
10111101010001000010000000011101
10111101100011111010011001001010
10111101100111000110100011111010
10111101111000001111000000100001
10111101011001000011110010000101
00111100100010010111100111001011
10111101010101000010011001111010
00111101010000101011101100100011
00111101100001011100111000111011
10111100111110010010100101001110
10111101100001000101111010111001
00111101000111100111111100101010
10111100000110110000011000011111
10111100101111001101010001010011
00111100000101111011111110010101
00111100110011001100111101011100
10111100011101010100100100011101
10111101000001101111010000010000
10111100000001001001111110010010
00111101001011110100101000100110
00111011111110110101001010100101
00111100110001010001001001111101
00111101100000110010011110010110
10111101011000011010110111010011
10111011110000000101100010010011
00111100001100000100101010000110
00111100111111100101001110111111
00111011010010100011011111110111
10111010100000010000111010111110
10111100000101110011001011111101
00111011100010010011000110100100
10111101010110111000011010101111
00111100100100110011010111000100
10111011001110100010010101001010
10111100101011100101100001101111
00111010011011011011100010110011
10111100011011000111111110011110
10111101000100101011101001110111
10111100110100111100001111110011
10111101101100010011111011010111
10111101101010000110111000010111
10111101011001111010100111111011
10111101000010101110110010100011
00111101001001100111110101010100
00111110000100110111110011110100
10111011100001100100001010100110
10111101001101011111111111000011
10111100001110100111010011111011
10111101000010001010100001110001
10111100100100011100000011001000
00111101011001101111001010001100
00111101010010110111101110010100
00111101100100000010010100010001
00111101010101000100110101101100
10111011100010100001111100011001
00111101000101000011110010101110
10111011101110000000011111000100
00111100101011101001111100001011
10111101011000110101011011101100
10111101110101110110001011110111
10111101001111110100010000101000
10111101011010010010101100101000
00111100101010010011100101001001
10111011110011000011010011110000
00111101000000101000110100001010
10111101001010001010110110110110
00111011100111000111101101001101
00111100100011111000000001100100
10111010110011010001011011010001
10111100100100110000001011110001
10111101101010000000000010010000
00111100011010000001000000011000
10111100111101010101110011110101
00111010011011100111100010101111
10111011110000101000110001001111
00111011111111011000010110000001
00111011110111010001111100000011
00111100011000110111001001110010
10111011111101111000110110001001
10111101011101111101010111001111
00111101000111000100110010111010
10111011111011011000000001110111
10111100000101101000110001100111
00111100011011001010010010101101
10111101000111111100001000000110
00111011001011001100111010101111
00111101001111010101011001100000
00111101010110011011111110001010
10111101000110101000010110100010
00111101010001011100110110001001
00111101000011001101000010110011
10111101001000001110100011011111
00111100110010001110000100000101
10111101001000100011011011010111
00111100110110001111010011011000
00111100100111010111110001010111
10111101001000010000011110011100
10111011111111110001011110100011
00111011101100110100000100111001
00111101011011111101110100010001
00111100100111011000111011101101
00111100011101110100110110101111
10111101011011100011011111101000
10111100011011101001010000011101
10111101000001001011111011100110
00111100100111001011110000011110
00111100011110010000110010010100
10111100100000101000110000110010
10111011101111001000001010100101
00111100110001011101100111011111
00111011100010000001001111001101
00111100100101111101011000011111
10111100100001001010101000000101
10111100000101001010001010100101
10111100000100000000100000010101
10111101000111011100011101110101
00111101000111000100000001000001
00111100010100111100011010001101
10111011000001110010000000101110
10111101010001001000001100101111
00111011101010100001101001011100
10111100101011001111110110011110
10111100110000111110110011010011
10111101100010010011111010000101
00111100110010010101001100000100
00111101000000101101110110110001
10111100010001110100101001101110
00111010011101111110011111010001
10111100101111101010001101110111
10111101000010100111100101001100
10111100101000010010100010001111
10111101000100101101011111110111
00111010101000110001110110000011
00111101100000101010000101110101
10111100000101001010100000100100
00111101010110100011000011011000
00111101000011100000101010011011
00111100110111010110110001001111
00111100110001111111100010001110
10111101000110100000100110111011
10111100101011011111000100010111
10111101001010100100100010001001
10111100101000011111011001000110
00111101100010111011101111111000
10111100110110000100101011111011
10111011110000101111010101001010
10111100001011000100100111011011
00111100110010000000011111100010
00111001111101011001000011111011
00111100100100101011010001100001
00111011101000101010000010011001
00111101000010111010100100000101
00111100110111110100101001011101
10111100001001011101010010100100
00111011101111001000000101110010
10111011011000011011101110000110
10111100010010010010110010101011
00111101110100110101010100001110
00111101001101100110110010100111
00111011111100010001100011010110
10111101010111000111001111101011
10111100100101001010000011101110
10111100001000101100010000100011
00111100100011100000010011101001
00111101000000110011000101110111
10111100111000111111111111011111
00111011110111010001110011110011
10111100100010000001010100000010
10111011000101010111100110101000
00111011011000000010101011001010
00111100100110010000011101110010
10111100000001111101011010110101
10111101000010010011000101000101
00111100111101001011001011010101
00111100001111000111101111011111
10111101001100011100110101000011
10111101010001111110100001111001
10111100101100001011001100011010
00111110000001011011001011111000
00111101100001110001110100000010
00111100111100000010000110010011
10111101001000101111010111101100
10111100000011010010010101001111
00111011111101011000100001100111
10111100101110001100101000100000
10111100101001110110111100100110
00111101000011010000101100001111
00111100110110010100111001101011
00111101011110001101110110111100
10111101011100101010001010000101
10111100100011011000100010001000
10111100101111100100000011111001
10111101100011110101101001110001
10111101000100100110000011111101
00111101001000110011000011111010
10111100010100110011010001010100
00111100110101100101011011111110
10111011011100101101110100110100
10111101001000001111111000000110
10111101000010111000110110101001
10111100100010110010000101111101
10111100000000010010011001101000
00111101011000110011110000010100
10111011011101100101011101010111
00111011001110010001000110001011
00111101001010111100111100010111
00111100100100001000010011101110
10111100111111010101101100001010
10111101100111111110000000101111
10111101001100101010011001101010
10111101011000011010101100101010
10111101101101111010010011110000
10111100111100101111011111101111
00111100010110010101111111000010
00111100010011111001001101011011
00111100010011010101100111001001
10111100100011101110100110010010
00111100100100010011111100011000
10111101001011101110100111100001
00111101111010011111000001001111
00111101110001011011110101000000
00111110000110011011111000010110
10111101001011001011100011111011
10111101000110100111101101000110
10111100110101010001010111101010
00111101001000101001011110100111
10111011111010110001000111100000
10111010101101111001011000011111
10111101000010101000101001111000
00111101000101010000010010010011
00111100111111110100011100100010
10111101000111100111100110010011
10111100110100100010110100011110
10111101001101011111100100111101
10111101000111010101011010010101
10111100110011001110100110010110
00111101000001001100100011111011
10111011111111111100001111000101
00111100101010000001011001111011
00111100111110100101001101100100
10111101010101010110111011111010
00111100111000110011100011000001
00111100001000001011100011101011
00111100110111110110111110111010
10111100111101000101000100100101
10111100101011111111011001111100
00111101000001001010101001100011
10111101010101111111101010011000
10111101011100100001110110110111
10111100101000101111101110111011
00111100110110100010001000110101
00111011110100100110111001111000
00111100100011000011001101111011
00111100110001001101001001100101
00111101010100101000100010100000
00111100010000000010010001000111
00111100001100010101010111100100
10111101001100001011001111110010
00111101001010110010010011111001
00111010101001101010011011010010
00111101110000011110001000000011
10111101110000110110001111011111
10111100100010011001010101100111
10111101100010101010100000011000
00111101011001101111010101101110
00111100001110001000001000011000
10111101010100100111101101010100
10111101001010100110001001000001
00111100100111010001000101000001
00111101001000000010101111101010
00111100101001011110101000110110
00111011110010100100111101000100
00111100100001000100000100101100
10111100101010011011001000101100
10111010101001010001100010001111
10111011100100100000001011010101
10111100011110001011001100010101
00111100111100011101110011001110
10111100100011110010001001100100
00111100011110001011001001010111
10111101010010111011001111111000
00111100010101111000000111111111
00111011110001000101011010101111
10111101001101110010001101110110
00111010100010101101011111111010
00111100100101101001110000100100
10111010110000011001101110101111
00111100100000010010001000000110
10111011111001001100110101101110
10111010110101010101100010100011
10111011000101100110011001111101
00111011110111100001011110111111
10111101011010101110001011110000
10111100101110001111001111110000
10111100011011001011001100100010
10111100110101111111000011000110
10111011111010101001000011111010
00111100111010010001001010110011
10111001011111010011111111100000
10111101000100010001101110010011
00111011110000101011010100000101
10111100110101000110010100100011
00111101001111011111110011000010
00111011000110100010001010111110
10111101001001111001111100110011
10111100111111000001100011001010
10111100110100010011010100100011
10111101000001101100001001100101
10111101001110010010010000010001
00111101100010110111111110101001
10111011100001011011000001001111
00111100111001101000101011101011
00111100101000110010111001001101
00111101011010001001001010110000
10111011111010001001101001110011
00111100110001100100100110010101
10111101000001100010111010010001
10111100001011100011101010111010
00111100101101011101010111100010
00111101000000001011011010110010
00111101100111100101001100010111
10111101010110111000101101010001
10111101100101001011111100010111
00111101010001010110101111101110
00111010000001111000011011111100
10111100110110010100100110011111
00111011100101100000001011110111
10111101011001000010000101111101
10111011010000111001111100110010
00111011000000111111111011100110
00111100101000101100011001001110
10111101101011100101101110001001
00111101000100000111111011011010
00111101000111011111011100100100
10111100101100100101100011000111
00111101101001010100011110011010
00111100000110100101111111101000
10111101001101011111000101100101
10111101000010001011011111001110
10111100001111011100000001001000
00111100011010110010011000101010
00111101101010001011100010010101
10111101011110001101111011110110
10111101000100000111100000101010
00111101100101010100101100100101
10111100000010101011100110010111
00111101100010100101010111111000
00111101001101101100001001011101
10111100001010111101001111100011
00111100111010101010000001101000
00111101011001100001010100110101
