10111101001101110101101101011000
10111100101111011101011111100001
10111101011111110001001001000010
00111011110100000001111011110001
00111100001110100011110111010110
10111101100101111100001101010000
10111011101111100001001000111000
10111100010110001110001101100010
00111100100000000110100111001000
10111100110001100100000010010100
00111100101000101100000101010111
10111011001011011101101101111010
00111101101011011100110100010111
00111100001011011110110111111001
00111100001110001101001111011000
00111101100010001011110010111011
00111100101101111000100000000000
00111101001111011111111011000100
00111100001010001110011110011101
10111101100100111011010001010100
00111101011000100011001011101000
00111100101101111100100001010010
10111011110110000001100000011100
00111011110100011100000110101101
10111100110000111110111101101110
00111101010001100101101100011100
00111101000101000000101110101110
00111101100000111000011100000110
10111101001100010010101010011101
10111100110001011001110100000100
10111101011100110010010100100101
10111101101011100111001010001011
10111101100010100111100101000011
10111100010100111100110100010000
10111100100111111000110111011100
10111101011111100110010000110111
00111101011110110100001100111000
00111101011101010000101001001100
00111100110011000110111001111110
10111100110010001101111111000010
10111100100011110010000110000011
00111101011000001010011100011000
10111100100011101011100001101010
00111101000011000110011001100100
10111101010010100110010000000111
00111100111101000111101010100100
10111100000001011100010110010111
10111100110110100110010010100011
00111100100010111010011101000000
00111100010010101111100011111011
00111100010001000011110101010100
10111011111101110101101110110010
10111100010110110010010101000111
10111101100001000001010110011011
00111100100100111000111000110111
10111101001011100111110010110100
10111100110111100000001001110011
00111101001101101011111111111000
00111100101001010011001001110001
10111100110110110011111000101010
10111101101010101011111001110001
10111011000111001010111110010110
10111101100010100011010000110110
00111011101100001001101100111011
10111100101010001001100010111100
10111101100001000101001111011010
10111101100000101001010011101111
10111101000000111011101000000011
10111101101111011100101100100011
10111100110111111001110000101001
00111100100100101101100001001011
10111101011011101100001110001000
10111101000011001011010101001010
00111100100111111000011111001011
10111100000101000111111000110100
10111101010100001011110001101111
00111100010101001100000100011000
10111101000010011001100010011100
10111011010110110100011000011010
10111100010101111110011110011000
00111101010000111111100101111111
00111101010010111110011010001010
10111100100100010011010010010001
10111011110111110010100110011000
10111101010011010110011011111101
10111001000000100000010011111101
10111101011110110010010011100100
10111011111010000010000010101100
10111101101100110111100111100000
00111101011110001000100000000111
00111101100101010001111000101110
10111101101111011011110001111101
00111100001000100100100011111000
10111101101010110110100000010101
00111101010101100010100011001001
10111101100010110100011110011100
10111100110011101011101101010000
00111100010011001100110110010010
00111101001100101110011110101001
00111100110001100110000111110111
10111101011000010000100101010100
00111101001011111010011100000111
00111101000101001100101100010101
10111101100111100101011011010101
10111101011010011010111111000011
00111100110101011101000100100011
00111101011010000001011110011000
00111101100000001100100110001010
10111101100010101100000010111111
00111100101001011000101001101110
10111101101111000111110001000111
00111101010111110110101001000000
10111101001011100111001100100011
10111100010010101010100001000111
10111101000010011010101101010001
10111101100001110101000010100001
10111101101110111011000011010011
10111010111000101000110101100101
00111010110111001110101011101101
00111101100000101111110110010100
10111101010011100111101000110001
10111101011011100110100010001010
10111100101100100100011001000011
10111010001001011111010011000001
00111101011010010100000100110010
10111011110101110000011000101010
10111100110011110100001111001101
10111101100011111110100100110000
10111011100010011100111101110001
10111101000001111111100010110111
10111101101100110001110011111111
00111100111000001011010101001001
10111101100100011100110000111000
10111100101011101110111111000100
10111100010111101001111000011111
00111101010000000111010010100100
10111101000100001011000000000011
10111101101000100110101110001001
00111100111101111101110101101111
10111100110101011110110100100001
00111101000011101110011110110110
00111100110001001111011111111011
10111100001100100110111000110010
10111101011010000010110010101001
10111101000110110111101011100100
10111101010101000100001000001110
10111100110011000110100000111111
10111100101100101010101111101111
10111101101101101101011000010111
00111100111100001011011110010110
00111101100100110110001101100011
00111101000010111010011101010111
10111100101000111010110101100001
00111101001101001111111100011101
00111101011011010101100000111111
00111100010000100101001011001000
10111100110001001000000010000100
00111101010001111010001100010011
10111101101110101010011000000010
10111100111010111000001101011101
10111100011101101011101100101111
10111100100001111101101111111100
10111100101010010011101100000010
10111101000011100101001111011110
00111101100000011101001111101110
10111101011001001101111111011010
00111100000001000001001110111000
10111101100111010100100100101110
00111101000101011001100001110010
10111100100011110011000111010011
10111101010100111011100001011100
10111100101000010000111000000101
00111100111101001000001001011010
10111011100010001111011110011011
10111100111101001101010001111101
10111100100011101001111011001111
10111101011001001001110101100101
10111100101010111111111100000100
00111101000110111101100011110111
10111101000100001001001011001000
10111101000101110010011100000010
10111101100010100001010000011101
10111101101101110001100010010000
00111100101010000000011011111101
00111101000000000110011111101001
00111101100111111000100111010101
00111101000110100000111110101010
10111101100100100100011011110001
10111100111111100011010110010101
10111011110101010010110010000001
10111100110100011011101010000111
00111101011000001110101110110001
10111100010110000101010111111100
10111100010000010111100001101001
00111100010010100100111110011101
10111100000110011100001100110011
00111100111010100001111000011110
10111100111110100100101001010110
10111100101110000000010011011000
00111101101000101011010000010010
10111101000010101111101000111000
10111101011010000100001011001010
00111010101001010011111100101010
00111100000100110011010001000101
10111101000001001010101000001000
00111011011110110011111011011011
00111101010011000101111111011010
00111011101011010000110111110111
00111101101110011000011110110010
10111100011001111111010101010111
00111101001011110100101011111001
00111100101100111100110011000101
10111101100001101001010001001110
10111101001101011100111111111000
00111100101101101100001011100110
10111101011110001001011000101100
10111011111110101111111001010001
00111101100110110110110110101101
10111100111001010010100100001110
00111011110101100000100001111011
10111100010000110010001101111101
00111100011010001000001001011011
00111100110110001010011110101000
10111011100110110100110101100001
00111101100000011100010011110110
00111101010000110111001111110110
00111101100010101001011110110001
10111100110010101111010111011100
00111101011100000111001000011101
00111100100100110001011010110110
10111010100010101001111010000111
00111101100001100110011100001000
00111101000000100110011001001111
00111101001101110110101010101101
00111101100100011110101010111010
00111101101100001110010010101010
10111010100100101001101111110111
00111101001110000101010101000110
00111101100100101000101001011110
10111101000001000100111011101110
10111101000011101110111010111100
00111100000011011100000110101101
10111101011101011111110100100110
10111101100010101101111101100001
10111101100111000111001001111100
10111100111001111111101111111011
10111101010010101011111011110000
00111101011110111011110011111011
10111101010100000110011100000100
10111101101000010100001100010111
10111000111011100000100010010110
00111101001101101011001000010000
00111101010100001001000101100010
00111100101110001110011000010110
10111101101010100100110001010001
10111101001001000101101011111110
10111100010101011100001100111001
00111100110111111100100111110001
00111100100111000000110110010100
10111100000110011010010011011011
00111101010010001101101011001001
10111101110000001001001111110011
10111101010110101101010111111101
00111100011001010010101110110111
00111100100111011100111100110111
10111101011100000100111010110001
10111100110001111011011100101011
10111101010000010101000000010001
10111011111100110010111001011001
00111011000111101011011111111001
00111101101000000111100101100011
00111101001010001011000100000110
00111101010111111110100011101010
10111101011101111110010101010111
10111100001001101011110011100011
00111100110010010000101110101100
10111101010100101000011000110110
00111100110001000110101111110101
00111101100101000101000011100011
10111101100010010101001010101000
10111100010110100011011101000000
10111011110111110111011110101100
10111101000010010100001010110100
10111101110111101010011010000111
10111101100100110100101010001010
10111100000000101001000001111011
10111100111110110001001101011011
00111101010001110001101000000111
00111101100101011011001110111010
10111101000010111100111000010010
00111100100010101001011010110000
10111011111010110010111000101101
00111101100000000110111011011000
00111101000111011010111000000111
10111100001100011110110101000001
00111101011001011010100101111010
10111101010100111010100111101110
10111101000011011010101100101101
10111100111001000011011111110011
10111100001010101000100001010100
00111100000011101000101010000000
00111101101100110100111110111101
10111100110111000111110101000010
10111101000100110010110010111110
10111101001111001001101101001101
00111101100100010101000000001011
00111100011101100111000000100100
00111100111000110011100010001111
10111101100011001011111000011010
10111101000000111010101010100110
10111011101000101011111000101111
10111100101100111111100110101101
00111100000000001010111111110011
00111011110100110001110100110010
00111101101001101111001000000101
00111100110000010001011111010111
00111100111110101000011111010100
00111101000111111011111000101110
10111100111010100001010110100010
00111100111101111010101001110000
10111100011100100010110111011001
10111100010011000100000010101101
10111100100111101011110110101100
00111011010110100101001010000101
10111101100010010001111111101110
10111100011101111011000111101100
10111011010101000011000001100101
00111011000111010000110100000110
10111100110100100100000001000110
00111100001010001001001100011010
10111100100011010111000011001011
10111100100010101100101001110011
00111100000110101010000101000011
10111101000010111000111001100010
00111101010101100000001001100010
10111100110010100101011001110100
00111101011111010100001000011010
10111100011111000000011010101000
00111100110111010101010000000011
00111101100000010011100010101010
00111101011011011001001010000001
00111101100001011000100001001111
10111011101110000100110011011101
10111101000000011111101000000101
10111101100000110111001101000110
10111101011100010000100101110011
10111101000011011101000010000101
00111011110000001111001110111001
00111100111010001000111110111011
10111100001011001011100010001101
10111011000101100100101011100100
10111101011111110011011100001110
10111101001010111111100101011110
00111101100101101010001001000010
10111100001110000000000100011101
10111101001010000100000010000110
00111100011000101101100000001110
00111101100001001101010010111111
10111100101100111111111111001010
10111100110110010111100110011100
00111011101011110100111101111100
10111100101001000100011110000100
00111100110111000110010011100010
00111100101100000001110111011001
00111101010000101101000101011100
00111100011001111110001000001001
00111100111101100110110001110000
00111011111101111000111000010000
00111100100000010110100101001001
00111101001100010001110110010000
10111101010100011100101000110110
00111101000001000010000011001101
10111010001110011111000000101000
00111101001011011101100010000010
10111100111110111110001110111010
10111101011101111110100010001101
00111101001011100001101100010101
00111101000011010011111010010101
00111100111001110100010000001101
00111101101011001010010111010110
10111101010101010001000001001101
00111100101001011110001111100010
10111100111001011001111011011101
00111011111101110010110000001101
00111101011101000110110001011010
10111011001100110000101001100011
00111101010110010000011100001000
00111100101100010001110100101010
00111100000011011010010100101011
10111101001011001111110110011111
10111100101110110001111101111100
10111101011011000101000110010111
10111101001111100100100011110100
00111101000001010001000000101001
10111100101101111011110110111011
10111101101010100000011110000011
00111101100001101110101100100100
00111101011101011101110001100011
00111101010011111001011000100110
00111101100001011011111010101100
10111101011000110000000110110101
00111101010001010001100111000101
00111100111110100000001010100100
00111011110000001101110111100011
00111101000100101100011101110101
00111011001110111000001000000111
10111101011010100000011111110010
10111100011011000001001000011110
10111101010100011011001100110101
00111100101111111111011111011010
00111100111110000111011001011011
10111101000101011011100011110111
10111101001010010001101000001010
10111100100101111001101000011110
00111101011001010001110011001001
00111101010000000110101101110111
00111101000110011000101110101100
00111101010011110101111000110110
00111011011100101101110110110111
10111100010100000110100000011111
00111100111110010101111100001101
10111101101111011101011011100011
00111101000011011001000111110000
00111100111010011010100001011111
10111100010000100010100111100100
00111101001011111100101011000001
10111101001101101110011100000101
00111101010010100100010111010001
00111101101100001100101111010110
10111101101110101100100000011111
00111100001110011001011101100000
00111101100010110001010111111101
10111011111101000000110000110111
00111101100100011001111001000110
10111101000000100001101010000010
00111101100011111010100001110100
00111100100010000000101010010101
10111101100001000100101110101101
10111101000111011011101000010101
00111011100001010111110111011110
00111101010011000011100101000101
10111101001111010111000001010101
00111100011000101110111010110011
00111101001001111101111011111001
10111101000000000110100011111011
00111101000101111100000000001011
00111101101100100011000111101011
10111100001000101010001110011001
00111101010000000001100111101101
10111100110001110101000000010101
10111100101000010111111111101100
10111101001110001001001010111001
00111100110110100011000111000101
10111101000001100000110111001110
00111100111010000101111010100011
10111101001011000010100011111011
10111101100010100010000010111000
10111101000010111101011111001001
00111101001110001101111000101010
10111101010001010111101011110101
10111011110110100000011111111001
00111011111001000011101100010100
10111100111001100100100100010001
10111010100100101110011101010100
10111100010000110100010111001010
10111101100001000010111110111011
00111101001101001010110000101110
10111100110110001011010110000110
00111100001000101011010000000111
10111101010001101100000100011011
00111101000110110101000100100100
00111100101001101101000011110000
00111101000111010000000111100010
00111100001011001101101000101001
10111011111101001111111011011001
00111101001010011101110101111001
10111101010100011111000111111101
00111100100101011111100111000000
10111100110000010110110100001001
10111101100100111011010001010010
00111011101110001001000011001010
00111101001101110011101001100011
10111101000100011000110111100000
10111100001011111011001100101000
10111100111110011001100001111111
10111100010000011001011111001011
10111100101101001110000000100110
10111101010100101011010110010000
00111101011001011001010101100110
10111011110001110000011011111101
00111100110000001101110110110011
00111010101011111010110000011010
10111101011101010110101011110001
00111100111100000010001011001100
00111101000101001000110101010010
10111101011100011001110101011100
10111011101000010011011000111111
10111101000110001011110011100110
00111101010001101100011111100011
10111101110010001101000001111011
00111101010010110100110100001011
00111100100110100100110001001001
10111101100001111110000001100110
00111100100101101011101101111101
10111100110000100011001100110010
00111101100010010001101000100111
00111101001111101100001011111101
10111101100110011111001000010110
00111101101110100000110010101001
00111011110101010001101011110011
10111011101110111111110111000010
00111101101001100110110001111011
00111011100011010100110100000010
00111100100011010010010000011111
10111100100111111111110111111101
00111100101100000101010101000101
10111100111010111101101000110011
00111100100100011111111111100111
00111100100100010000100010010000
00111100001100011000000000011101
00111010010010010100111010100000
10111101101001001010000110011110
00111101010011111001110010111000
00111100111110001000000010101010
10111100101001011101000100010100
10111101100000010100101101001000
00111101001000011100010000010100
00111010111110111101001100101011
10111101001001011011001001000100
10111101001001111111100001100101
10111101101001000111011101000100
00111100111100101011011010111011
10111101010011111000000001011010
10111011111110111010111001000011
00111101011101110100011100110011
00111100110110110110011101111000
10111101000111011000101010010110
00111101000000011001010000100110
00111100000000110011101111001000
00111101100110111010111100111010
00111100101100001110101001111011
10111101010011111100011001111000
10111100111011110010001011001001
00111101111100001001111100010111
00111100101101100100101100010010
10111101001011110110100111111000
00111101010011000000011001010000
10111101001100100010110011001000
00111100101100111001001100000001
10111011111100101101100001110001
00111010111000110111011000000000
10111101000101100010100010000101
00111011100001011001111100100100
00111100101110011111001111110100
10111101000110011000100101000010
00111100011000001101010001000101
10111101010111110011101101000101
10111101000000110011001010000010
00111010101000010011010001010001
10111101110000101100011010010111
00111100101111010111011111110000
00111100101111010101000111011010
10111101001100111011101110001010
10111101011000110011010111100010
10111100011110101000000100001101
10111101010100111101011111101011
10111011110010110111110011111101
00111101001100000010100000110000
10111100101101011011111110111011
10111101010100011000101111010110
10111100101011100011111101011010
00111101100101100011011110101000
00111100000011100001100101011100
00111100011011010001110111010101
10111101000001110000010011000001
10111100001000011101100000010111
10111100000010010001011011101101
10111011101010010001001001101101
00111101100101011000111010010100
00111100110010101111110101000110
00111100000010010101111011000000
00111101010101101100011111011100
00111100100110100110110000100010
00111100101011101011111100100101
00111011101010100011110101111000
10111101100001000101100110000000
00111100010010011000101000111000
10111101001010010101100101001001
10111101001111000001101001111100
10111100100000000101111010110000
00111100110100100010010111010110
10111100111000101110101111101000
00111101001101111010101000001011
00111011110100101000111101111000
00111100001000010001101011010010
00111101000111111101000000110000
10111101000111010001000011001101
10111100101100100000111000001000
10111100101000111110010111011111
00111101000111010110010010101011
10111101000110110000101011111011
00111100111110011011101011100010
10111100110111111000010010010000
00111101001111010100001111100011
10111011111010111011010001011111
00111011000101111111000000011010
00111101001100010110010000011001
00111100000101101010010001000010
10111101101000110100110110110001
10111101100101000110100000001100
10111101000100100101011000100101
10111001100110111010000101001110
10111101100000111100011011110111
00111101010000010000001100001110
00111100111010011000010100011000
10111100110010111101100001100110
10111100001011001110011000001111
10111100011110111011011001111000
00111101000010111011101100000010
10111100110011000110100010000110
00111100001010010011000010111110
00111101001000100000011101000101
00111100011100000111010110100011
10111100011110101000000110001111
10111011110110011100001100101010
10111011010000101101010110111010
10111100010110001110001001100101
10111101100010111110001011101110
00111101100101001111001111100100
10111100110111000011111011000110
10111100001111000100010001000011
10111101101100011011101010100101
10111101010001111101001011001101
10111100000101001001001111010001
00111000100101010010101111101111
00111100110110011011110111000111
00111101011000000011011100100110
00111101001111111011110100111010
10111100110011100111111010101011
10111101100111000101100000000001
10111100000001011101110100001111
10111101111010000110110111011100
00111101100001001011011010100011
10111100100110001110001110001001
00111011111001110000101111101100
10111100001010101011100000111010
00111101010011111111101000111001
10111101100000100111111011100000
10111100100100110110101011001110
00111100100101010101101000110011
00111101011101000100111010000111
00111101000001100100001101110010
10111101011100010011111000010110
00111100100111001100111010000101
00111101000001010001010000010111
10111100101000110101101000011100
10111101011000101110001111101010
10111011010101000110011110101011
10111101000101111000011010011111
00111100100011010011011111110100
10111101000001000001011111101001
10111011110001101001100000100100
00111100111110010111000101111110
00111101100011011110110100000101
10111101011001010110100100001110
00111100100011010110111101001100
00111011101110100101111110001111
10111101010100011011010001111101
10111101001000000101010101010111
10111011000101100110010101010011
10111101101010111111100000001110
00111101011000000100101100001000
00111101011011101011101000101001
10111011000110001001100011100011
00111101010100100111111101001010
10111100111001110110001000111001
00111011011001110100110100001000
00111100000010100011110101001111
00111100111111100011011010010001
00111101101110011110001110111000
10111101010001001000110111001000
00111100001001010100010111000010
00111101000101111110000111001110
10111100111001010011000100101110
00111011100101100000101001001101
10111101000001110001110011011000
00111101001111000100110001011001
10111101001111101011011001110011
10111011111101000111101011011000
00111010111000001100111100101001
10111101010110010010001101001010
10111100110001110101011100000101
00111011011100111010010110101001
10111101100100110111110011010101
00111100111111010000010110110101
10111101101010100010111010010110
10111101000010101101011000011100
00111011110000011001111100100000
10111101000001110101100101010101
10111100101111101011010011000111
10111101100001100011101110100101
10111011111111000011000101011101
10111101101001101110010100111100
00111101000100111100000010001110
10111101000101010100010011001011
10111011011101101001101111111001
10111100000101001111110010100100
00111101001000110001001101001100
10111101001111010111100110001010
00111101010100100010000111101110
00111011101100100101010010010101
00111101001010110111000011110001
00111011000000001110111110011011
00111100001110011000011010010011
10111101011101101011001001000100
10111100101101010001100101100011
10111101001011000010001101001111
10111101101011111011011010000110
10111101000101000111000000101011
10111100010100010011001101101001
00111011100110001011011100000000
00111100011111010100010111111110
00111101010111101100001110010110
00111011100011110101011001110001
10111101000001111101100011000100
10111101110010010110001110100001
10111101000000100000110001101101
00111100001000101100000101110100
10111101000111000001000101010010
00111101001011100101000000001001
00111101100110100110011000111001
00111101000010111000110001100000
10111101001111100000011001111101
00111100111000000111000110001111
10111100001001001010010101011001
00111101001100011011011010111000
00111101101010010100101010111110
10111100010100111111001000111111
10111100110000110001011111000110
10111100000100100111000100101011
10111101011101011001100011010110
00111101001110000011101001011111
10111101101010011101001000011100
10111101000110110001100100111100
00111011000101010100000000110110
10111100101110011110011101000011
00111101010110010011111000111010
00111011011101000001011010110011
00111101001101110100000111101001
00111011101100011110011100001100
00111010101110001001111100100000
10111100110111010011101110111001
00111101101001001101111001111011
10111101010010010100001100011011
00111101010111000110110000101111
10111101001111101010101000100100
00111101100010011010011110110101
00111100100100110101110100110110
00111100101110001011100010011010
10111101000101011110010011101111
00111100001011100110001011111011
10111101000100101000110010010001
10111100110101000100111111111000
00111100110101010001111010101111
00111100000010101000110011000000
00111101000111001111110011000001
10111101101110000111010010110100
00111100100010101000110101001100
10111101010110100000110100110101
00111011010000011101000100001011
00111101010011101010101010011110
10111011111100110011100101000111
00111101001001001101000100111001
10111101010100111000000101100001
00111101011000000110111110100101
00111101101010111010110100011100
10111100010111000100010100110000
00111100010000011000111000110100
10111100100111100000011000100101
10111101001011110100110110010001
10111101011001001111011001101001
00111100100101101111000010001111
10111101101101100011001011000100
10111100100010111101101011001101
10111100101001011101110011011000
10111101011001010011000010111000
10111101101110110100101111110101
10111101010000100101001111001100
10111100100111010110111010110110
10111100101011011110001111111000
10111011110110100001010011000010
10111101010100000111100010110111
10111101010000000000010101010001
10111101011111100100100110011010
00111101001011011110011010010101
00111011110101110000100001100010
00111100110101000010101001001001
10111100101111011110011100000111
00111101000110010011111101011010
10111101000111000110001110001101
10111100011010011110000000001011
00111101001110100101101101110000
00111101011110011000110111001101
00111100010100110001000100101111
10111101000110010110010101111011
00111101010000011111100001000000
10111100110101010011101110010001
10111100000010010100000111000011
10111101011110110110001011001111
00111100101110011101010111110110
00111100100101000011101001011000
00111100001111100001011000110110
10111101000111110000100000100010
00111101100010110011000100110010
00111101010110111000011010111110
00111100101111000010100010101100
00111011001000010110100110010000
10111101101110101011111101101001
10111100001011010100011001111001
10111101001010001101101010100110
00111100110000100011101011111110
10111100101000000111010010000101
00111100111110100111011010001101
10111100100111000100100011110101
00111100100001100011001111001000
10111101100011101111001001000000
00111011000101011001010100100000
10111101100011110110110010010111
10111100101101000110111000101110
00111100100111111010111010100111
10111101010000000100111001110011
00111100101100001111011001011001
00111000110011001000001011100111
10111011111110100011101110001001
00111011000100101100011001100111
00111101100010001100101101100000
10111100100011011011001010011000
00111101011000010010010100110010
10111101101110000001001011101010
10111100111000011101011100010011
00111101000000110011000001110101
00111101010001111101010010011111
00111100101010100101000110011010
10111100100000011100000111111010
00111101001110000010101011001000
10111101010111000100010000011000
00111100101101011010010000100101
10111101101011010101001011000010
10111101101101000010010111110101
00111101101001110011010111000111
10111101100001011101010000001110
10111100110000100111011100100010
10111100000110000011111100000100
00111101011001101110101011001110
10111101001101010101011001110010
00111100000100000110001011100001
10111101000100110001010011011110
00111100010110010101011011101001
10111101010001110110000011111110
10111101000101111111010110011010
10111101100010111000001100010001
00111101000010100011001111110111
00111011111010110100011110001000
10111100101100000100000100110100
00111101011010000011100001010010
10111101010111011110111000000001
00111100010001111000111000010100
10111101101101110010010111111111
00111100101111110110110110101100
10111101101000100011011001101001
10111100010100101100111001001000
10111101000111011100000101001010
00111100100001001110011010010100
10111101100101111100011100101000
10111100101000101111101101110110
10111101001110001100101010001111
00111101100000011111010011011011
10111100010011000100000111110101
00111100111000010010110101001001
00111101000011000000110001010011
10111100100011111011001000010101
10111100010001110110000010011100
00111011100101101110000101000001
10111100110101001001110010000101
10111101100111101000101010000111
00111010011000001111011100011110
10111011100010100011010001000111
00111101100010111111011000111111
10111101001101110101110001100010
00111100111011000100110001100000
00111101010100111011101110010001
10111101100100000101100100100110
10111101000111001011111010111101
10111100100100000111111000110110
00111101000000110000110101110101
00111100000110110110101011000101
00111100000001010001101100000110
00111100111111101001011101111011
00111101101001011111001111110010
10111101100000001101100111111100
00111100100001001000100011011010
10111100000010000001000100101101
10111010110011110100100100011000
00111100101101100101010101101110
10111100100010001011011001001000
00111100011101110011011001100010
10111101101111010001000000100010
10111101010011011110101101101111
00111101001011011111000001100000
00111100010111100101011000111011
10111100101011000001111011101111
00111101100100111101000000010000
00111100100010001010100001110110
00111100111010000000010010100010
00111101000111001100100011100100
00110111100100111010110011101110
00111100000001101000001101011111
00111100100001110101011011010100
10111101010101001000001011111011
00111101010100010011000110011011
00111101101001000000011110011001
00111101000000000100101111000100
10111011101110101000111000011011
10111101101100110101101101011111
00111011111100101101010000010010
10111011100101110100100011100001
10111100111111111100111111110010
00111101100011101000100110101010
10111010101110110010101001111010
10111101100010001011000101100000
00111101101011001101011010001000
00111011110001000110101010111000
00111101000101111000101000101000
10111100101111101011011011111100
00111011100010011101000101101101
00111101001011010001110111011000
00111101000111011111011100101110
00111100110000010000000000001111
10111101000110111000110000010110
10111101101000011101011011111011
10111101000010011110001001111101
00111100001100111010011100000101
00111101011010001100100110111100
00111100110100000010101101100001
00111101010011010010011110010011
10111100000011110010010100111001
10111101100111110011001100111101
10111101011101010001010101101111
00111101000100100010011000100011
00111100000110111111111000011000
00111101000100011111110101100010
10111101001111100111100100011101
10111100111011000101011110110100
10111101001111010000000011100001
00111101010111101101101000100001
00111101100001011111001000101111
00111100101100000110100101110010
00111100111111010101010001101010
10111101010100101100100110111101
10111100100110001010010100100001
00111100111001100011000101110011
00111101001010011001010111010101
10111100110010011110010001111100
00111101011110010010110011010011
10111100000000111110010100111011
10111101010000001101101101110001
00111101010010110010010001000001
00111101100000000010101111110100
10111101000010010100010000010111
10111101010110001110110100110111
00111101000001000111000000110010
10111100011000010010111100010101
10111100011100001001101010011000
00111101001010001101000000101011
10111101101101001111100100010101
00111100111000010011010011100001
00111100101010101000111100010000
10111100010001001111101000011110
00111101001000011101010111110100
00111101000100101101110101001111
10111101101001110100000001100100
00111100000110010101001101111010
10111100111110010001100000001100
00111011000010001010100111111101
10111100010000000100110000110010
10111101001001101001111010010011
00111101100111011011001101110101
10111100110000000000101001001111
10111100101000111111110010001111
10111101000011111110000100001011
10111101000100001101110001010101
10111011000101110101100000010100
00111101010100001111001111100011
00111101010001100110111100101111
00111101011011001010101101100001
00111101010100011011101011000110
10111100111001111100100101000101
10111000011000011111010100000011
10111100110101111101000000110010
10111100100000010101011001000100
10111101010110001010110010111010
10111100101010111110001001000100
00111100111111100011111010101001
10111101100011010001001001001001
10111100100011000011110000100111
10111101101111111111011011101111
00111101010001111010011101111000
10111101100110001101001110010111
10111100111011110101111010111110
10111101011000100001100100100010
10111011101011100000000101000010
00111100110100110110110010010110
00111101010010100110110100110100
10111100011011000111101110011111
10111101011001111001001000001101
00111101101010111000101000110111
10111101011011011001000101110100
10111011011001111101011010110101
00111100001011001110000010101111
00111101001000100101001000011001
10111101100110100011000100000010
00111100111001001000000101111100
10111011111110011101000011101101
10111101010100001010010010111001
00111101100010100110101110010110
00111100100001001101000110000000
00111101000111000101110100110101
10111101001101001011100111001101
10111101100100110111011111110001
00111101000001011100101111010111
00111101000110000111010111100101
00111100110000110001100110000101
10111101011100010100011010010000
00111101011011100000001100101000
00111101011100010001001101101101
10111101000010011000010001111001
00111100101110000010010011101110
00111101001101111110111010101111
10111101010101110101101011100101
00111101001101100000101011101111
10111101100010011010110110110010
10111101010011001101011001000101
10111100011101000110010110111001
00111100011001110010110101011010
10111101001011101101000000000101
10111101000111111101001011101000
10111100110101000010000000100010
10111100111110110110011010001010
10111101001111010011011001001011
10111100110000010111000100110010
10111100010000010011101110000000
00111101011001111111001110011110
10111100111111110110101010011001
10111101101000010100001101011010
00111011111110010111011010000010
10111011001110100100000100111000
00111101010011101010001001001010
10111100000100100110011110011110
10111101001100011111011111010001
10111101110001110100001110010001
10111100100010101010000100011110
10111101011101110101011011111111
10111101100000011101110000101110
00111100101100011111110000101110
10111100111111110011001111110011
10111101011101111011110110000010
00111100110100110101100101101101
10111101100100001001110011010101
10111011101010101100010000110100
10111100111110010000000010000101
00111011110110101000111111100011
00111101101001000101111111001011
00111101010010001111000001101101
10111100100111101001000110110100
10111101010101001111011010011111
00111101011101111011001011110111
00111101100111000101011010011011
10111100100011000110110010000001
10111100110000000110010100100001
10111101001010100011101000011110
10111101100101001100111000110110
10111101000010111000001100100101
10111101100000101100010010100010
00111100101010000000101010111100
10111101011101100011100100100111
10111101011110011100111001111101
00111100110001000000110111000000
00111101000000000000000110001111
10111011011011101110001000010000
10111101100001000010001100100111
10111010000010011100101000010010
10111100100011010000011101101011
10111100110011011101011000001111
10111100110011110010000000001000
10111100110111101010100000110101
00111100101010111101100110001011
10111101101100010111101001011110
10111100110100011001111101010111
10111101100010101100100011111000
10111101010101101011101000111101
00111101100111011111100101000111
00111101010110110000011100001010
00111101101000011110110110101111
00111011010100100010011000000110
00111011010110010111001010101111
10111101001111010001101010001000
10111101011011010100101100101110
00111101100010011100010101011100
10111101000000001000100110011100
00111101101010111111000111111101
00111101000011111110010000001100
00111101100101000000110101011101
00111100100111110110111010110000
00111100110101100101111010000001
00111101000011100101001111110001
00111011101001010101100100111010
00111101000000101111101011100010
00111100111001111110011000001010
10111100100000000011011000001010
00111100110110111001111111101000
00111101100000111100000010011001
00111100011100110101110010011101
10111100110110000011111110101101
00111101100001111100111000011010
10111101100110101010100011100100
00111101100011000011100110001110
10111100101011010110011000001110
00111010000000001001110010000001
10111100101110000000110101100000
10111100100010010100011100011011
00111100101001001001111010010111
00111100110110001000100011101100
00111100100010010000110010001101
10111010101010111100011101110001
00111100001011101001100011111010
10111100100011111011100000000001
10111101010110011010011110010001
10111100000111001111001110110000
10111101100000100100000111111110
10111101100111100001000101001000
10111100110100101101111100100000
00111100011111110011010101101011
00111101100110111000100110101000
00111010110010010111010111101110
00111100111110100000011110001101
10111101011101100001110001101011
00111101010100011001100010110100
10111101100101000000011111000110
10111101100000110101101011011100
00111100010110010010000011110110
00111100101001101000101011101011
00111101010000000110110101010110
