00111101101011000110111111101111
00111011111101101100010000100011
10111100101011000100101110101000
00111100011110011101001010101110
00111010000000010010001001010001
10111100010000010101100111011011
10111100011101101011111000100001
00111100111000001101111000101111
00111101100100111110011010010111
00111100011010111010010011001111
00111100101000100011100001110100
00111101011110010100000101100011
10111100101100100001100110100011
10111101101001001000110101111111
10111100000001010011001101001011
00111100100111010011010100101010
10111101100000011010010100000010
00111100000110000000010001100010
00111011000101111010100010001010
10111101100011001001100111011010
10111101000000111111101100111011
10111101100110110100000011100011
10111101000011011010011100011110
00111100010001111010101111111110
00111101101000010001011001001110
00111100110111100000110011001010
00111101010010000001010001001010
10111100010111100100110000001110
10111100001010000100101000100101
00111100100010011000111100000100
00111100111001001001110011100100
10111100011010011110100110100101
10111101010000011101011101011001
00111101000101011100010011000110
10111101000101000010100000000010
00111101000100100111001111110100
00111101011111001001000110101111
10111101101100101100100010011011
00111000100011100110101010000010
00111011000010110101110000011001
10111101011000010100001101110101
00111101010110101100001111000101
00111100100000001011100111111100
00111100010100000101011000001101
00111101100001000001011100000100
10111011010101101100000110111110
10111100110011011110101010100111
00111101001011111000010011010110
10111100100110101010101110001100
10111101011111010110010100001010
10111011110011101100111000001010
00111010101101101100011101110010
00111101001011010111101000010001
00111101001011010001101110011011
00111100100100001000000101010011
10111011100010100111010001110001
00111101001000000011011110000100
10111100111011100011010001000111
00111100100100001010001000100001
10111011101010101101000101010110
10111100011011011111101010001000
00111101001101111111100011001010
00111100101101100110111101011110
00111100111110101000000111001110
10111101110010000001110011011001
00111100001010001000110000101001
00111100110010011100000010001000
00111100101000010001010010100000
10111101001001110100000101000010
00111100111000110110100001100000
10111001100110111101001000011001
10111100100101110010011011011101
10111101101100001010011111000000
00111101010001001000100000001000
00111100101101110000100011100111
10111100001100101001100010111110
10111100100101000110000010101111
10111101110000010011101011100000
10111101010000011010110010100100
10111011110100001111011101100101
10111100111111011011101001110100
10111101101000001011011001100001
10111101100010111010110011000111
10111101001100110000100100011110
10111100110001111000001000111111
10111101011111010001111000011100
00111101011001000000001111011001
10111011010010100100010000110010
00111101011111010010001001000100
10111101010010101001111100100101
00111101011010000111101101010101
00111011101101011010110100100100
00111101000011010011010001000110
00111101000000101010000100100011
10111100101000111101011000000110
10111101011111110110110100001110
00111101000111010001001111001000
00111101100100110000110100110110
10111100000110001110000111110001
10111011000010110100000000110001
10111011100001101110111011010011
10111101010011010001001000011010
10111011100001010000111010011110
10111011010101110011101100001111
10111101001000111000101011010111
10111100110011101000001101000110
10111101100010100011010100001100
10111101101000110010001110000100
00111101100011011101101001101001
00111101100010001110110000101101
10111101000100011000001101000001
00111100100001001111100111100100
00111101011011101001110101010000
10111100110011000011000000000010
10111010010001101000110011011000
10111101000001100101101101011111
00111100100010010000001111111010
00111101000101010011001010110110
00111101001101100101101111001011
00111101000110101110010010111100
00111100110000110000000011001110
10111101001000110110110110011010
10111011001100011101010110010001
10111100111010011101101101010101
00111101100001111010111010000010
10111101010101000110100110000000
10111101100000110111011011000111
10111010100101010000001111100100
00111101001100001010110011101011
10111101010101101101010000100100
10111100110011110000011010000001
10111100110100000101111000110010
10111101001101000000101010000001
00111100110101110010110010001101
10111100110001100101001100111000
00111100101101000100100010010100
10111101011101011011110010110111
00111101100111010010110101110110
00111100000111101101111000011010
10111100000000010000011101000000
10111100100010110010001110110000
10111100111101100110100001111001
00111101000110001101101010110100
10111101101111111101011010000110
10111100000010001011010101110011
10111101100001011101110110001100
00111100100101011110101111101010
10111101100010110110011110111011
10111011101010100111010000111010
10111101000100111011010101001110
10111101011001011010001011110110
10111101110011011101111000010100
00111101011101001000100001110110
00111010110001111101000110111110
10111101010101101011111101111011
00111010111000101001111001111110
00111101011000101001100010110110
00111101101100000000001011101001
00111010111000001011111110011001
10111011111110100011111000101111
00111100110001100110101111111001
00111100011011000010110010001000
10111100000000110110111110100100
10111101000010011110110100101100
00111100100100101110101000011001
00111101000001011101000010001100
00111101000101110010010001010110
10111101110101010000110111001010
00111101010100010010100000111011
10111100000111000000000011011000
00111101011111110111100011011000
00111011001000010001001100001000
00111101001100010001110111100010
10111011010100010101110001000010
00111101101100001001100001011011
10111011100111111100000011000001
00111101001011100100100100100100
00111100010000100101011110110000
00111101101010101011111011011111
10111100101011111111001001101011
00111101001010111001010011001011
00111100101001011100111101111000
00111101100001101100101000100001
10111101100010111001111000010010
00111101000010111010110010000110
00111010000101110011110110011010
10111001110001111100110101001111
10111100100110000001111011011001
10111101100111100000101110011011
10111101001010000000001000010111
00111011001011001111001010110010
10111101011000111001001000101001
00111101000111101110011100100010
00111011110100001110111110101000
10111100010001101111010001101010
00111101101010101011111010111001
10111101011010011011111100111000
00111100010000010000111000111011
10111011000111001110111010010000
00111101100100000010101110101101
10111101000011101010111011101011
10111011101111000001100110101000
10111101000101011101000100010011
10111101011110010000010000011010
10111011011001101101001011010000
00111100000010011101110110001110
00111100100001100101000011100111
00111100110011001001011111101101
00111101101001111110101110010011
00111100000110000001001100011100
10111101101011001101100010011110
10111101000001011011110011111111
10111101010100100110001100110011
00111101000110111110100011011101
10111010100001100010011100101110
00111101000101011001111110000100
10111101000010110010101100010000
10111101000100100001000001010010
00111101100110001011111011111101
10111100001101010100010000101001
10111101100111010011010010100000
10111101000110000010011100010011
10111100111010100001110111000100
10111101011111100010110111101010
10111101110000001001100010011111
10111010100111010101101000000101
10111101101101011010011011011100
00111100001010101110111011000011
00111101000111011101001111111100
10111011110111001000010001100010
00111100101010001000011100101010
10111101001000101111101101011110
10111100010101100100110001011010
10111101100001011011100101000111
00111101001100110001101000111110
00111100011011001110001111110111
10111101001001100101110100110011
00111011101001110001010011100001
10111101101100100001011001100001
00111010110010010101110011000011
00111100101010000010111101110000
10111101101000010011110001100000
00111100101111110001101000001111
00111100000011000101111000101010
00111100101011111010110001101111
00111101001100010010000101000110
00111101011011001100001101000010
10111010101101100011010101110001
10111100101010000011110000101011
10111101000101100001100100101011
00111101100000101100101101101011
00111100010101100000100011000101
00111100111100110011010100111000
10111101101111001001101110000100
10111100101101001111011010101110
10111100011111100111001100001100
00111011011100110110100001110100
10111100110101001111011010101010
00111101000111001011010011101100
00111101100000100101111010001010
00111101010011101011100011101010
00111101001010000110101000011001
00111100111011001000110111110011
00111100001010010110010001110000
10111101110000011001110011000010
10111101000010110001011000000100
00111101000010011100111000100100
00110111100111110110001101110010
10111100100000101010100101110011
00111101000111111000100010111101
10111100110010111010110011001101
00111100010110010100101001110011
10111101010111100111011100010011
10111101001111110111101101001000
00111101001010000101010110110101
00111100110011100110111010101010
10111101001110101000000111001010
00111100010111001111100010100000
10111100100000000011010111101011
00111100100011110010000100111011
10111110000000101111011011111100
00111011011010111010000010001111
00111100100001110010110000001001
10111100110000000011011110110011
10111101000100000011001000011111
00111101011001100011001101010111
10111001100111000001100100011000
10111101010011010111111101010000
00111101001010100001111110000010
00111010100110111110011100000100
10111100011001001001010001100001
00111100111100101011001111011000
10111100010001010100110110011101
10111011101101011111101110100110
10111101011111110110101110100110
10111101000110110101001010000000
10111100101100000001110000010010
00111010110110101011111101011011
10111011100111011100110010110011
00111100101101001001011110001000
10111101011011000010001100001001
10111101000001100100000011100100
10111011101110101000111010111010
00111100100111011100100100101110
10111100111001010010010001101111
10111100111101011101101110111110
00111100100101110001100000101110
10111101011011101001010011111000
00111101010001100011010110010000
00111101010001100000100011110111
10111100000001100011101110101110
00111011001110000010001100100000
00111100011110101110000011111110
00111101100011001101100110010110
00111101011100011100010101010000
00111100110000100011001111100111
00111100000000111110011111110100
10111101100011101100110010111000
10111010000001111010000011010000
00111101101001110101110111111000
10111101010101101011001000110101
10111100011111000000001000010110
10111101001101101011100000111111
00111101010100100101100011001001
00111100010000110101001111100011
10111100011011001111011001010110
10111100001011101101011101110101
00111100110001101011111111000000
00111101001011010101101001001000
00111101100010111111000000100110
10111100100010000100101011000110
00111100000100000001011010111011
00111101010110010001111011001100
10111011111010000110111111111111
00111101101001010001011100000011
10111101010101001100100011100101
10111101010010001000111111110000
00111101010100001011011001101101
00111100111110000100111101011101
10111100010000011100101000010011
00111101000101110000000001111100
00111100101100011000001010100011
10111100111000001111010011101110
00111100110111000110011010011100
10111101000001100000001100100100
00111100100011101011011111101010
10111100110111111101100000110101
10111100101111110000001100100100
10111101000011000100010110001010
10111100100010101110110101011111
10111101001010100000101101000101
10111011000011010011011101010111
00111101011101010110110101000101
10111100101111100111100000101110
00111101100000000111110110011100
00111100010001001101000011100001
10111101001111001111111010011111
10111101000110111110100000101001
00111101000110111011011101111100
00111100010101111010000111011000
10111101010110100001110101111101
10111100111110110011110010110010
10111101100111000011011000001110
10111101010000000100110010011010
10111101000000110110111100011110
00111101100111011101000001111000
10111101010110100011100010101001
10111101010001100010001100011100
10111101000001100100111110111010
10111101110000011001010011000011
10111100010010100011000000111101
00111100101101011110010001101101
10111101011011100100101101010101
10111011000101010100110000101011
10111101001100000101101111010001
10111101100011100101100011010100
10111100110111101001101101111101
10111101101001111010101111111011
10111100110010100011011111111110
00111100110011110001110010100001
00111011110101011000101110100000
10111101100101000001010100111011
10111101010100100101010110110110
00111100111000101111011100001000
00111100000010001000101010001101
00111101010110100001011110011111
00111101100000101100110010011101
00111101000111100001000100000010
10111100011110100010000101101001
10111101010100011101000000101101
10111101011011100000010110011001
10111101100101111011111000111110
10111100000000010110011000100011
10111011100101111101001101101110
00111101100001111111101111001100
00111100110100110110000011000000
10111101001101101000101111000110
10111100101010011100110000111100
10111011011010011011100010001100
00111101001100001111000111100001
10111100110100000100101011100100
00111100011111000011011111100100
00111011110011011000100111111111
00111100001001101101110101011001
10111101001101011000001111100000
10111101001100000000011101010011
00111101001010100111101011111110
10111100100101100101100010101111
10111101000110111100011001100100
10111101010011000101110111110001
00111100011111011001111110010100
10111100100111001111100010111001
10111101001100100111010011010010
10111100010111100110001011100111
00111100101011100100011100101010
00111011000011010001010000010000
10111100110100111011111000001011
10111101000111010001011111110110
00111101011100010011101010010100
00111100101000110010001101111010
10111100100100010001111010001100
00111101100000101010111101111001
10111100101001010100100000100110
10111011001100010001110001001001
00111100100100110011100100001100
00111101101111010000110011001110
00111101010100010100011001010111
10111101011000001011111001101011
10111100010010100101111111110111
00111100110100000111001111101000
10111101011011000010000000101010
10111011001001111110111011110001
00111101101010110000100101101010
00111011110110110000101000110001
00111101101110000000100111010010
10111100101100101100000101101011
10111100110101110001101000101001
10111100101111001010001101111000
10111101000011001101001001010011
10111011111010010111100100010001
00111101100101101000101001010011
00111101101011100011101010000011
00111100000100001011100001110110
10111100000110100000111000110101
00111100101011001111100001000110
10111100100001010100010111000011
10111100011111100001010000010011
00111100001010110001000001100110
00111100100100111100001101110111
00111100101110001010000011011000
00111100101110001001001001010010
00111011010010110000111011111100
10111101001001000001111001001000
00111100111110010010001010110010
00111101000010100011011111001100
10111100100001000111111001010010
00111101111011001000010010000010
10111101001100110001110010011000
10111101100010010111101101000011
10111100100111100111110011111110
10111101100000010001101011011100
00111101100001001001111101110000
00111101010000001010110001010011
10111101001000110010110000000010
10111101000101100011011000110000
10111101100110010010101001001011
10111100110000001011110010001010
00111100100000100110101010110001
10111101100000011111001111001110
10111010001101111110111000010001
00111101100111111110100101000111
10111100011100101111111100000011
10111101110111110001111001100101
00111100110101110101000100010110
00111100100100000110000010010011
10111101000110101101111111010110
10111101001110111000001011010101
00111100100111011111000111000110
00111101010001010001110101010010
00111011000000011011111001100100
10111101101101011000110000010011
00111011110011011000101001011010
00111100000001110111010010010110
10111101110001111111011111010101
10111100000100011110000100001101
00111100001000100001110001000111
10111101001110100100010111011101
10111101110000011101110011111011
10111101000100010111011000110111
10111100111011111001011101001000
00111100110000101000001100000111
10111100100101011010111100101011
00111100100111100000101001010011
00111100011101100011101010010101
10111101101010010110101010111010
10111100001110100100001101111110
10111101000110000111110010010001
00111101010101001011011000010111
10111101011011101001100110101110
10111100010101011010101001111000
10111011101101100000110001000010
00111011111110101101001110000111
10111100110000110001111011111010
10111100101101111000101000101110
10111101000100111001111011101100
10111101101011101111001010100101
00111101000110100110001101100110
10111101000001011101111010101001
10111100011000111001100001100000
00111100111011110101011100101110
00111101100010010100101000101011
10111100111011010000110101101001
10111010011011100101001011011110
10111101100011010111110001101000
10111101101010110011001101111001
00111101000010100110010101111000
00111101001100011011010000001100
10111100101111110100110001101111
10111101010100101010011111000110
10111011100110111100101000110111
00111101000111010010100110110100
10111101000001000111111000111111
00111100100010110010010011000011
10111100100100101000011111010111
00111101001000011000011110110101
00111100110001011011101111011011
10111100100001010000000010010101
00111100111001010100110010100100
10111100101011110110011110001101
10111101100001111110111100011110
10111101000100011001000110110101
00111101010101001000110011111101
00111011000100001001000011101101
10111101011111100011110011011011
00111100110101101001011010100100
00111100110011010100000110101000
10111100101000111100111100111101
00111100100101011101010010001011
10111100111110000101011101001100
10111011000011011111010000001001
00111100000011011010101001111001
10111101001011000110100010110001
00111100101110101010010001010100
00111101000000000010011111000001
10111101111011001010110100101010
00111101101010111010001010000100
00111100001011100010010101101101
00111100001111000100110111000000
00111101001000101001000100000001
10111101101000010001111000011111
10111101000110111000100010111011
00111100001010011110011101001110
10111101100111001011110100010101
00111011000011111100110100110000
10111101001000101111001101100001
00111011100110001111100101000000
10111101001001111001110001111010
00111101001100100010100011111100
00111101100000101000100111000000
00111100001001011110100100011011
00111100111001101011000001000111
00111100101100100000011110101111
10111101001100000001010111000000
10111101000101110101100101110001
00111101010011101111000010100000
00111100100011110001011000010000
00111101000010110101111000100000
10111100101110110110110000010011
00111100101101110111011110001000
00111101011100011000100001001000
10111101100110011000000110011100
10111101100011000011011011001110
10111100111011110001010011111101
10111101010111001011100110001010
10111011100110100110100010000000
10111011111111000110100001111011
10111100111111001010110000010010
10111101011100011001001000101111
10111100111010011110000011010100
10111100100101001110110010001011
10111101100001111000010001110011
10111101011001010001110010101001
00111011101000010101011011100000
00111101010001110110111000101010
10111100111110101011011100010111
00111100110100110001110001001100
10111101001011010101011101010111
10111100100001001001011111011001
10111011100001101000000110001100
00111100101110010100011111001110
10111101001010000101011011000110
10111100110011001110101001011010
00111101000010010001101001001011
00111101100111100111011011010111
10111101000011101010001111010111
10111100001100001011001011011111
10111101101000111010001101110010
00111101011100010101010000010100
00111100111101111000101000011101
10111100100100110111100110001100
10111100111110110101000110010101
10111101000101101110011111101001
10111101011101110010011001010001
10111101010100000000011110011101
10111100001110100011110111101111
00111100101010111011110000001110
10111100010111011000000101100111
00111101100100111001111011000001
00111101001011011110010010100000
00111100111000100001101111110011
10111011111000010110101111001110
10111101000011000101110011010000
10111100110000110000101001001000
10111101010101010110010000111110
10111100001010100010010010101010
10111101000010000110100000100101
10111011110000001110111010011100
00111011101101000100100000000100
00111101011000001011110110001010
00111101011000110100000001010100
10111101001000110100110110111001
10111101000011000001111110010000
00111101001001100011011010101000
00111100001111010100101010000010
00111101100110110000001111000011
00111100011010010111111100000011
00111101001110000001001010100010
10111010000111101010100010001011
10111100100011100011001011000111
00111101011011111101101111110100
00111101000100100000100011010010
00111101001001001001111101000101
00111100010100000000100100001111
00111100110000011000100111110110
10111100110011010000001111100110
10111101101001010101100100110110
00111011100110010010010011010101
10111101001100110010001101010000
10111100000011110110011111001000
00111100011010000100011111011001
00111101111110111110101110110000
10111101000000100000001000100100
10111100101011111011100010111001
00111101010101100010010001111011
00111100011111100111100001010011
10111101001111010111011101111011
10111101101011100000101110011100
10111101111001001010001111110001
00111100011000111111011011111111
00111101011011001100111110100001
10111110000001111001101010111100
00111011001101111110011101001110
10111011110001111100010110101011
10111101000011011000111000111000
10111101000010101001101110011101
10111101000011011011110010010110
10111101010001010001101001110110
00111100111000111011000001111010
10111101010100001001111100011111
00111100010011000100111100101110
10111100011010101011101010110110
10111100111010101101100000000000
10111100111011000000011010111011
10111100110101011101011000000000
10111101010000101001001010110011
00111010110011000110110100110110
00111100111010110010101010100011
00111101010011110011001100111001
10111101101000110110111001011100
10111101001001101001000000101011
10111101000001001100100110000011
10111101111101101101011100001010
10111101011100100000111111100100
10111101101001100000000011101110
00111100001010010000110011111011
10111100101111101111010100111000
10111101010001101110000110110100
10111100101100001111101101101110
10111100001011101011100010011010
10111100010001110111001101010001
00111011111010110001011100100010
10111101100000111000100100111001
00111100111001100011101010001100
00111011110011111110101100101111
10111100101101011010111011100110
10111101100001101100001111000111
10111101000111111110001110010100
00111011100101001011010010101001
10111100101110101101101001001011
10111100101000100010100111001000
10111101001010110101101011001101
00111101001110001110001010100100
00111101000001100100011110111000
10111101011000000111010101001001
10111101000101010111000011011110
10111101001100011011001001011011
00111100101100010110100100011011
00111100100110101001110101001010
00111101001010101000101101000001
10111101000000111110011101011010
10111101101000101111110011011111
10111100111011001011011001111111
10111101001100000010110000100011
00111010111000001101011000111010
00111100111110001101011000111100
00111101011011011100011000111110
10111101000011111011001101000010
00111100101001110110100100111101
00111101000110010010011100101011
00111100100010010101100011001101
10111101000110001100110100001001
10111101000111110001010111010000
10111101001010111001110100000111
00111100101111100100110100010110
00111011000100000100011010010111
00111101101001000000000111101100
00111101000011011111001101100101
00111101100111111000110100101010
00111101001100011001101000001001
10111100101101111000001101000110
00111101010100011000100000010100
10111011100011110000001011000110
00111101001010011000101101000011
00111100010100110011110101111001
10111101010011100100100110110011
10111100100101010101000001001000
00111101010100110110100011001101
10111100011100010000101000111100
10111101000010100101000100110001
10111101100101101011111011010111
00111100001100101010001000111110
00111101000110011100111001000101
10111100110011010001100110000000
00111100111010010010110101011011
10111101001010000100010001011010
00111101001001010111010100100000
00111101101010010000100110001001
10111011101110011001001011001101
00111100101101111000101000011101
00111101100111110011111110001000
00111100011111100011010110010111
10111101001100110001100011111100
00111101000101100101111000110111
00111100100110010111001111101101
10111101011111010011101100101110
10111100110000011100001100111010
10111101101100000011100001111011
10111100100001000001101001011110
10111100100000111000010010111000
00111101100011111011010110101110
00111100011000010100111011100010
10111101000111001011100001000111
10111101000110001001000101110011
10111101100111001001011010101111
00111100110110001000001000100110
10111100110110100010011100111011
00111101010011100100001110001111
10111101001010000111001011101111
00111100101010000111001000111001
00111101010111011110100110010101
00111101011010101110100100111000
10111011110110000001010000101000
10111010111111001000110000011010
10111100100011000110110001000001
10111010010101011010100110011110
00111101001101101101000110011010
00111100001000010000001000101110
10111101000011001000100011010111
10111101101000010111010010010101
00111101000010011011111000000010
10111100001100000000000100101100
10111100111100010011110101110001
10111100101110000110100011100010
10111101011001110111010011011010
00111101010100001111010001010111
00111100010010001001110000001101
10111010111100110100110110000010
00111101001101010010011110111000
10111100001110000010100101011001
00111101100010110011010100100001
00111100110010111000001100010110
10111100110011000101011001000110
10111100101010101010001101101100
00111100100000100100110101100110
10111101010000011001001101100001
00111100010011101100100100010101
00111010100111100011100101111100
00111100110111100111011000110111
00111101001000111110000010011000
00111101001100011001111111011011
10111101100001111111111000000001
00111011100000111010011010010001
10111100000011101101000111101010
00111101011100000111101010010110
10111011110001100001100101000110
10111101000101000100010000001000
10111101100000101000010010111000
10111011101111101101000100001001
10111101010101000100101111110101
00111100100001010100110101101100
00111100110011001101101001001011
00111101000110101100100101000000
00111100100100001110001011010010
00111100001101111010101111101101
10111101001101011110111110111011
00111101010011011001010100100100
00111101011111010110010011010000
00111011100110100111000101011100
00111100101111100110111110100010
00111101100100100010101001001000
10111101100010101111110010011001
10111101001111100111000101000110
00111101101101100101100101011010
00111100111100010110000110000010
10111101011011110111000011011111
00111101001100001110111011001110
00111101010001001101011000101001
10111100111000001101110001111100
00111101011010011000001101001001
00111101001001011000011101111001
10111101000101111010101011101010
10111101100011000001101101100111
00111101001100111100111001001001
00111101000000101111110111110111
10111101010000100110001110011000
10111101100001110111111010110110
10111101011011001111001111111001
10111101101100000011010011010100
00111100111111000110010101100100
10111100100011001011101010111110
10111101110100110110110101110111
00111101011110101011000100011001
10111101000011111100110010010110
10111101010101101001000111001001
10111101101111100001111100011101
00111100001000001000100001010010
10111100101000101010011010111101
10111101000100100111011010101001
10111100000101001000100000010000
10111101000111001000010101000011
00111100000101001111101100011101
10111100111000000111100110001010
10111101101011111111000111011100
10111101010100000011111010011101
00111101011101000010010000100100
00111101001001111101111010011100
10111011100110110111011111010011
10111100111000000000000000011110
10111101110010110100000010001011
10111011100101111100100111011010
00111100110110111111000111011000
10111011110011000111110101010011
10111101001001101000000100100111
10111100111111010100110110111001
10111100010101001010000111111001
10111101101101100001100111011010
10111010101001101110100010100110
10111101000011001110111111100110
10111101000000010011100101011011
10111101000101111110100110010110
10111100000010011110111111010110
10111100100101010101100001010100
10111010110100011111101100110010
10111101000100001110000001111001
00111101000010011010001110001000
00111100100010000011011110111010
10111100111010100110110010010110
10111101000110100100101100001101
10111100010000110111001011011111
10111101001100101111100011010100
00111101010011110100100001101010
10111100111111100011010010001101
10111010001011111111001111001001
10111101010010111011000100100001
00111100100011001000111001011000
10111101011001000010111010000101
10111100001100011001001000110111
10111101001110011011111101010111
00111100110011101000001001111110
10111101100111000000000001100001
10111101100100100011110111101011
10111101011110101101110110011101
00111100101001011000000111100010
10111101000111101110000101001000
10111100011100101010101101001101
00111101001001000001010101011101
00111101010011000111011010101110
10111100100111011010100110101111
10111101000000101111000111001001
10111100100000011111011100111011
10111101000101001111100000101000
10111101101111011011100101111001
10111101101101111000001001101111
10111101000101010010100011110111
10111101101010111011111001110101
10111100011111101101101111010001
00111101000101000100111111100000
00111101000100011011111100101111
10111101101001011000001011010110
10111101000111111001011111110110
00111101000000001000010000100100
00111101010110010100111110100110
00111101010010000111010110110001
00111011101001001000110001110000
00111011010110110110110001101010
10111101101000010100111010010010
10111101101110010100100011011011
00111101011101011100101000101100
00111100101110110100001000100000
00111100100011011000000111110101
10111101010110010000011011110011
10111100111101101010110010100000
10111100010010111110101000001110
10111101000110010001010100010000
10111100110101011101111000100010
10111100101010101000001011000101
10111100111001011010101110001111
10111101100001110001100101000101
10111100111101000001101001100010
10111100100110110011000111011101
10111101001000100100110101000001
10111100100011001111010001101001
00111101100000011111110100101110
10111100110000111010111000010110
10111010111100100010100100111101
00111100110100000000100001010000
10111101000010010001101001100000
10111100110111111001000111000000
00111101011100100001110110110011
00111100111000011010010011010110
10111100100111000100001111100001
10111100100001110110001110100111
00111101100101001000100111111001
00111100110000100011011110111111
00111011101100101111111010100010
10111100110010101001111010011111
10111100100100110110110000011100
10111101101000010110010100101100
10111101011001000100000101010000
10111011110101011011011001110111
10111101000110101111000110100001
10111011011000001101111011111010
00111100111010000001111011101001
00111101100110010000000010000110
10111101001000100000010000010000
10111100101111101101000001100100
10111100101111110000110110101000
10111100101000111001100010111011
10111101000011000101010101101000
00111101011011110011011001001001
10111101100000100110101111110011
00111100111000001111100011001001
10111100100101011101100110011111
00111011111000110000100011100111
00111010101111010101010111110011
00111011111110111101111001110010
00111101000100010000111110010110
00111101000001101110000001000111
10111011011111001100011111011011
10111100110100100000000101111000
10111101000000111000000111111111
00111011001000011000011110101110
00111011111011101111000010100011
10111101100111001011100111000111
00111011010000001111001010010110
10111101010001010110101110000101
10111101101001001101110111001101
10111101010101101010101011111111
10111101000110000110101110111100
00111101000111011100101100000011
10111101100010001001000010010001
00111101101001101010011010000111
10111101001101100100000100101011
10111100111000100110100010111111
10111101010000011100101101111110
10111101100010100110011110110000
00111101000110111010101000011011
00111101001001011010111101110010
00111011000100101001110000010100
00111100000111000110001110101110
00111101000000011111000110100010
00111100111100010100001001000110
00111101100010010010100011100000
10111011111111110010011001100110
00111100011001001001010111111111
10111101100100101100100000100101
00111100001100010011100011001101
10111100101111111101001100110010
00111011001101101011100000000101
10111101011001110011111110100011
10111100100000000111001000010100
10111101011101111010111100111100
00111101011011110110011001100011
10111101010100111010011111011110
00111100010000101000001010001100
00111101100100111100110010000000
10111100101011000100010110101010
10111010011110000111100101101110
00111101001001110001100100101010
10111011101101001011001001111001
00111100000101110010011001000001
00111101010101111000011110001101
00111101001100010111100110101101
10111101100011011000110000100010
10111011000111101100101111011100
10111101001010111001010100101111
00111011101011110001000101111011
10111101010000000011011101110001
00111101100101110100001000110010
10111101010000011111010001010011
10111101000000101010111101001001
00111101010111001100010011011100
00111101011001101000011101110101
10111100111010111010111000010011
10111100011100011111110110001111
00111100110100110001101111101101
00111101011000111101001000110110
10111100110010011101110001011110
00111100100101100010010000100100
10111101010111000101010010000001
00111100101101010010101100011010
00111101110001101110100100000000
00111011001000000100110110111101
10111101010001010100100000101100
10111101110111010101101011101011
10111101101100000100101110000011
00111101011111110111100000011001
00111101100010001011000001110000
00111100001010000000110001110111
10111101010001011111101001000101
10111100111110111100010110111011
00111101000110111010010000001110
10111101001000011110000100111101
10111101011011101111110001000111
10111100100010110000100011010011
10111100000110011101110100110100
00111100111101011011110110001100
00111101100101100110100101100101
10111011010010011111111001110111
00111101000110111001001001101000
00111100011110111100001100110001
00111101011011101110011001000000
00111101100100010110111000111001
00111100000100000101000100000010
10111101100001001101110110011001
10111100110100111111011101101000
00111101101101100001110010010110
00111100100111101010010000011001
10111100011000000010111010001001
10111100111101111011101011000011
10111101010111110000110111000101
00111101001000001010010111010110
10111101000101110101101000110001
00111100100011101100011110110010
10111101011111111000001000010111
00111100100001000010001101010100
00111010101100100110111111000100
10111101000111000001010110000010
10111100101100010010010001110111
10111100001010010110000111100110
00111101100110011101010111011011
00111101010101001100001010111100
10111101100101011101111001010100
10111101100001011011001010101111
10111100010010000110001110011010
00111101011000101101010000111110
00111101010111010101100011011010
10111100101010001001010011101101
10111101001100000110110111010100
10111100000010011011011110010100
10111100101110110101101010111100
00111010100110111011100001010101
10111100101010111110011010011000
10111100101110110001011111111011
10111101101010100101111110100010
00111100101101100000100011000110
10111100110101110011011111101100
10111100011000110100110101011110
10111100000101011100101010010100
10111100110100000011101101111010
00111101011100000001001000111111
00111100111110111000010111101101
10111100110011110110010101110011
00111100000111010100011111000010
10111101000111010111101001101011
10111100000111111110001110000100
00111101100011010011111000011000
00111100100011011011010000000100
00111100101111010000010111111110
00111101100011001001011110001111
00111100111000110110100001100000
10111101000111101001001110110101
10111100001101101011100000110011
10111100010100100101011110100010
10111101000000011111100011111110
10111010110000100011000011001001
00111101101000010000010110011110
00111101100101011010000000010010
00111101010100011010011011101010
00111101010000111111011000000101
10111101010110011100011001100011
00111101011110001111001111101011
10111011100101010000000011000011
10111100010100001001011001010101
10111100100010100011011110010000
10111100000001011001001111111001
10111101001101110101100110011100
00111101010011000100010000101111
10111101011110101101011001111010
00111101000010011011000011110100
10111101000010011111000001000011
10111011010010001011101010101000
10111100101001001011101001100100
00111101001001101101010001111110
00111101001011110110011010111001
10111100011000011011110011101001
00111011110110100100111000101110
10111011111110000010101110101101
00111100001101100110000010001101
00111101001101111101000100100011
00111100100110011001010100111111
10111101011001110010010101100001
00111100001100101110100100011010
10111101100011110010111101111101
10111101100010111010111011110000
10111101010110011001101010010111
10111101000001111011101000100001
10111101100110111000111110011111
10111100101100111011010001111001
00111101000101011111100011000001
00111101000010110100000101100110
00111011110000110010101011100011
10111100100011001100001100011111
10111100001101010110011010100100
00111100101110100110111101111000
10111011000000110001001110100010
10111101010001000001011011000110
10111101001001110110111100110010
10111101010100000101111000011111
00111010100111001001110011001111
00111101000010100110001110111100
00111011100100101011100011110111
00111101010110010101011010110110
00111101000010001111010100100010
00111101101011010001111110011100
00111101100000100001110011111010
10111010011000101001010001110110
10111011100101010111010111001001
00111101101100010100001110001100
10111011010110110101010000111100
00111101101001010101101111000100
00111101000111000101000010100100
