10111100100100101000001100001000
10111101000011001101001010110111
10111100001100101010011110000100
10111100100000101101001000000100
00111101001101101000100100011100
00111100110101010101111010011110
00111100110111111010111111100001
10111100000111011000011101110111
10111011110101111010100110001101
00111100101000100111001111001111
10111100111000001000000000011100
00111011111100001001001011101100
10111100101111010010101010010111
00111101011000101011011001101111
00111101100110000101011010010110
10111101001001010001010010001110
10111011100010111100000011100001
00111100110001111111101101011110
10111101011001101111011110100101
10111101010010110010000100010110
10111011101001010001001010100100
10111100110100111011001110011111
00111101110000010001011001000001
00111100111001111010001011101011
10111101100101111000001101011000
10111101000100111100110110001111
00111011101000001001011100111110
10111100101001000001111011100001
10111010100010110100101001111010
00111100010111111010100010001001
10111101000010111101111000100101
10111100110000111101000000001111
10111101010111100001101111010011
00111101101100111101010100110010
00111100001111011111001001010001
00111101000111110100010100000111
00111101001001110100111001101011
10111101100111110101001001010001
10111101001101010011010000101011
00111101001101011011100110110101
10111101000000011110111110011001
10111100100110101010010100101010
00111101100001001110101100010010
10111101100011001010000100011010
10111100101111011101010001101011
00111101001000001111011011000011
00111101100000110011000001101111
10111100110001100101101011010100
10111101100101101011111001101000
00111100010110001101111110101100
10111100001101011101110000010110
10111100110000001010101010111101
10111101100101100111011000000101
10111100110010001111001110110100
10111101000010010110111111101000
00111100000010100100010100100001
10111011111010110010010110000111
10111101100110111010101010100110
00111101010000101000110001011110
00111100101010001010100100110101
10111101001010011011110111101111
10111101000011100101010000110100
00111100101111100110101110110011
10111100101011110000010111111010
00111101001101000111000010011001
00111101010101111101001111001001
00111100000111111011100110110010
10111100000011110011000011111110
10111100100000000000010110100001
00111101100001101000000000111101
10111101010100000101000001101111
10111101011011001011101000110100
00111100111000001100100011110010
00111100111000100001000000011001
10111101000100000010111001111010
10111101100010101000001101110001
00111011110011110011111001111101
00111100010111011101010001110110
10111101001000010111000101000111
10111100100001110011100110101111
10111101010111001110111000111010
10111011000101001101101001111000
10111101010010100110100101100001
00111101011111011000100111001011
00111101100100101111011111000011
10111101101111000100011110111010
10111101000111001010000100100100
00111101001000011100111010011001
00111101010101000101011000111001
00111101010100001011100100101100
00111101001001111001001100010101
10111101101000001011011100001111
00111100001110010111001001010011
10111100001001100100001101110001
10111100001011101010100010110100
00111101001000111010000011110111
10111101001000010101010101111110
00111100111101000110000101010000
00111011110000111000000001111001
10111100111011110010100011101011
10111100110000001110010011100100
10111101001010101010000100111001
00111101001010000011100101010100
10111101011001011101010011011010
00111101100010110101111001111110
00111101010010101000001010011110
10111100101011111111000010001100
10111101011110101001110001101001
10111100010100100000111000100100
00111100000001100110100001110111
10111100000101110100110011001111
00111100000101011100010101000101
00111101100100001111101000100000
10111100011011101010011011010111
00111100010010001100100110001011
10111101001100000110111011110001
10111100011111111001000010001101
00111100110000001100101101111010
00111100101101100011011000001101
10111101000011011110110101001010
10111101011000010010000100001110
00111011011000101010001010010001
10111101001101100000110101100011
00111100000010110110011110011101
00111101101000110100101110011011
00111101001100000010001101110101
10111101011001110001010100010100
10111100010011101100011110100010
00111101010001000101010100000101
00111100111010110000100010010100
10111101000101000111110000101100
00111100100100101000000110111010
10111101100110111010111100011110
10111101001011011101001001011100
10111100001010010001101101101011
10111101100010101001110010100111
10111101001011110100110000100000
10111100011010101010111011100110
10111100011011010101100110001101
10111101001111100100111100011101
10111101101111011010101010111001
10111101011111101000010100011011
10111100011101010100011110011011
10111011101101010101011100101000
00111100111110111010101111111100
10111100110111110010111000010011
00111100111111010111110010010001
00111101000011101101011011100110
00111011100000010101110110111100
10111100100101010010000011011011
10111010110101010011011010011010
10111100011101111111111111010000
10111100101011110001011111011101
00111100000110110110100001111110
00111100011000000111000000000100
00111101001000010001100010011111
10111100101000010111100000011101
00111100111100110101000101100110
10111101100001001111001111011000
10111101110001100011101100110010
10111101100011011110010111101010
00111100101101100110100001101110
10111100111010001011100101101111
00111101011011100000110000000011
10111100010011001100000111110111
10111100111100000010110011111010
10111100101011001110101011010010
10111100101110011010011011101001
10111100100111010101111000110101
10111101100010100011001001110011
10111100001001111110000111111101
10111100111111000100010100111100
00111101011111001111000101101010
00111011001011101110001101011101
00111101000011111000000101111110
00111101010011000110111100010101
00111011100000101100011100011010
00111101100101011100100000010100
10111100001001100000101111010010
10111101000010110001101001100011
00111101001010101100001010011001
10111100100001011010001111011011
00111101000011010100111011110110
00111101100011101100110011100111
00111101001110111000110100001100
10111101000000001000001111000011
10111101001010011101000111010100
00111101001111100010100100000110
10111100100100010000111011101011
10111100010110101100011001111001
10111100110000100100101111111110
10111101011010010110010000100110
00111011101000110010010111001101
00111100000011110011001101110011
00111101100111000111000101000111
00111010111011000111101000111110
10111100001111101001001110011101
10111101100010100011110110101110
10111101011011010100100001100011
00111100110001010000111111101000
10111011000101100011011101010110
00111101100100110001110010100110
00111101001001001101100100010001
00111100110000110110100101100001
00111010100110110101001101101100
00111101100010011100110100010011
10111101001001111111011100001101
10111100110110111100011000000000
10111101001111001010110110100011
10111100101101010110101100000000
10111100101010001101101001110100
00111101100101011011111110011011
10111101001110101011000100101110
10111100110111001010001000101001
10111101100101011001010101110101
00111101000110111010010011110010
10111101100001011101010010010101
00111100001000101010010110000010
10111101000101111110100000011000
10111101001100011001000000100001
10111101011010010100010001110101
00111101000101110111010011101111
10111100101001011111111011101001
10111101000001000111001010111111
10111101000001000111010111110110
10111100101101101111000011001011
10111100101100001001101001001011
00111100001010100100001111110101
00111100110000000001111001011100
00111101101000111011000000010001
00111100101101111100011000000010
10111100111111101011000111011000
00111100010010010100000100000001
10111101010000101010111011001110
10111101000100100010110111101000
00111101000111001010010110100011
10111101000100110111111001100011
10111101110000011010100001111011
10111011011110000100100010000010
10111101001110100101110110111010
00111011011111001000100010001100
00111101100011111000100000111000
10111100001010110000000001110011
00111101000010100101111111101101
10111101001101000001000010111100
00111100010000001010101110101000
00111100001011010110101111101000
10111100100001100101101110000100
10111101000110011110011111111001
10111100000110000000011100111001
10111100100011000111101111111010
10111100000010000110111010011000
00111101001010111101000110101000
00111101001100111111111110011000
00111010101000101010000000010011
10111101000010110100000110101010
10111100101111100110011011101101
00111100011101100111000101110000
10111101011000011000001111111001
10111100000010100010111011101110
00111100010010011101111110111011
10111101110110010001101100010000
10111101100000110011001011111110
00111100101010111011010000000101
00111101101011000101010001111000
10111011110010100111001101101111
00111101000001011000110000101101
00111100011101001110101001010001
10111101001010011100110010001011
10111101100001101000001011000001
10111101000010100010001001101011
10111100000111000011011101100011
10111100101011110001000111100101
00111101011011110100011011010111
10111100000110111000010101001011
00111011111010001001111011010111
00111101100001001101011010111010
10111101000011110111000010111000
00111100100110101010111001001001
10111110000001100110001011111010
10111100001000111001111010111010
00111101101110010011101110000011
10111101000110100010010101011011
10111100001100110011110111000100
10111101011001000011110111111001
10111100000100100110011000000001
00111010101101101011000000010100
10111101100000010111101110010011
10111100101110001101110011111010
10111101100110010100101001001111
10111101100011000101110101011011
00111101100111000111110011000010
10111101011000001010001111001000
00111011110100011011101111001110
10111101010110010110100101110011
10111101010001100111100100001000
00111101101011000110100111001100
00111011000110110011111010001101
10111100010000100110000001001011
10111011101110000010010100001101
10111100100000100011101100101010
10111011010000011110100110000001
10111101000111100100100000000101
00111100010110010011000110000001
10111100110101100001011110011101
10111100100000010010010011110101
10111101010010011000101110101111
00111100010011011011111011000000
10111101001001000110010110000010
10111101000101100110111111011111
00111100101100001001100111011011
00111101100111010101001000101000
10111100011100111000010001100100
10111101001011010101011111101100
00111101011111110101110101010011
00111101100011001010011111111011
00111100011010101011110110100000
00111101010000100011011011110010
00111101000000010101011010111001
00111100101011101010111001001010
00111100010111110010001011100010
00111011100000010011010100001110
10111101001010011011111110110010
00111101110111111111000011010100
10111101000110000100010101001001
10111101000011110111100111111110
10111011110101110010111011001000
10111100001001111100100101010001
00111100000111111001101110111001
00111101110101010110101010110001
00111100000011101001000011110111
10111011100010011101100110001000
10111101001101111011011010101111
10111100100111110010100101100011
10111101011100010111011101101100
10111100111101010000100010001100
10111101100110101011010110000111
00111101001101001001110111001011
10111101100000111001110010010011
00111100101111011111110100111010
00111100010101011000101100111001
00111011110011011001111011100110
10111100011011100101110011100100
10111100110111111010111011101110
10111100010001010010101101000110
10111101000100100111101100001111
00111011110111110111111011010101
00111100011010011000100100000000
00111011110110101001110000101011
00111011011101110011111111000011
10111100001111000011101101001010
10111101001110111110101110000100
00111001010000110110101010101010
10111011001110010011011111001111
00111011100101110100111110111001
00111101100010001111000111100100
00111100101000100011000011010100
10111100010010100001011001000100
00111101011011110110101000110000
10111101010000010000111111001011
10111100100111100010010001011110
10111100011001010011101011101101
00111101000100111110110011000111
10111011001011101100100110011100
00111101100000110000110001100010
10111011110100001110101010111101
10111100000010000001001010010011
00111100101100110001110000101010
00111101001101010000101110010011
10111101000011001001110010101101
00111100011000001011010010110110
10111100000100110011001001100001
10111101000010010000100101101111
10111101010001001001100000111101
10111101000011001011110110000101
00111011111100000010010110101010
10111011011100100101111010110111
10111101000101001110110101010111
10111101010101101011100111101101
00111100001101011110000110101110
10111101100101010011010110101011
10111101011000111001011001011000
10111011100100010001101111110001
00111100110010111000000101001011
10111101001111000111000010001111
00111100010111101111110110000110
00111101001100111001011011001001
00111101000000000111101010100110
10111101100111111110010010000110
10111011000001001111000000011011
00111101100011110110010001011010
10111100000101110001011101111011
00111100111100010101000001111111
10111101001100010010101111011001
10111100010000000010001101001011
10111100100101001100000101010111
10111100011011001001110000000010
00111101000001111111000001001011
00111011100111111001011000100111
10111011111100001000101101010110
00111101010111000010100110111000
00111001100110101110110111010111
10111101100000101100011100101000
00111101000001111100001100000001
10111101010001011000101111101010
00111011100010101111010110011110
10111101101000000100110101111001
10111101000101000110100011111110
00111101101000111110100101100101
00111100010111101111101000011001
00111100101100000110010011110001
00111100101110001101111001100001
00111100111100010111010000000010
10111101100011111111001110101110
10111101000100101110011111100100
00111101101100000011110101100111
00111101000001010111100001000110
10111100100110001100001101001110
10111100100000101000011100111011
10111101010000000001110100000101
00111101011111010101010111011001
10111101011111000010110000111000
00111011001000101100111001101001
00111101101000101001011101000011
00111011110111100011000011111110
10111101000100100001111010101000
10111101010110000011001110011010
00111101010000011101110000111011
10111100101101011000011100011101
00111101010001000000011101011101
00111101001010101111101100110011
00111101010011000101001101001011
10111100110101011100001011111011
10111011101001010110000100010000
00111101010011100000100110101011
00111100100100011100101000011110
00111011100011001110110100101100
00111100101110101101110111001111
00111101100001100110100101110000
00111100100101000010010110111111
10111101101010010010110111001000
00111100111011101101010000000110
10111011111010101001010011111100
10111100111001110100111001110100
10111011110111100100000111101010
00111100000011111111101000010000
10111011001110101000100110011001
00111100100000011011000101110100
00111011011001101100101000100010
00111010001100000000000001001010
10111011001001011001110100000111
10111011101111111101111100110000
10111101010001010100011001000101
10111101010100100000101100100111
00111101100111101011011010110000
10111011111000000010001101010000
10111100101100110010110111111101
10111101100001100001111010101110
10111100100011010000001011010111
00111101011101110110001111110001
10111101011010111010001000110000
10111100000101001111101000000101
10111101000100011100000111010110
10111100100100001101101011101111
10111101100000101001011111000100
10111100100110110101000100100110
10111101000001010000110000011101
00111101100110111000011110011011
10111100111010111010010000111010
10111000000011100111000101011010
10111010110000110100001010011111
00111100111000100000010001000110
10111101101111011100000010010100
10111100011111100011010100110010
00111100010010000100111000100001
10111011111101010011001100010101
00111101100011111110001011010110
10111100101011110000001110111111
10111100000010011011011111101111
10111101101011101001110001000101
10111101101100011110010100001011
10111101101011010101010110001111
10111101011001101011111101001110
10111101100000001010010010001101
10111100001110110001010111101011
00111100111111000101101011101100
00111100010111101101000001010000
10111101101000000101001011011001
10111101000110101100010000010101
00111011010101001110110110010000
10111100101100111010100011100110
10111101100011111100111011000001
10111101001100001011011011110101
10111101000000001011010100111110
10111100100101011100000111011111
10111101000000111110011110110011
00111100011001000101101000011101
10111101010101110001010101111100
10111011011011111101101111100100
10111101100010100000000110011101
00111100101110100110001100010000
10111011101000010100000101000101
10111100111100101010000100110001
10111011000011011111101101011000
10111100110101000111011000001010
00111100011101001101111101100001
00111101011010001111000101011110
10111101100010010001110101100111
00111100110101011001110100100001
10111100100110101111100100111011
10111100100111001010001110010100
00111011000110100100101100100110
10111101010000000011000011001000
10111100111101110101001011010010
10111101011111001011001101100111
10111101010100111000000001110011
00111100001011111010010001110011
00111101000001111011010010010010
10111011110101001101101011111100
00111101100101011110100100011111
10111101011110110001011101001101
00111101001001010110010100100110
00111101010011110011100001001000
00111101001001010110011011011101
10111101100011010110101001000011
00111100101010101001011100110011
10111101001011100101011110011011
00111101001101000100011011010110
00111011110011101100001100100001
10111101000010001000011001100010
00111101011001100111110010011111
00111100011101000011101011111011
00111011100110111001011011111011
10111100110000010110111000001000
00111101101000110011010010100000
00111101101000110111000000010111
10111100111001001101110101011001
10111101000001111011110011111100
10111100111011100010100000100110
10111101101111001110100011011010
10111101101111000011110101000111
10111100111100011000011011100101
10111101000000000100101010010010
00111101010101111111000011101101
00111100011010010000111110110011
10111100100111010001100000100111
10111101010100010011001010001110
00111101010110101110001111001111
10111100100100001011101100100110
10111100000111001110110111001001
00111101000000010011000101011110
10111101101110110111101001101110
00111101100000100000101110010010
00111100101100110010101000101000
00111100110011011101110100001110
00111100110011111110000011100110
10111100110111001001111110001001
00111101100011011010111011011011
10111100101001100101011101011100
10111101100000110011011111001101
00111101000001001100111000011100
00111101100010101100101111101101
10111100111111110001001010100101
10111101100111111000000110100000
10111100111001001010001111101011
00111101000110111110100111111010
10111100010101111010000101100010
10111011011101011011001010001101
10111101010011001011001001000110
10111000111110001011000010100101
10111101010000100011110000110001
00111101000101000000011011100010
00111100000100100011010110001001
10111100100111100001111110110100
00111011100000010111100011001000
10111101000101001101001110110010
00111101101011100011100001001100
00111100100000010101000110100101
10111101001000100101001010000101
10111101000011000100100111111001
10111101001001011010010101011111
10111101010110001010111011110000
00111100110101001100001000101011
10111101000110011101001010011111
00111101011010000110111010111000
10111101000011110110011111001100
10111100111111001000000010010100
10111100100110110101011110111111
00111101001110100101100101011101
10111101001011001011111101110101
10111101011001110100000101001010
10111100001011001101011001001010
00111100001001001010101001010101
00111101101111100010111000101110
00111100110011110111001001010101
10111100111011101111000100110001
00111101000101011101111011100011
10111011101001001010000111011001
10111101101000010110110100000101
10111100110011011101100001111011
10111101100101000100011110001110
10111010101110001001111010101011
10111101000001111100001100101011
10111101000011001110010111001100
00111100101001111111100101100101
00111100110010001101011111111000
00111101100001100101110000000001
10111101101110001110010111011100
10111011011000000001110010110110
00111101000001111100110001010111
00111100101000110111110011110101
00111100100101101101100011010001
00111100101101110000011101110001
10111101001110011001100000100100
10111100110000001110010010110000
10111011111010110001100001101001
10111100101111001111101100110100
10111100100100010111000011110011
10111101000011101010101001010010
00111011100100100001001100011000
10111100101100100110111010001100
10111101011000110101010101111100
10111101001011101000001010001000
10111100111100101101010101101011
00111100000010101101101000101110
10111101001001010101001001100001
00111100110011000000000110111000
10111100111100110010110011110001
10111011101010011110000011011110
10111100110011110010010101100011
00111100111111000111110111111100
10111100100011001111100111110101
10111101001111001010000001001000
00111100101011101010000100011110
10111101011100110011111010100011
10111101010001000010101000100101
10111101000011011001111100101100
10111100110110010111111110001110
10111100000001110111011001011100
00111101000111000010111111010010
10111100101001011011111101011011
10111100010000011011110001101001
10111101010101111111101101010011
10111011101100000111100101110100
00111101011110010101100011000001
10111101100001011011101100111110
10111100010001001001110000011101
10111011101000111010010000110100
00111101100000100011011010110111
00111101010001001110001000110101
10111100111000110011100101111010
10111100101100101011001100101100
00111101100001010100101111000001
00111100010111100000110100110101
10111101110000100000000000001110
00111101000000001110111110111111
10111010111110110001100011001001
10111100101101111100100011011110
00111101011101100101001110010010
10111101000111010011111100001000
10111100001110001010010100010100
00111101001010110101110000011111
00111101001001000010110111001001
10111100110110100110001011101011
00111011100111111001011011101111
00111100110000011011101001001100
00111101110010101101101110000111
00111101011101011011101111010000
00111101100001001010101011011101
10111101101000101001011011001001
10111100101011011101011110110101
10111100010010101010001101111010
10111101101101011110100010001001
00111100101100111111000110001101
10111101010001011111100101011001
00111101010101010110101001111001
00111100101010000010010011000100
10111101101000101100011111101010
10111100110010101100001100000110
00111100101100001101011100100110
10111101101111001010111000001000
10111101100110001000100011110110
00111100100100111100100000011001
00111101010100101010001110110010
00111101000000111100100101100010
00111101101111000011011010010100
00111101010110000100011011111011
00111101000010100011101100010000
00111100111010001001101011001010
00111011110010001010101101110110
10111101110010100101010110001101
00111100011001101100011101011101
00111101100001000100110011111001
10111101011100110010000110110111
00111100000101011010011110110010
10111100110011001100010111101111
10111100111000001110000011011101
00111100110001101011111010111001
10111101001100110010001100100011
10111100011100110101011111010100
00111101000110010110000011110100
00111100110000100100001110101000
10111101001101110110011001110010
10111101000101101011101111110010
00111101010100100110001111011111
00111100011000011011101100011011
00111011110000100111010101110010
10111101000110000110000100001110
10111100001000010010101010010101
10111101000101000011111100000101
10111101011010110001101110100000
00111100101100110110111011001010
10111011110111000111011000101010
10111100111001001011100011110101
10111100101000011010111011100010
10111101011101000000111011000110
10111101101001000010111000111100
00111011001011111101011011110000
00111011100101010110000110100011
10111100111011110010000110001111
10111101010101010010100000010000
10111100111000101111101000010001
00111011110110100100111011010101
10111100111110100011010111110001
10111101011010100000111000000000
00111101011110110101100111000000
10111011111100100110100001001111
00111101010001001011000011110000
00111100101100110110011010010001
10111100011110000111101010101010
10111100101100110110011111111110
10111101100000001010100000101110
10111101001100101101110100001011
00111101011011011011101000110110
10111010100000111110001101000000
00111100101000010001101110000010
10111011101011110111100010001000
00111100011100101100101010010100
10111011110010110101101101001110
10111100000100110010100101111111
00111101100011100100101111010000
10111100001011001011010110110011
10111100100001101011010000000011
00111100110001101101010001110101
10111100110111100000101011101010
00111011001110100101110101000110
00111100100001010101010000101000
10111100110011110101101011110011
10111100011000000011101100100110
00111100111000111011010010111100
10111101010100011100110010011111
00111011111000100001110010111101
10111100100000011000101001110101
10111101000000110010111100100001
00111011001110010111110001110101
10111101011001000110000001101110
10111100011111010101010001000110
00111101010000001100011011000101
00111101001000011010101000111001
10111011010011111000000001100001
00111101011101000011001101110011
00111001001101000010110010011101
00111101001101101010110000100001
10111100101011111111010010001111
10111101000100110111010111000011
10111101101001011011001111011000
10111101101110111000100001001000
10111101100000000110100101111000
10111101000110101011100111010110
10111101000011100100101000100011
10111100110111010101011000101001
10111100000110100110110110011011
10111101001111001001110000100100
10111101001110111101011111100010
00111100001110010100100010011001
00111101000110101010000011110011
00111101000110100000100000011100
00111101100100110000100100000101
00111011111111010110110111100010
00111100011011011100011110010111
00111011010000011100001011000010
10111101100101111111000101111001
00111100110010111101100100100001
10111011110100100011001111111000
00111100101000001111000001001011
00111101101111111110001011111000
00111100110001100100111000101110
10111001010011101001110110110100
00111010100001100011001101000101
00111100010111000000000001111100
10111101100000101101110001101001
10111101011010111111111111111111
00111101001110111100001001110110
10111100111110000110000010011001
10111100011001110110001001001001
10111101010000011000010011110111
10111100100001001011110101000010
10111000110110000011011001100010
10111101101000111100110101011001
00111101000010101011111100001111
10111101100001011101010111001101
10111101100010001010111110101010
00111101100100011111100010000010
00111101001111110001001110111101
10111100100010011100101111010011
00111100101010001001000100001010
00111100100011100000100110001000
00111101000100101111000010100010
10111100111000100100011100000010
10111100100111110101100111000001
00111100100110011010010010110101
10111100110110001111101001111111
00111101100000000010001001111010
00111101001101011010110111011011
10111101001111011001111101110110
00111101000010001000011100001101
10111100110101011111000110010010
00111101000110111010000011101100
10111101010000101010111110010000
00111100001101101011110010110101
10111101000100001111111111100111
10111101001010111100011001010011
10111100111011111010001111001110
10111101100001111111011100111110
10111101001011101111011111101001
10111101000001000110010001010000
00111011101101110000010001010011
10111100100000010000011001101011
00111101000101111001110011000110
00111101101010101011010001101111
10111100100110011110100010111101
10111011011000001000111001010101
10111100111001011001100101011100
10111011101001011110111010100101
00111101010000110011100001001101
10111101011111000110111001100111
10111100101110000001011100111000
10111100100101010100101111010111
10111101011110011010010110011110
00111101011110011001000100111111
10111101010111010000011101000101
10111110000001100001011001011000
10111100011001100001000111001100
00111101010011010110010101010100
10111100000101101100101101001000
00111101000110111010000001101011
10111101011111101110011000011111
00111100001100000010011100110110
10111101011000000011100001111001
10111100000000010010101010100000
10111011101101000001000110111110
00111101100010011011000000001111
00111100000010101011101010111110
00111100110101101110001100000101
00111101001000000110100001010010
00111101100000111111001110010000
00111100010111001111010111011110
10111100110001010110101110010011
00111101001110000100010101101001
00111100101101111111100010111111
00111100001101001110011001111110
10111100100001001010101100001011
00111100000011000101111100000110
10111100110100010110001101010110
00111101011110101100111101011010
10111101010101010110001100001001
10111100010110011111111110110100
00111100100110000110010100110110
00111101010111111000000110000100
00111010000011000011101011100101
10111101001111001010111000101110
00111100011100000110100001011000
00111100100111010111100111100010
10111101100011010001011000010010
10111100100101100011100101110101
10111101001010110101101110011010
00111100100010010011010100011100
00111101101010001111011110100001
00111100101010111010011110101011
00111100110010011011000001011000
10111101100101001100100111100100
10111100110011110001111111100110
10111101101110110011101111111010
10111101001001100100110110000010
10111100101101101111001101101111
10111101100100000010100110001010
10111100100000100110100010101010
00111101011000011011101101000100
00111100110000011010000101101101
00111101010001000010111100101101
00111101001111100000101110001011
00111101011100001110010101110111
00111101011001101111110111000101
10111101000001000110101011011101
00111100110100001110000001100000
10111101100111111000101100110111
10111100101111010110010011100011
00111011100001111000101111001000
00111011010101110010101101010000
00111100100011001001111111011101
00111010010000011101011011100011
00111101101010110111000101101111
10111100010001000101001100111111
10111100101000100100111001111110
00111101101110101000111000010000
10111101100010111010111100001111
00111100111000000001111001001011
00111100010001001100110011110101
10111001110010011110111011010001
10111010110100111011010100010001
00111101001110100001110100111101
10111010111100110001011111101001
00111001100000010011011011111110
00111100101000001010111011111111
00111101001011000001111110111000
00111101001100011111100010100001
00111011100101101100010000100011
00111100111000010001101000110000
00111011100110101101001000111001
00111100101110100011101001100011
10111101010001001111010011101001
00111101011101000111010000001100
00111100100111101111100110111000
00111101100101111111110011001101
10111100000110010000111010010100
00111100101100010111010010010101
00111101000000110111101111010011
10111101001101100101100000111110
10111100100111110100010100111101
10111101010010111000110000101110
00111100001001001011111011100011
10111010101101100010110101000000
00111100000110011101101000011110
10111101101010011101110000010010
10111101101000011011110111111111
10111100100001110101111000110000
00111101100010000100100010000101
00111011111100111011001011110111
00111011101001101100100101100100
00111100101101000011010100110011
00111101100100111000111100111010
00111100111111110001101110010010
10111100010001001000001111011111
10111100000111110100010100000100
10111011000101000011111110100101
10111101011010001111001100110101
00111100100110000001010101101010
10111101101000010110000001110110
00111101101000000110010011010010
00111101100001001001010010000000
10111101011110001101001111001001
00111101100001010111011001010011
10111101001101111000011100001011
10111100100011000010110101100000
00111101001011001100011100011010
00111100101010110110111100101001
10111100101010110110010101010010
00111100011011100011010001001100
10111101011111101110001001001000
10111100011110011100100101001001
10111101000100000110011100100001
00111100011011101101010100011111
10111100001111111100001001001000
00111101101001101101111100101100
00111101011100011111000000001100
10111011000011101011111110111010
10111101011000110001110000000010
10111100111100101110100111111000
00111101011110101010001111010110
00111101001000111101010101100101
10111101011101111001111010110111
10111100111111010110010001111001
00111100011010001011000011100111
10111101001100110000011100110110
00111101000111010111011100000011
00111101000001000101111010011100
00111101001011111111000111010101
10111101000100011000111101100010
10111101101110000011000011011001
00111100000101100101001001110001
10111011100110001111101010111101
00111101011010010110010011100001
10111101010010101010110001010100
00111101000100101000011111111000
10111101100010010100011101111000
10111100111010100111100011010111
00111101010000111110100001001011
10111101001100100111111010101011
00111100100110101001100000000001
10111100111100100010110101110001
10111100010100111010001101011000
00111101100001100111001110000110
10111100100100101010111010010101
10111100011111010010011101100110
00111100101111111101000000011010
10111101000100100100011000000000
00111101001011011101010011010111
00111101000110100111111000110101
00111101000000001101101100101101
00111100000011111001111011111010
10111100111001111100011010100010
10111100111001000110010001101110
00111010101001000001011100001111
00111001010011101110100011001100
00111010010111000101010001110100
00111001001011101000010100010101
10111100011011011101110011000001
00111100110100001100110010011100
00111101010001100000001101110101
00111101010011011000111110101011
00111100101000001100000110011011
00111011011011010010001101111110
00111101100011101110011110001010
00111100100101100101011100101111
00111100110011110110111010110110
10111101010011010111000001100011
10111010110100010111101101010101
10111101001000111111111000101001
10111010010100110000100010111001
10111101110101101111100110001100
00111101101010111001010011101100
00111101100011011100110000110111
10111101100110011110110101110010
10111101001010100001110011001000
10111101001101101101101110100000
10111101001111001001111101110100
00111100110001010101110001111010
00111100001110010110100110001000
00111101010001110011101101111001
10111101100000010100011001101001
00111010111001000000011000011010
10111101000001000010100011110010
10111100001001010001000001100101
10111100110101111001010100100111
00111101100000001010101010000100
00111100101111101101111000110110
00111101001100110111100100110011
00111011001000101110111011111000
10111001100001010001000001001000
00111100001101111001100000111101
10111101100100010100011000010001
00111101000001111101001100011101
00111101010101101111111011001110
00111100100010101100110110110011
10111100111011100001011000101000
10111101011110111011010010010100
10111101100111010001001110011001
10111100010111000111111011011111
10111100010001100100111110100010
10111101000010001101110011110000
10111101010001001110000111111110
00111101011111011101101100101001
10111101100010111101111001010110
00111101010101010000010011010000
10111011111100010100101101111000
10111101101000010110001000010001
00111101100111111101110101110100
10111101001010011011011101010110
10111101100100100110000010000010
00111101001101111100110011001101
10111010110110111000110010110011
00111100010100001100000101111100
10111100100100010100110100111110
00111100011110101110010101100011
00111101001111110101111101110100
10111100000111101111010110101011
00111100111011111100000000100100
10111101101011110000010111110111
10111100100010110101110110110110
10111101100100001011010010000000
00111100000001100011100011011001
00111100000110101011010011101110
00111100101000010100000101111011
10111101000010010011110010111001
00111100111000011101000010111110
10111101001000010011011011100001
10111101000010100010011010100110
10111100111101010101001111001111
00111101000000100011010110000010
00111100110010011110100001111100
10111101001110111110111001111001
10111100100010001000000001111001
00111010011000111001111110111010
10111101000000000000000110010001
10111011011110010010010101111011
10111101110000000100110001010010
00111100100011110111000000110101
00111101101011110001010011001001
00111101101110001101000110010101
10111100000111110000100101101001
10111101100011001000110011111101
00111100011010110110111110010000
10111000001110011101101100111100
10111101100111010110000100000110
10111101010010101001101001000010
00111101011001110101101001111001
10111101001011011110100111110101
00111011011100000001010111011101
00111101100011011001111110111111
00111100001110111001100011000010
10111101000110111111000000110011
10111101101110110001011110011011
10111011101111101000011001010100
10111101000110100010001001100001
10111011100010101110110110110111
10111011101011001100001110101010
10111101101011101011011000111011
00111101011011000111100101010101
10111101101001000011000010101001
00111101000010111100011010011000
10111100001101111011110110000000
10111101001110100011010111000110
00111100100100101111101110010101
10111010111100011011010111110011
10111011100000100000011010111001
10111101000010000010111011011001
00111011101001110011110000001110
00111100100010011100110110110010
00111101010100001011100100110101
00111101001111010010000011100111
00111101000101000110010010111101
00111011010100110110010001010000
00111101000000010100001001001000
10111100110001001000100010000000
00111100000111100110000101100101
10111101000010111100011011001111
10111101101000100111110100011100
00111101000110011100101110100001
10111101010000100100111000011110
10111100110110101010011110010010
00111101100011111001110100101000
00111101000101010101001001010111
10111100000111011111101100011111
10111100111010111010101010010101
00111101010110001010011100011101
10111011011000110101001111001100
00111101010101101101111110001110
00111011100101100110101111010110
00111011111010101010110010010100
00111100111111101001101100001001
10111101011010110100110110010111
10111100001011001101100111000111
00111101011001001111001011110101
00111100110000010110011111000010
10111011101010111111111001101110
10111101011110011001110101110000
10111101000011110110011001001001
00111100101101000011111110000010
00111101001010011000110000011010
00111101010100010100001011100000
10111100110110001010111010011110
10111101010010011010110000111111
