10111101010011000111101010111011
00111101011011111001110100111001
10111101011010011000111001101010
00111101100000001000100010101111
10111100000011001111011101000011
00111101100101110100110001010111
00111100100011101001110000001010
00111101010101000010001101110001
00111101110011000011111111011111
10111100111010000110110100011001
10111110000000110000101000110011
10111101100100011111000101101110
00111100111010111110000100111101
00111100111000010001111110000111
00111101001010001001000111000110
10111101100100010010101101111110
10111100100100100001010011110010
10111101111010110010011001000000
00111100100111101111111100101000
10111000000111111110101111101100
00111101000010111001110101100000
00111101000001000110110111110101
10111101000100011100001000000111
10111101110111101001001111111100
00111101010010111010101100101110
00111100100111110101011001111110
10111101011001010101101001111100
00111100100110011100000010000110
10111101011110100000100100101000
00111101101010101101111000011100
00111100111011101101100001011001
00111100011110100011001011101000
00111101101100001000111000101010
10111100110001000110000010110100
10111101011101110101100110001010
10111101101000100001100000000000
10111101100010110010010101000100
10111101000110000111100011010100
00111100100000001011000111100111
10111101011111010111111110011001
10111110000110000110100110101101
00111101001000110111000110100110
00111101011011011010010001000000
10111011100001111101111001001100
10111100100011001110100011010000
10111100101011011111110101001110
00111101001010011100111010100001
10111101100100100001001101101000
10111101000011010110111011011011
00111100010110101010110100100011
10111101101000001000111010100110
00111101100111011100101111010001
10111101101110011101000010001011
10111100111100010111010000001111
10111100010110011011011010101101
00111011100011101100110110111001
00111110000000001011000000111010
00111100000111111000111010101101
10111101000001111011110000011100
10111101000111010001100000001110
10111101100010110111111011000001
10111101101000110101101010010000
10111101100011000111011111111011
10111101001000010110000101111111
00111101111001000000011111000010
00111101001100000011101101110101
10111101110001011000001100101011
10111100100110011101110100100001
00111101010011001111001001110110
10111101010010011110001110011111
00111101101000000111000000011001
00111101000011110111010101100101
10111100100011100101001111101101
10111100111010111011010010010000
00111101100000110100101100110101
00111101111100010110010010110001
10111011111000101001000001101010
10111101100101000101000010111001
00111100000011100111001000001101
10111101001000110010001000110111
00111101001001101011110100100110
10111101100110010110100100111101
00111100001111110111101010000110
00111101000110010100011000011000
00111010101100111100100110011110
00111100110100001110111011100110
10111101110110000100011101010110
10111101101100011010010001100100
00111101111110011100010111101100
10111100110101111110100101101111
10111101100111100011101000101010
00111101001100101000100011110011
10111101001010101010100111111101
10111101100101010001000111111110
00111101100111000101101111001101
00111100001110000110001011101010
10111100111000011011111101110110
10111100100111011000010000011110
10111101000011000110100000101000
00111100011000011010000011011011
00111101111010001010100111111011
10111100101111111110010100000110
00111011001011010100010101111011
10111101101110110111001000100000
10111101101111110100011111110111
10111100110001111101011100111110
10111101000111110100010101100100
00111100111001000101001110110101
00111101110000100111101000011110
10111100100111010010001010011000
00111101101010101110101100011000
10111101000100110011100101100111
00111101011111101001011101111011
00111101110110000010101011000000
10111101101010101110101010000111
10111100100000011110011011100110
10111101011111011010100100001000
10111100111000011000010010111001
00111101001000000110010010110110
00111101011000110001000000001100
10111101110111101111010110110001
10111100001110010000010101000110
10111101100110111111111100111110
00111100100000101000111010100011
00111100011100011010010010010111
10111101001000100110101001010010
10111101011000101011111111100101
00111110001011011001101010000100
00111101011010001010101001011010
00111101001100010110001110100100
00111011110010110110011010001010
00111101000110001100000001011011
00111101111001100101111111100011
00111011011101011101100110001001
00111011001111011010000001001101
00111101100100100010101101110010
00111101010111011001100111010111
10111100110001111001010100001001
00111101000111110010100110110011
10111101110000011010100111001111
00111100111010011000101110111110
10111101010101000111001010101111
10111110000011010100101010010010
00111101000110110000100011011100
10111100010101111000001110110110
10111100110101011001001011011101
10111101001110010000011100011001
10111101100111101111010110110000
00111011110001011000110111001001
10111101100000111101001001001011
10111101001101000101011110001010
10111100100100110000110001101111
00111101010010011000100101011001
00111101110111011000111011010111
00111011100101010011100110100001
00111100110011011001000010001111
00111001011100011111100011010010
00111100111110110010111110001010
00111011100101001100100010010101
10111101001100101110000111100000
00111101001110001000011000000010
00111100111101000000010111111000
10111101011111100110100101001000
00111011101111110010111110010000
10111101000000111000111010101001
00111100101111101110010010010000
10111101001000010110110011100001
00111100100110100001101010011011
10111101000011110111010111110011
00111101000110110010001100011100
00111100100000001101000010000001
10111101000000001111111110100111
10111101111011101000111001010110
10111100100001110001001100001101
00111100000111001110011001101101
00111101101111110000010010100110
00111101011111010100001111010000
10111101101111100111011110100110
10111110000001011001010010001000
10111101100011110100001011011100
00111101111001010000101001011001
10111101100011011100111001011110
10111101000001101011001110001000
00111100110110101100100101000010
00111101011001111100001000111001
00111101000010110111011111100101
10111101101000000110001000000011
10111101010010111000011111111100
10111101011001100101110110010010
00111101000110101011111101001001
10111011011001101001011100110010
10111101000010110011000101101001
00111010110101011100010001001111
00111100010110101010001101111100
00111101001000010011011101011001
10111100100000101101001111101010
00111101101101101011111010011000
00111101001111011001101010110010
10111101000101011001101110111000
10111011110000111101001001101001
00111011111111011100100111111010
10111101000101110001101000111110
00111101110110100111010010110000
10111101000001100010000101110101
10111101011100110101000000000111
00111011101111001111001001010111
00111100111100000001100011000111
00111101101111001010111110101111
10111101000101001110111110111010
00111100110111111111101000000111
00111101001100011111110101001011
10111100110100100100100111110000
00111101010011100000111001011000
00111100011111010111011110111101
10111101101011011011001011101101
10111101100001000010111010001011
10111100101010100001111100001100
10111101101001100111111010110100
10111011101110110001011011011010
00111101000010101001010100000010
10111101110010001001101100011000
10111101011010110101111001101001
10111101010100010100101110010111
10111101010010001000010101010010
10111010100100110000101101010101
00111101100110110010000110110101
00111101001111011100100010000110
10111100101111111011111001110111
00111101101110100101010110001100
10111101001010001110101111101110
10111011110100100101001100100011
10111101010110011011000010110111
00111100111111000110111101111011
10111101000101011000110011010001
00111101000010011010000000100111
10111101010111100000101101111110
00111101101000011101001101010110
10111100111011010011100000111100
10111100101011000011110101000001
10111100101111011110101000000110
10111101001110110000110000000000
00111101110111000100000000111011
10111101001101100101101110011110
00111011111011000101101000111011
00111010001100010000101011010010
10111100111100101101011001000101
00111011010001011100101011001001
10111101000001011111001100001000
10111101011000011011110001011000
10111101101010010010000001110111
00111101100011001111000010110010
10111101001011000101110001111100
10111101100001011100101111011110
10111100111101110111110000111000
10111100110011010001100111011110
10111101101010110100000011011101
10111101101100010101011000100101
00111101011111111110100000100000
00111010100000110000100001011000
00111101110000000101100011010110
00111100011000100010011111110001
10111100100010001000110110101110
10111101011011000111111110101010
10111101110101000011000101010000
10111101100101010111111011110001
10111101001011100110001010001100
10111101100111000000100111000110
00111101010011101000010111001101
10111011000001000001101110100000
10111110000011101100101111100110
10111100110001101100100001111110
10111101000001100001000100010111
10111100110101011101100000111101
10111101110111111011011110001111
10111101100010000011000000111001
10111101101011111000010100110010
00111101001000110110110000000011
00111100111111010011001101100111
10111101000001100001001011010010
00111100010000001001011001001110
10111101010101100110110111101101
00111100011101101111111000011011
10111101101001110101001000111100
00111101101000110001101101111010
00111100110011001110000111010110
10111100111000010110111001110001
00111101010101010100000100000100
10111100011000111001010101111110
00111011010101101111001000101111
10111101000010110001000111101000
10111101001111000101001000111010
00111101001000001111110110010111
10111101111010011100100000111100
00111101100100100101100100101110
10111101100111101011111000001100
10111101000101111010111000111001
00111101010000100100101010111001
00111101000110110000001010001100
00111100100110011011010110011100
00111101011000100110100110110011
00111100100111101100001111101101
10111101000110000000100100010100
10111101000001001101001001110000
00111101001101010010111100100101
10111101001000000000000101010011
00111100001110101111010000010000
10111101110111111111011110110100
10111100111110000111010010111111
10111101000111110000011010111011
10111100111001101011011100010111
10111100100011011110001011110001
10111101101000110100110001100010
10111101000011010110010000101110
10111110000000000001100100110011
00111011111111101011001111000001
10111100000111111100110111001001
00111101000010010011011100011100
00111011010000101110101110011011
10111101011010011001010111100010
10111100101010111111101001000100
10111101100011000101110110111101
10111101010010101100111000000101
10111110000011001101100100111000
10111101000101110110011101111001
10111100101010101011111001110001
10111011000010001011010000011001
10111101010100110010111110011100
10111101111001110100100001100110
10111101100110001001110011110010
10111101010110011101111111100011
10111101011111010100011111000101
10111110000100111001110011010001
10111100100000000100001101100010
00111100111000001010001111100100
00111101110111000000001100110011
10111100100111001001010110001100
10111100101011011101011110001111
00111100010110001111011000100111
00111101111111000100111101101111
00111100110001101011011101111010
10111100101011101011011001011111
00111101100011010000100001100110
00111101001100110110000100000001
10111101001011110111011000000011
10111101010000011101011010110000
00111100001110111000011001000001
10111100000110011111110001011011
10111101100110111001010101111110
00111101001111011101011000110111
10111011101111010111010110111001
10111100000110010111011011001000
00111101100010100101110010000100
10111101010000100001100101110011
00111100011011000110011111110101
10111101101100000111001000111100
10111100110001000100101101010111
00111100110000011010001000101111
00111100111101000111000101010001
10111101111110100110110000111100
00111101000101000101000101101010
00111101001101010111010011001010
10111101010101001111110010101011
00111101110011101001101001110000
10111100000001111101000110100010
00111101000011000011111101111001
10111101010010110110101111101111
00111100110001010111111100010110
10111101111000010111011110000100
00111101101011001001000111100001
00111101010000011110110100100001
00111110000011101110010111101111
00111101101011110111010001110110
00111101100100001000011010101011
00111101110011011111001011100110
10111101000101000111100101001110
00111110000000011110010010100110
10111011011010001100101000101100
00111101011011111001011101001101
00111101110001100100101000101011
10111101010010111010011101001110
00111101110011011111110010110011
10111101100000000111101000001011
00111100101110010000111011010101
10111101101011001011110001010011
00111101100010101011010101111110
00111100110011000011000100001000
10111100110111011101110011100101
10111101100001110010101111111101
10111101101010011010001110101001
00111101010101110010010101100110
00111101010111011110110101111101
10111100001001111100000010100001
10111101100111111011100110010000
10111101101010100011011001111110
10111101111101000111010110110000
10111100101111111001110110110101
00111100100101011110101010110011
00111100001100101110100000010001
10111110000001010001101001010101
10111100100000010000111101110011
00111101000010001101001011010111
00111101001100001111101001010101
10111101010000111010111010101110
00111100101000010110011100011110
10111101100001100011111001100111
10111101100001111011010100101010
10111101100110110000010100011111
00111100010011110010010000011000
00111101000001000010001011001111
10111101000000101010010001111000
00111101101111111011110101110100
00111010001011101110011111011101
00111100000000110000001101111011
00111101110000111100100101001100
10111100101011100011100111110111
00111101101000000100001001011100
10111011101001100000110111000111
10111011011000011011111110111011
00111101011010101000011101101010
00111110000011100000001001000011
00111110000001100011011000000111
00111110000110010100101000101010
10111100101111010011011101001111
00111101110111111000100110111100
10111100111010001001110101010011
00111100110000001111010010011101
10111101110010110011111101110101
10111101010001101101101110110000
00111101010010001001111101011010
10111101101111001010000101100010
00111101110001101110001101110001
10111101100111000110110111000101
10111101000111010100010111100101
00111101011101101011010001100010
10111101111011001011011100110000
00111101010001001001001001000000
00111101000101010111100110010010
00111101001010001001110101111010
10111101011101000010101010001011
10111101001101001111101111010001
00111101011110000000001111000001
10111100001000100011111010001111
00111101111000101101111111111101
10111100011011010100100100010110
10111001110001111101100111110110
00111100011101110111010001111001
00111101100111001000001111011100
00111100100000000101001100111001
00111101011111011101100101100010
00111100110111010010010010011111
00111100101001100010011000001001
10111101100001000001101111010000
10111101000001000000001001010011
10111101110011010111101111110010
00111101001110100101011111111101
00111100100101011010001110010100
10111101000010101101001001110011
00111101011000111011110011110010
10111101100100100011101100100101
10111101110001000101111111001010
10111100000010100111101110001000
10111101011111000001111010111100
00111101101110100010100110001000
00111101100111100100100000111100
00111101011101011010111001100001
00111011100011000001100000001011
10111100001011010110010100000111
00111100000111111110100101101110
00111101101010000000001001011100
00111100110011101111010010010111
10111101011001100000110000010001
10111100001011111100010100111000
00111101000010110110010111011111
00111100000111100010110001110110
00111101011001101101001111101011
00111101001001000110111001111110
00111100100101000111011101011011
00111011101000100010011111010011
10111101001010000110011000111001
10111101011100101011011110001100
00111100101110110000110010111001
10111100100010001110101110010100
10111101100111010100111101111010
10111101111011101100111111010100
10111100100110101101000010110110
00111100100010110011101010010110
10111101110101011100000010001110
10111101110001110010111100010100
10111101010000100111001010011110
10111101011111100010101000010011
10111101000101001001010011001000
00111101000111100111101011010000
00111100011011001010111000110010
00111101010010100011110100101111
00111101101101101010100101000101
10111101011010001001111110110111
10111011000000100001000010101000
10111100110000110010110000100001
10111101010001000011111101111010
10111100100110101010010011100001
00111100010001110000001000100100
10111100001010010010011101110110
00111101011111011100111110000111
10111101010011110111001101110100
00111100100101011101001011101010
00111101000011011101011100100000
10111101011100000000000111110001
10111101101001010101011001001010
00111100100110001000000110001101
10111100110010111000001000100110
10111100000101010111000111101100
10111101100000011011110000001110
10111101000100111000011000101010
10111011110110111111100111111111
10111101001001001110000000010110
10111101000110000110000000011100
10111110000001000000010001010101
10111101111000001111111100011100
00111101001000010111010110010111
10111101001011110100001000001000
10111100100111011011011100001100
00111100010001000000000100110110
10111101110001010011001010100001
00111101000101010010001011011000
00111100000111011100100110010010
10111011110000011101000000100001
10111101110110011010101011000000
00111011110101001001011100110011
00111100001011000101101000001011
10111011100001000011101000001110
00111101110011011010011000110111
00111101011101010100101100111001
10111100100101011101001101100001
10111101100111001101001000101111
10111100110011101110001000110101
00111100010011001010001000010110
10111101110101011101100111000000
00111101000110001000011111000000
00111100101001110101101111010100
10111101000111000010010101000000
10111101010001011111001011011010
10111101010111110111110011011010
00111101110010011110111111001101
10111100110100111110010011010001
10111101011001111110010101110000
00111101000001101110111000100010
10111101010011001011100101111010
00111011001001101100010111111011
10111100111001100011000100110010
10111101011010111001010001000000
10111100011111011010100111100100
10111101110000100100010000100011
10111101100111011110001011000010
00111101100010100001010000101000
10111101001111011000100101010111
10111100010011001100011010111111
10111100100001010001010100001100
00111101001110100100110111110101
00111100101101010101101101100011
00111101101001101010001001001011
10111101011000000000010100101001
00111101000010001000011000001111
10111101000101010001110010110100
10111101010001101001000010110110
00111101000110010001010100110011
00111101110101011101001010011111
00111011001111111010000101101110
00111101100010010000001101110011
10111100100111100101100110110101
00111110000111111010111100001010
10111101001010101001000100001011
00111100101101110001011100100011
10111101101000011100000001100101
10111011101011110001100011010111
00111101001000010000000011111100
00111101010110100001010010111101
