10111101100001000100110001101100
10111100110111011101000001010011
00111101110001101100100100110111
00111100010010100000111011010001
10111100101101001110110110011011
10111101100111000011101101010111
10111101011110001110111101101011
10111100011110111111011100000100
00111100010000011000011111011010
10111101001010001111000100010111
10111100100101011000110001011100
00111101000101111100000110010100
10111101010010000010100000011011
00111100101100011011111000111110
00111100011101110101001000100011
00111101010100101011100101000110
00111101100100111101100010001011
10111110000000101001010000011001
00111100111110101101101000110110
00111101000000000011100101011110
10111101011111100000010010010101
10111110000010001101100100110000
00111101000110101001101101101110
10111101011011101000011110000011
10111101010110011000111011001010
00111100111100111111001000100101
10111100101011111000001001110100
10111011000000000001011111000001
00111100000100000111100110010111
10111101001101001001010111100111
10111101000010100101001000000111
10111100110010101011001011110101
10111110000000110100000011000100
10111101101011001000001100101010
00111100111101110001001110011001
10111100110100011100101101000110
00111100011010101000001101010001
00111100101001110010010100001011
00111101011000010101010111100100
10111100010000111011100011010001
10111101001101001110000010001110
10111101000010000100101100000001
00111101000001000000101110010100
10111101110110101000101001000111
10111101011101100111010000010001
10111101100000000100001111011000
00111101011110101110101011110011
00111101001000110001111010011111
10111101111101101011011010000101
10111101100000111100111111110000
10111101101010001011000000011011
10111101010011000101111010001100
10111101100101011000001111010110
10111101110010100100011001010111
10111101101111111101110111010000
10111101110000111010001111000001
10111011111001101111110111011100
10111101101110010100110101011101
00111011010001101000011111001000
00111101101111101111101111110101
00111011001110110111110110000000
10111101100111111001000110111101
10111101001101001011111001100001
00111100000000001100111100100101
10111100001100000000111101010110
00111101100001110010000010000001
10111100001100000110101110001010
00111101110101010010011011110111
10111101100100000000100001110100
10111101001101011010010011101100
10111100010110101100001011000010
00111101110110001111100101101101
10111101101111001001010100011001
00111100101100111001010111000100
00111101100100000100011100111000
10111011111001110111111100010101
10111101001011110101000001001011
10111101100000101011011011110111
00111011001111010111111010010100
10111101100000001100101111011000
00111100111111000101000101101010
00111101010010000000110011000100
00111101111001110101111111110000
10111101001010100001010010001110
10111101101101111011110011101100
10111101100000010011101101111000
00111101110001111100001100110101
10111011100011011110010001101000
00111100100100111101000101000101
10111101100000001111101001000111
10111100101010100010101110011101
10111100101110010010101000011000
00111100000110010000011000100111
00111101001001100000000111111011
00111101010110000001011011010011
00111101101000100011110000010011
10111100100011111110011100111101
10111100000111101100000100100011
00111101011100111100100011011011
10111100101011110101100101101000
10111101000100001010100001000010
10111100111010110010011110101001
00111101000100101110000011111001
00111101101101000110001110001100
10111101000110111110010010001010
10111101011001101010111001010001
00111011000001001011100011000000
10111101001100111011001111010100
00111100111110100111010111010111
00111011100111100001010110111000
10111100101110101101010010101011
10111101100011011101111001110001
00111101110100001101011001011101
00111101001110110101111101010011
00111100101011111100100011111000
10111101111011010001100000011110
10111100001100100011100100010010
00111101110010010101101100001100
00111101001111011001001100010001
10111101000100110000001110101111
10111101101000000111001100011010
00111100010100100011101100000010
00111100001100100000001101111100
10111100001011101000001011000011
10111100001101100110001100011010
00111101101110011110100000111111
00111101001101110010001110100101
00111101000001000100001100001100
00111101000110010000010100100110
10111101000101010000010100110110
10111100111010010110110110000110
00111011110001010011010000000111
10111101101100001110000010101101
10111101111111110110110000011000
10111100010000000111100110010110
10111101001111000100110011110101
10111100011100110000110110111000
00111011111010001010100010100110
10111011011000111110111101110110
10111101000110110111100110000011
10111101100101011001000001001100
10111101001101001000110011101001
10111110000000011100100100101010
00111101010111001101100110001101
00111100010111011111100001011100
10111011111111010011101111110100
10111100100011101011101111100101
10111101101011100110011100000011
10111101011010101100010000100010
00111101100101010110001001010000
10111101100001001110010011010001
00111101000001110000110000111111
10111100001001100110111110000111
10111011101010010100110100100110
10111101101000001110111010110101
10111101100011010101000001001101
10111101101101001000110001010101
00111101101110001110011101011011
10111100100111001100011110000110
10111100010111100100000000110010
00111011101011001100001011110100
00111101001101011001101000101011
10111100110101010011101110011111
10111100011010111001111010000100
00111101000111011010101110001001
00111101010100110000000110101111
10111100101111111011011101110011
10111010100001110100101001000110
00111101001110001100100111000010
10111101110110101001000010001001
00111101110111110100001100001100
10111101011110000001011010100010
00111101001110011011001101000101
10111100111100101110001010000001
00111101110110110001110100000100
00111100110100000110110110010111
00111011111011010000001011010011
00111100100001001101011011001011
00111101110000100101011010100000
00111101001111011011011010111101
00111100001000100010011100111111
10111100110011111101010111110010
00111101000010011100101110010100
00111100100101100111000000101110
10111101001001001101010110001010
00111101011101110110100111111001
00111101100101100110011111000011
00111100110010010111101100100011
00111100010001110000000001111100
00111100111000000111110110001000
10111101101010001001010001001000
00111101010111110001101000101011
10111101110100100100101101110110
00111101011101100001100111101100
10111011110101010111101011101010
00111101011010110111011000010100
00111101010000101010011100011101
00111011100111111111110010001101
00111101010100010010011100000011
00111101010100011100001010010110
10111101011100110110101011100100
10111011101100010000011100101001
00111101000010111000100101111001
00111101111001011111110010110110
10111011101101000100011100010111
00111100011010111111100101001101
10111100101001000101001101001111
10111101101000000101100101110100
00111101011101111110011010110011
00111101100100100110101011111100
00111101100010111010001101011101
10111101000110101111000111000111
00111101001011110011101000111100
00111100000011000111101100111011
10111100001110010101110111010111
10111101011000000000001100010100
00111101011010110100100110000000
00111100110101111111111111110110
00111101111101001101010100111100
10111101000111101101110100100111
10111101001010111101011001000010
00111100110111101000101100001101
00111100111100011101110010001101
10111100011001011110100001111101
10111101100101010110001101111011
10111101101000001110011001000011
10111101100100011000110010011010
10111110000101001001111100011111
10111100001000100000111111110000
10111100010000100110011011011110
00111101110011110111100110011110
10111101101000010000000010001100
00111101011010110110100000001000
10111101100001000111100110011100
10111101100101000101101111100011
00111101000000100010000100011001
00111100001011100010001100110000
10111100011011000100011111110111
00111101110101111101111011001001
10111101101111001001101011011100
10111101000101011010000100011111
00111100110100011101111101110111
00111100010110101101111111011011
00111101010010101100011110111101
00111101111000010101011111001010
10111101001001011101001100100100
00111101100100010001010101010010
10111101101000101111010110101110
10111101000011101101101010110111
00111100001001111100111010000111
00111101000101111101010111001001
00111101101000000011101001100100
10111101101011010001101110100000
10111101010110100011010010110011
00111101000100111010000111001111
00111100110011011011100111001001
00111101010010111000000011000000
00111101110011011100001101100101
10111100100001010111011001011110
00111101001101001110010010111011
00111100100110001001000000100001
00111011101101111011111000011010
00111100111010100100101010010100
10111101001111101111111001100000
10111101110011000111000000000010
10111100110001001001111011110011
00111010010111111101001010000111
00111101100111100100110001000111
10111101110110101011110111011010
10111101000010101001111010001010
10111101000111000100011100001110
00111101100111010010110001011011
00111101001101111001111001110010
10111100001110010110110110001100
10111101100100011001111110010101
10111101010101111100111000001101
00111101011001100111010100111011
10111110000000110111101011110110
00111101001001101111111100000101
00111100001110001110000001011010
00111101001000111011100111001000
00111101000101001111011000001001
10111101100001011000101000111100
00111100101100000100000101011010
00111101001100101100010110001101
10111101011111000101101011001010
10111101111001000100101010011011
10111101000011110110001100011111
00111101101010111100101110000011
10111101110111011010010111001011
10111101001011110100110011111111
10111101100111100001011101011111
00111101010110001000001011011101
10111001100011101010011100001111
10111101101011000111010010011010
00111100000001001111110001000101
10111101010110010111011111110001
00111101110011000111110110101011
00111101001011001101101000010110
10111100101100011101101010101100
10111101110001001010011110011010
00111100001111011011001000011100
00111101000001001010001100011110
10111101000001110101011111011101
00111100110100100000011011100010
10111101100010001000100001111010
10111101100101111100011110100100
10111101001010011110111110010001
10111110000001111011110010001110
10111101011100001001100111011011
10111011010101001101101111010000
10111100100110001001010111100100
00111101101111011000100110110001
10111101101101111101011011110100
10111101011010011100111111000111
10111101110111100110001011101101
10111101101100111011100011110111
10111100111101001101000111111110
10111011111101100100111110001100
00111101100000011001100111101010
10111101100011101011111010001011
00111101000010100111010110111110
00111101001111110110100110101110
10111101110111010111100011100001
00111101001011111110101100000011
10111110000010111100000101111100
00111100101101111010011111111010
10111101110010001000110110111001
00111100100101110101000101111001
10111101000001111010101010011011
10111101100010100111000101010001
10111101110100001101110011001000
00111101100100010000100010111001
00111100111110100001111110010000
00111100100100100101010001001001
00111100101000000001101010101011
00111101011000011011100111011110
00111101000111111000111001011011
10111101100101011001011001001001
00111101011101101111110011010011
00111100100110111001111011111100
00111101011111001000010001010001
00111101011001011100110000001001
10111100101101000100101011010101
10111100111001010010001100001110
10111101100101101111000011100000
00111101101110010101101011011001
10111101001101100101000110110001
10111101100001101000100110000000
00111100111110001110101001100001
00111100100100111111001011100010
00111100111010011100111000100001
10111101110011000010000110110010
10111101011010100010100010010000
00111100110011100001000001010110
00111100100001001100111011010001
00111101000111100101001110011011
00111101001110101111001110101010
10111010111100000101000000010011
10111101000100010101010110111001
00111101110011110011100011101000
00111100110010101000000011001011
10111100111101100100111110010001
00111101111001101100010111110010
10111101100100100001100101111111
10111101101111011110110000101110
00111100100011000111001000001001
00111100000000100000111010110100
00111101111110101110101111010111
10111101100000110100111100111110
00111100010110110110001110101110
10111101100111110001001011011101
00111101100111101101101110100111
10111101001000000010101000011010
10111100010000100001000101110010
00111011111111101100101100100111
00111011111110111010001110110101
10111101000011111001111110010110
00111101000001011000011101011011
10111100111110110010111110110101
10111101010111000001110010010010
00111100001010010011011010100011
00111101011111101001010000010011
00111100110000110011100100011111
00111101010000000001101100101111
00111101100000001101011010000110
10111101101010100110011011010100
10111101000000010010000100011101
10111101001001001110011110101111
10111100011010100010101000110010
00111101100111001000000100011100
00111100101001001010010110100100
00111101101100000011011000110010
10111100111011101011111000100111
10111101100110001011001000111001
10111100100010101110110001011011
00111101100100001011100000110001
10111100010111100111010001100000
10111101010000010011001001101111
10111100110000100110100111010100
10111100101100110101011110111101
10111100000101000111000010110011
10111101101101100110111001110100
00111101001011001110001000011100
10111100010101010110101101010000
10111100100100010000101110011011
10111101000111011101011000111110
00111101001111010101011001001000
10111101000100110111110100100001
10111101100001011011110100111000
10111101110010100001101001110110
10111101100101010111000001011111
10111101101001111110001100110110
00111011001000010110001011001010
10111100010110110000000110110001
00111101011000101110011011000000
00111101101111111111001111001101
10111101110100010111000101011111
00111100101100101001101010011110
00111101011101010101111011111001
10111011110101001001111111011100
10111101110010101101010000100110
10111101110010010110011011101001
10111101100111100110010110011111
10111100111100000010110010101011
10111100101000101111110100010100
10111011011101110100010111111110
10111011111001010011100011111110
10111101010000100101010110000000
10111101001110000000000010100111
00111100110011001010011000111100
10111101101111111011001001101100
10111011011100111010011110100000
10111110000001001000111101011010
00111100101001000001001000100101
10111100100101111110110100011111
00111101000110101001000000000000
00111101110010110010010001011100
10111101110101000000100100001101
10111100101110001110111100001100
10111101110100111110011010101001
00111101011010110010000010101001
00111100100101010001011000111000
10111101101111100010000101110101
10111101111100111011100101111111
00111011101110111000011011111011
00111101000011111010000010110010
00111100100001011001000010111111
00111011001010100001001010110010
10111101000110110001110000001100
10111101000010101110110111001011
00111101010001111100001001100100
00111101011000101100110101110111
00111100110001000010101101111110
10111011110101111000000011011110
10111101101001100111001111110111
00111101011001000011001001100010
10111101100011110011100101011111
10111101100000111010101111011010
10111100101111001101011011001010
00111101000000101101101110100011
10111101110000111101111111100001
00111100101011011100010101011111
10111101101011000111011001010011
10111101100001110100011101111101
10111101100010100100110010001101
00111011001011110111100001011001
00111100001011001010111011011011
00111100000000010011110111110110
00111101110011100010011010111111
10111100001001100110100111111000
10111101000100110001010010111010
10111101101110110111111110011010
00111100110101110111010101011111
10111101010000010001000101100100
10111011111000010101001111111101
00111101001001000110101110101101
10111100100100011101111110000011
10111101101000011111000001011110
10111101111101010000010111111101
00111101010010110111110111111101
00111101010011110101011011000010
10111101100000011011110001011000
10111101000001001110011111010010
00111101110110011110101000010001
10111101001010010101011101000001
00111101100010000000010001100101
10111101001100001001110010101110
10111101001111010111011000011011
10111101010111011000110101000100
10111100100101101010001110110100
00111101001010100110001011010001
10111100101101001001011001000110
00111100111101110000011100110001
10111101101110101000101000001010
10111101000111111111010000011011
10111101011110111000100011011011
10111101000101100001010001111011
10111100010010001010001010010000
00111101011010101001110111111110
00111101011110011000000110001111
00111101100010001100011111000100
10111100011010101000100001010001
10111101010110010101011111000011
00111101011111010110000000010100
10111101001011101110110010011101
10111100001011110110010100111100
10111011110110101100110101100001
10111101011011000101100000110000
00111101110001000010111011001010
10111100001010001011111010000000
10111101000001001101100100100101
10111101010110101010011101000011
10111101001011111010100011101001
10111100111101001000000100100110
10111101011101000111000111011100
10111101100010110001111000111001
00111101101100110011110100100111
10111110000010100010001001110100
10111110000011110011001101010111
00111011101110110010111000100001
00111010101011011000000011010111
10111101001110001010011000001010
00111100101010011010011111111110
10111101011101001101100011010110
00111101101100100010100100010010
00111100001110011101110001100001
00111101101010011111010110100000
10111101110011101001000110000001
00111101011110000101001000001111
10111101011000001010001100111011
10111101001010111100110111101110
00111101100000101111011101011001
10111100011000010100010001101110
10111100000100110010011010010001
00111101011100001101101001010010
10111101010110100011011111111010
00111100000001111111000100010000
10111100101111011100010101001000
00111101110110110101000011100101
00111101101111000001101101010101
10111101100001001010011111011101
00111101101001101000011010010000
00111101110111100101011010111001
00111100011101011000110011000011
00111011011110110111011000101110
00111100011100101100001000110010
10111101011011001001110010000110
00111100110011110100101011100111
10111110000011001000100111111101
00111100101001110000000011010111
10111101100010111100100000110100
00111101100111101001010010011111
10111101101111101101010110011100
10111101111010101001001001100000
00111101110011001000011111011011
00111101001110100111110111000101
00111011100000010010111110011101
10111101111111001001001011010001
00111101011001011010011010100011
10111101100110011100101111110011
10111100110011000111111111101101
00111100111101001110111001100110
10111101000110110100100011110011
00111100110110000000111011101110
00111101100010101100100111001010
00111100100001101000100010000001
00111101011111110001011101000010
10111011101000010011110100100010
10111101101011000010011011001000
10111100001011010100011011101010
00111101101000000100101100011100
10111100100100110111101001110100
10111100111010000100100011110001
10111101101011100111011100100101
10111101001000001111110011001000
