10111011111001100001110010101111
10111101100010111000110100100011
10111101001011011000000101111001
00111011101111010111110100011011
00111011001111111110010010010011
00111101101010000110101010111101
00111100100011000111010010011110
10111100010011101001010100000010
00111100001111111011011100110101
00111101010000001011110100000110
10111101011101100011001110100011
10111101010011001111000001000110
00111100100101000000010010101111
10111101010001001011011010011111
10111101101100111111010010100110
00111101011100101000011100010100
00111101001101010111110010111001
00111100101110101000010000100000
10111100110010011111010101101100
10111100111001101111110110011110
00111011010001110100001011110011
10111100101010010101010101000000
10111100111001110110101101110100
00111100110100100110000010001001
00111101011111110011011111001001
00111100110010010101000011001110
10111100101001100000000111000100
10111011100001010101001111000010
00111101001110101100001111101000
10111101011011111100110001101001
00111101000101101110000011001111
10111011111100001010000010110011
10111011111100011011100100010100
10111101010111110010101010101100
10111101100101000110100010011010
10111101100111000011011001011000
10111011111111001110011010101000
10111100100110000000101111001100
10111101100100111101101000010011
00111101011101010001000011010010
00111101000011101000000011110110
00111011100101101111011100100101
00111101000010000111011001010101
10111100101000111110011110100000
10111011100111111111110110001000
00111011111000111101110110000011
10111100100000101010001111000111
00111100111001011100001101111000
10111100101011110010010010111100
00111100110110001011000110111100
00111100000001001000100110110100
10111100010001001101011100111101
00111100000111000010011011111000
00111101000100001110011100010110
10111100111101000010001110100001
10111100101111010000011000010000
10111101010101111110010001001000
10111101101011110100000110110111
10111101100101111011010111001110
10111100000011001011110111010011
10111100011011101000011011100000
00111011110011111001011111100110
00111100001011011011001100111100
00111100110001000001110111000111
10111100100100000000001000001100
10111100101000100000110100111100
00111100011111110101001100100101
10111101001010011111011110011101
00111101000001100100010001101111
10111101010011100011100111010110
10111011100100101101101000101100
10111100110111000100111110110001
00111101100101010010110001010000
10111101011101100001000100100010
10111100101010000101001010001010
00111101001001111110001000111100
00111101001001101010011010111111
10111101001111000101001001101000
10111100101100110001010111001010
00111100111110100111110100001100
10111101011010000100001111001111
00111101001011110101000000011011
00111101000001010011101011111000
10111100100101100011011100000010
10111101001101000110110000011010
10111100101011000000111101000010
10111010111011101100010100100001
10111100110000111010110011111111
10111101011010000111100110110110
10111101000000101101010010001110
10111010110001011000100110011111
10111101010000011001100001011111
10111100110100101110110001111011
10111100000010110001111001100101
00111100111111000100101011010110
10111011010001110110111110100110
00111100111110000011101001011100
00111011110111001001010001111001
10111100110001000001001000101000
00111011000100110101000101111011
10111101100010010000010010000111
10111100111111001111101101011110
10111100110101101001110001011000
10111011110100110100001110100011
00111100101011001111100011000010
10111100100001011101001101100101
10111100010100101110011101110001
00111011101011000001001110011100
00111101010100000011110001011000
00111100110010000010100101110000
10111011111110110100010100010000
10111101100000011101001101111101
10111101000111110010100010100001
10111101100100110110100000000111
00111011111100101010101000000011
10111101000110100011101011101100
00111101001010110100011101100111
10111101010011000110011011110111
10111101101001101101001111101010
00111100001001001100110101100111
00111100100010101000111100000111
10111100011010110000011011100001
00111101010110111101110111000111
10111100101101001001000001111101
10111101000011111110001110011101
00111011100000100010010101011001
00111100011011010100000110010100
10111101100011100000011001001110
10111101111001100000000110011111
10111100000111100100110000100111
10111101010110001110101010111010
00111100010100001100010000100111
00111101011111101001001101010011
10111011111000110111010000000101
00111100000000101110011001000100
10111101110010000010000110110110
00111011010111101101100000000100
00111011101111010110011100010111
00111011101011111100110101101100
10111101101000101011001110101000
10111101100111001111110010010011
00111101001100010000010100101100
10111100110011001101010000001011
00111101001110001010010010001110
10111100111000100001011111000110
10111101111000001001011001010110
10111011100010111111001101001000
00111101101001111011011000001111
00111100110001011110111100111101
10111011001101001010000111000010
00111101010101010101101101001010
10111101100110001111101110110101
00111100111110100011101111011001
10111101101001001000110000010000
10111100100000011001011001111011
00111100100110111101011101011000
00111101001010011100011100001101
00111001000010000010001010101110
00111100001011111000110000010100
10111101110010001100100001010101
00111101101011000111101010011011
10111100111110010111110101111100
10111101100000010011110100010111
00111100111111001000110111110101
00111100011000000010111011100011
10111011111011011110100101010110
10111100011000100100011111100111
00111100101110110101101000101010
10111011110001000111110100100010
00111101100110111111010110110101
10111101010101010100000011000111
00111100100111011011011111001100
00111011110101011110111110011110
00111100111010001011001101001100
10111101000011010001000000001111
10111101000101100000100001011001
00111100110000011111100111011101
10111101100010000100111111010110
10111011000000100100000110011010
00111011111011000011111101110100
10111101101011111001010100110110
10111100100100101000100110100110
00111101011010111011101011011011
00111100111110110111010111110111
00111101100110101010011110011010
10111100110101101101100101111010
00111101100111001010101101100010
00111101100110101000000110110010
00111100100000010111010001001110
10111100011111110001000000001101
00111100011000001000000100111011
00111101001010000010100011000100
10111101100110011100110010010001
00111100010101110000100110011101
10111100110011110010111110010010
00111101000111011011011010010100
10111101000010011010100110111111
10111101000001100100101001011110
10111101101011100110000011100001
00111100000000110010011011011011
10111011111110100011010110110101
10111100110011110011101010010111
10111011110110110101010010011001
00111011001010111110010110110101
10111100001100011001010000011111
10111101100101110110001011011011
10111101100001100110100011011100
10111011010010101000101001111100
10111100010100001101101000001101
00111101101011111101101011101010
00111101001110000000000010011100
10111101010100101100101010111001
10111100010100110110001110011011
00111100101010001011110000000100
10111101011011101111110100100110
10111101010000001111100100111000
00111101010000010010111101100011
10111101101010100001110101101001
10111101001101101001010000000011
10111101001110100101011101101010
10111101101001011000010111001010
00111011101110000001001111010010
00111100011100000011001110110110
10111110000010011110001110001101
10111101011000011100000111111010
10111100110111110100111100010100
10111100100101111111110011100000
10111100011100110111000110100101
10111011110010011011110110100110
00111100100001001011101001111001
10111101100100011011011101110000
00111100111010001001001101110100
10111100110001100001001000100100
00111101010010110101100111110110
00111101011010010011110100111000
10111101010100100111111101010110
00111100001001000010000010111110
10111101100110101110101110111110
00111010111110000110000000011001
10111100110101010000001010010001
10111100100011010010101011010110
00111100101010111001000110101110
10111101010010101010011011000000
10111101100000011001010111111110
00111100100010000111111100110110
00111101010111010100011010001110
10111101010101000110101100111110
00111100011110101101111011101101
10111101000001110000011110110110
10111101110011010011111000000000
00111100111000100000101100011011
00111101001011000110100100110100
10111101010111101101011000101100
10111101000010111001001000011011
10111101101001001101110000100110
00111100011101110101101101001110
10111101110000010101110111000001
10111100110000100010011000110011
00111011001101110011111011110111
10111101100111000010100010110110
10111101011011001010001010010101
10111101000100001101111000001110
10111101000010101001111011111001
10111011101001111111100010110110
10111100001110000100101110011110
00111101001110001001010100101000
10111100101000111100111111110000
00111101010001011000011101101001
00111101000001001010101100010010
10111101000000011110011000110010
10111100100100000101101110111111
10111011001111010001111100011110
10111001110111001000010111111010
10111011010010110010110110010110
10111101000111111000001111111010
00111100101000110111001001000000
00111100100101011101111101111111
00111101011010011110011010111001
10111011110111100111011111000010
10111100100101011100111010010001
10111101100111010100001010001011
10111100100111110011110011010010
00111101101010110001001111001110
10111101010010110010101010111111
00111100101100010110001111110110
00111100111001011010110010111101
00111011100100000001000010110110
10111100101011100000101100011010
10111101000101001110111001011111
10111100101110101011000100111101
10111100001111100001001100000010
10111100110101011100111011110011
00111100101101100011011111001111
10111101010000001111000110001110
10111101010000001000001000100001
10111100010110010000000101010110
10111101100010111101100101111010
00111100111101010110101100001011
10111101000000001001100001111100
10111100000100111010011111010011
00111101011001111011010000101100
10111101101111000100010110101111
00111011100110111101001011011111
10111101000001111010110110000010
00111100100100101110100000111011
10111101100011001101110001111000
00111101011110111000110000111100
00111101001111110100000010101000
00111101000000011110010010000100
10111011100111110010100011110011
10111101011110100111111100000111
10111101100110100100100100001001
00111101000101111111100110000010
10111101000110100110001011111010
10111101000000110010110110110110
10111100001000111111110111101000
10111100101101001010101000111000
00111010101100000101111111100010
00111101100011010011010111000101
10111100011010101010011010111011
00111100111011111101010011011000
00111100110111011100100010000011
00111010111010101100110010111110
10111100010110000000000001001010
10111011101010001001111101010000
00111100010110001110010100110001
10111101000010001011011011110100
00111100100110111101100011011010
00111101001100001010110011101111
00111100001000010110011110001110
00111100000000001110100000011000
00111011111100101101110101011100
00111100101111110110111111001110
00111101010001011100100111100010
00111101001101010101100010101100
10111101101101100000010000110100
10111100111010111001010110001010
10111101100001111001001000100101
00111010111000101111010101101011
00111101001010001101000001001000
00111100110110010101101100011010
00111100000101101110100100101111
10111101011100010100101011001110
10111101000001000001100001101100
10111101001011000111111011000001
10111101011110001010010001101010
00111101001001101110001001011001
10111011010110000000011111110001
10111100111101010000001110100000
10111100101110100001001101010110
10111101011011000001001010010100
10111101001111101100111110001010
10111101101110100001011010101100
00111101000011001001010011111001
10111101011100111011100010100011
00111101000010001101100010010000
00111101001100111010001111000001
10111011110000011000010100111011
10111100010100000011000010000011
10111100001101010100001001011010
10111101001010101101011110001110
10111100110000101000001001110001
10111101011100000000011000110000
00111011100111010010010101101000
10111101101010000000000101010101
10111101010110001011010100101010
00111100100110001110100000010000
00111011001110011001010110111011
10111100000110011001010000111100
10111101001100110001100001110100
00111100111001000001100010001011
00111011111001111100100011111011
00111101001101111111111010001001
10111100100010001001111110000101
00111101011111110101100101110000
10111011010101011000110001111101
00111101000010110001010000100100
00111100110000111111010011000101
10111101001000000100000110111100
10111101010001011011100101001100
10111101011000101011110011010000
10111101100000000100111111101010
10111101100111100110010110010110
00111100111010100111110000101111
10111100011010111101101010011100
10111011100001100000111010110010
10111101100101111110110100001100
00111101100010111110110010011111
10111101100001101010100000111011
10111011010001001010110011000100
10111011100110111110011110111000
10111101011001101101010101110001
10111101100010011110001111101101
00111100111000000101011110011010
10111001011010101111001000001000
00111101011001000101100101001011
10111101000100001010000011101100
10111101101001001001001011101101
00111100011110011100000100000001
00111101000011111101111101010111
10111101101111001010111001010101
10111100110101011001110100101000
00111100101010001101011011110110
10111101010111000110000011001011
10111100001111110010010010111001
00111100001110001001010101111111
10111101100011011000010110000000
10111100011100110101111011100000
10111101010110011100010001000010
10111101100010110101111110100111
00111101011101100101101110101011
10111101110000001000000000010101
10111100100011111010001111111001
10111100100000000110001111101101
00111100111001101000000001100101
00111100110000100111111110010010
10111101011111101110000101001011
10111100101110011111101010011110
00111101000010101000011101000111
00111100111010100101001010010001
10111011010101010010000011001000
00111101101001001011111100110000
10111100100100111010101110011100
10111101111011011111011011000000
10111101100101011101011110000001
00111100000110001100001110111110
00111101000110111011001110111001
10111011000101010010111001100000
10111100101111101011101010110101
00111011110000100011110011111001
10111011100010100110100010111011
10111101011101001000010111101100
00111101010111110010010111110111
00111100111100101001001011101011
10111101010100011000010001001001
10111101011011111110001011010000
10111100100010011100010001010100
00111100101110001110111010001001
10111101011000001110011010001101
10111100001101101010011011000010
00111100101100101100100110000001
10111101010110010110100111001001
10111010100001000010101111000000
10111101100011000100001001101010
10111101000010100010101100001110
10111001000000001001100011101110
00111100000111000110000100010111
00111100111111011001001110101110
10111101101000000110100111101111
10111011100111110001100010101001
10111101101110011011110101001010
10111101110011100001110010111010
00111100011100000110111000101110
00111100110000111011111110111101
10111100000101111100011010001101
10111100111010010100011111010011
10111100101101100011101110100110
00111101001110011001110111010001
10111101001010110000010000000101
10111101010001000110010100111100
00111100110010101101010011101011
10111101101011011000001100100111
10111011000111011110011011110011
00111101011000001000000100011101
00111101001111001010010110111010
10111101100110010001101110010010
00111101100000010011000001011001
10111011100100101010110100011000
10111100010000100110011001100011
10111100101100001111001010011000
10111100011111000100110011011110
10111101101110011110111001101011
00111101011001101000000100010100
00111100111111101000111110011100
10111100000010100100111110010101
10111100001010100010101111011010
10111100110001001100100101110111
10111101011110010110100100001001
10111100111100100101110101001111
00111001000010001010110110011100
10111100111100111000111100000111
10111011111111110000100010101111
00111101000010010110010000000110
10111101001000111100001100101100
10111101001011111010110100011100
00111101100100111001011101110111
00111010010010101101000100010001
00111100011110100111010001001000
10111100110011110010000100001100
10111011110000011001110001110001
10111001100001110100110111001110
10111100100011011110101011001100
10111100111011111000001000111111
10111101010001110101000000001101
00111100010000001100001111011100
10111100001011111111000001010101
00111101010111111111011101010111
10111101001100011100110000001111
00111011000101001000101001110101
10111101100111111100010101100101
10111010101110111101001110010010
00111100110101000001111011010110
10111011011010010110000111001000
10111101100011100111100101110111
10111101000110011100010101001101
00111101001000101110101001000000
00111100110010100111001001100110
00111101100010101000100110010001
10111101010000001100010000011000
10111100100101010110111110111100
00111100001110011010100110110100
00111011100010101111110001010111
10111101001000101000010111111010
00111101010001011010111101100111
10111100010010110010110010111001
00111100101011110110100000101011
10111101000000001110000100110100
00111101011001100101001110011101
10111101101101111110111010111000
00111101100111000000000110011000
10111101011010100000001001000011
00111101000010101011101111110001
10111101101101111110001110000111
10111101001001110011011100101000
10111011110100101000001000011010
10111101101010000010001110111111
10111101011000001111111100000000
10111011110000010000111010100111
00111011110000101101010000110110
10111101100100001011010101100110
00111101010101000101010111111011
00111101001001101010001111101001
10111101001111110101000101001100
00111010111011000101000010111010
10111101100111111001011001110010
10111101101010001010110001000010
10111101110001100001111010001011
10111001110010100011000000111101
10111100111011100011011011101110
10111100110100001001001000000111
10111100101101001110111101111111
00111100011110110010000000100111
00111100100100111111110010011101
10111100011001000110110010000011
00111011010111000111001101010101
00111101101100111100111110011110
00111100100010001111000110111010
00111011000111000011110110010010
10111101010100001110011001100111
10111101001111011010100001011010
10111101001011000010010100101010
00111011101011100100001110110010
10111101100010100100111001111000
10111101101111010111001100000001
10111101010100111111101010011111
00111100000100100101011111101100
10111101100000101101110101001001
00111100111010000010011101001001
00111100101011000011001111011101
10111101011101110000000010101101
00111101001100101111010111101000
10111101100101000001001110011100
00111100000111011001100011110101
00111100101111111110111110101001
10111101011100110110010111010111
00111101011111001001010011000110
10111100111011110001001000100010
00111101100101100100100001100000
10111101010111101011011111101010
10111101111001001110011101110011
00111101001111100110101011001011
10111101010101001111000100011011
00111100100000111110010000111100
00111011110101110011011110011100
10111101101000010010010110100000
10111011011111010110111110111111
00111101011111000110010101011110
00111100111111010000110010111111
00111100111100000010111110100000
10111100111110111111110111100001
10111101100100000101011101001111
10111100100100110100010010100011
10111101101000010000110000010000
10111100110000010100011001100000
00111101011010100110010101011011
10111100010001110011000111010011
00111010000000000001011001101010
00111001100010000101011101111011
10111101011000001110110101110001
10111101010100011110111001101010
00111101001101110001111110000111
00111101001100011010101101011001
10111101010100101001011100101101
00111011011111100010101110111101
10111101001010101010100011011100
10111101010100111110110011001100
10111100110101011011000101001001
00111101100011010011110111001110
00111101010010000110111111010001
00111101010011111111011010111110
00111101100000011101000100001000
10111101010000010011011101100010
10111100011000111010110010001000
00111101000111011010011100111100
10111100110110111011000011001100
00111101001100111011101111110101
10111100101100000010011011111000
10111101100000101101010110000110
00111101011111100110111111011000
10111100011001101011100100111000
10111001111110100011111110110110
10111101010011000001111110000011
00111101001101001011000001101101
10111101011110011010010100001100
10111100010011010101101111101011
00111100101100100000101110110111
00111100110000100000010100101001
10111101100011101110100000101000
10111100111110000111000001110100
10111100110100100011111110010100
10111100101110111101001100101111
00111101010100011111111010110101
10111100100000101011001011011011
00111100000100110001110001010011
00111100011111111110100111110110
00111101000101000001110000110101
00111010110000111100010010001110
00111101101010110011010100010110
00111101100100111101111010001010
10111101001001110111100111011110
10111101001011101111010010101101
10111101000111010000001100010000
00111101001011010110110000000100
00111011110101011001010011011111
10111101000011001111101100001100
00111100101111011101000001001110
00111101001000011011101110110111
10111100001011000011110101100100
10111101011001000100000011110111
00111101000100100101111110011000
10111101000111100010000000010000
10111100111011000010101010100010
10111100101111011010010010110101
00111000100011100101001010101111
00111100011100100010100100010010
10111011110010000111101111100110
00111011011101100011100010110000
10111101010000100010101100101000
10111100001100001000000110111011
10111100000010000110100010101010
10111100111010000111011110000010
00111100110011101110111000100010
10111100100110001001001011000000
00111101000110111110001101100101
10111101011111001111010001001111
00111101001001011111001010100111
10111101011010001000100001000111
00111100110001110111011110001010
10111100100110001111010000101010
10111100111111111100010001110011
10111100101011100010110100101001
10111100010011100110010011100011
10111101110011011110100100010110
10111101000101000011010101010000
00111101001101001100111010010011
00111100100100111100100111110010
00111100110000000010000011011111
00111100111101111110001010100001
00111100011100001010101011011111
00111011000011010001101101101101
10111011111010110110100000110101
10111101001001101010100000110010
10111101101011000101011000000011
10111101000000011010000111100000
00111100111111010001101111101101
10111101100011000011000011110000
10111100010011001011101110000011
10111100111110001101001000001001
00111011001001101000010001000001
10111100101011110101101001010001
00111100100111100000010010111010
10111011101100010000101001110010
10111101100000101001111011001010
10111101110010100010100101000110
10111101000011000101110000110100
00111101010011100101011011010101
00111101011010001000001110100000
00111101100011000110010110100100
00111101000111110011001010000001
00111101100110001111001001001011
00111101100110001001101101000111
00111100111011111110010101010100
00111101010001000000101110101100
00111101000001000110011110101001
10111011000111010011110001010010
10111100010000011101100010101110
10111100111101110000000101100011
10111101100110101110011101101110
00111101000011101100100101000010
10111101010000001010100100101101
10111101010100001110101100100101
00111101001101100000110010011100
00111100100100010000110101100000
10111100100100100010011010010001
00111100100101010001010111111010
10111101101101100101010011101010
10111101101011010111101101011011
00111101000010011011100001100111
00111101001110000101110100111001
00111011110001010100111111100011
00111100010100100000101001101000
00111101101011110010000010000111
00111100010000111111011010001011
10111011101011001001000110111001
10111100111100011010001110110001
10111011001100100000100101000000
00111100010101011101010000111111
10111011110000000101111111000001
10111101100001100001101101010000
00111100000000010100010111010101
10111010001110100000001001100100
10111101100101011010101000011010
00111101100000001110101110010001
00111101010100001101100011110111
00111011100001011111000101010111
00111100011001011100000100111000
00111100101110110110111111001100
00111101001001110000110101110011
00111100100000010011101011100001
00111100111001110001101101000110
10111011001001101111100001011100
10111101000010111111111101101011
10111101000010111110111100001001
00111100001011101001011011101001
10111101100000101001010100011110
00111100111001100001101111101111
00111101001100011010000110110001
10111011110001001011100011000101
10111100101101010100111011100101
00111101000110110001110000101101
00111001110111100111100000110100
10111101011000100010111001101001
10111101011110001111010111001111
00111101101101111111100110110110
00111101001000100000110001010001
10111101001101000001110010001100
10111100001111011001101110001111
10111101000010101110000100101110
00111101000010101110010011101111
00111101100010101000001111010000
10111101100001110101011100100000
10111101100100010001100010000100
00111011010101001111111101001100
10111100110111101110101110110100
10111100001111001011111111011011
00111011111011010000111011010001
10111101011100100000100110110011
00111101010011001100000101110011
00111100011101000111011110010100
00111100001101110000000110101110
00111100100011111000111001001010
00111101000100101110010100001110
10111100100110010001011010111010
00111100100111110101001110111111
00111101010000100001111001110000
10111100100111110111110001010110
00111101100100011110010110001001
00111100100001001010010110101000
10111101000001100111100011011000
10111100110111111010000110011010
00111101001111000001011010100110
10111100101110100011101010011101
00111010101101101111011110011001
10111011100100101100000110101111
10111101100011001011010010011100
10111100100111000111101101110010
10111100110000010111011100110100
10111101001000100000010100110001
00111100110000111111111011011000
10111101101000011010110101101110
10111100010100000101110101000001
00111100010110010110111110110000
10111101000000100011001010100111
00111100110001000101011100001101
00111101000110110001011001101001
00111101011110100100010111100011
10111101101010001111101011111111
10111100111011000010111100100000
10111011000010101101111001001010
10111100100000011011110100010010
10111101101101110001101010000110
10111101000011111101011100001000
00111101000101111011101100000011
10111101001110111101110001000000
10111100001100001001011000011100
10111101100001011111011110000100
00111101010000101001110100011101
10111100011111111101101110001101
10111100101000000110001101111111
00111101000111000100010000111101
10111100111101000000000100100111
10111101010010111000100101000100
10111101000111100010011010001110
10111101000001111011111100100010
10111101011110000110111111110110
10111010000101000010000100101110
00111100110111001101111000010110
10111101100111011101001001111000
10111101011111000000111100110101
10111100100111110111100001101000
10111100111111010101101100000001
10111101100110101111000100110000
00111100000001111101001000110001
10111100101011000000100100010101
10111101100010110110100000110101
00111101011110000011011101001000
10111101101101010001111101111111
00111101010000010011110010110101
10111101101000100101101101010011
00111101100110001001100011100000
00111100011111101110110111001100
00111101011001110101101100111111
10111100101100100110111010111001
10111100111111110100011101011101
10111100111010010000000101101110
10111101100010110011000111110111
00111101010111001100000000110101
10111100101000001110001111101111
10111011111110000100000010000110
10111100001001011010100011001111
10111101010100010000010001100110
10111101000001000000001111000100
10111010100001100110100011101110
10111100010100101010101011011011
10111100110101111111110110110111
10111100111100100111101011100011
00111100101100011100110101010011
10111101100101111101110110011110
10111100000101010010010010111001
10111010110000101010000000111100
00111101011110000101110110000101
00111101000001110010001001110000
00111101100000110000010011101011
00111100011100101000100111111001
10111101100000011110101111101010
00111011101111001111101100101001
10111101011010101100111000011100
00111100100101101101111101000010
00111100001111110000000010000111
00111101000101100110100110010110
10111101101011110000101101100011
00111100000011110011011110100101
00111100100011000110011001011011
00111101011101100101110011011101
00111100010101100001001101001101
00111100100101000000001111111111
10111100110010100000011101010111
10111101000010100000100101011010
10111010011111000010000001110010
00111101100100010000001111000111
00111011010100110011110001010110
00111100000110011011010100110000
00111011100000011011000101011111
00111101001000011011010101011000
00111101100000110100100000110111
10111101000111001111101100110000
00111100101011101100100110011001
10111101011111111011101100010000
00111101000011101101001010011000
10111100100101100101001011100011
10111100110011000010101001101100
00111101100001000101100011011111
00111100010101100101000101110000
10111100101010011100101110111000
10111101001101000101111100001010
10111101100000100111000100000100
10111100110101000111101011000011
00111101101000010001010010100010
10111010001000000111010101111001
00111100100101011000100000010110
00111100110110111011111000111001
00111101100000001111111001010101
10111011001011100000101110010011
10111100010011111100001001111000
10111101101000000101000101110110
00111100100110010110101101000111
10111101010010001001110000100100
00111101000010110101000011101110
10111100011001111011011101110101
10111101001100100101001011011111
00111010101001100110000110010010
10111100110010010001100011000101
00111101011000001000100100000110
00111101000010110001110111010101
10111101001101110110011101001101
10111101010010101111101111010101
00111101000110111001101100110010
00111100011011001001011010010101
00111101100110111100101111010110
10111100011001000101110110001011
10111100110101000001000100111110
00111100100000111111000110111111
10111101011000110000101110110001
10111100000100111111011101001101
00111100111111011011101010001000
10111100011000110010110111101010
10111100011101110001011011001110
10111101101000110001110111100101
10111101100101111010000000111100
00111100000101100111001000101100
10111100101110111010100011100001
10111101011100111101001000000100
10111100100001110000111000111110
10111101100001110101000100100011
10111101100001100100011110101110
00111101011011001000111101000101
10111101101011010000110001110011
10111101000000100000010100000010
00111100100010111011110000000100
10111101001100001000101111100101
10111100010110010011111110111001
00111101100111011010011110011111
10111101000100110100101110010111
10111100110011000000100010011011
10111100100110001000001111000011
00111011101101111010010111001101
00111101000110101110100001111110
10111100010000101100100101010101
00111101010101111000100111100001
10111100100110010010110011001010
10111101001000010111010011110111
00111100110001110110110100011101
10111101000000001000110100111001
10111101010110111101011011011011
10111100100111111100100101001001
10111101011111001111101011010001
10111101000110100100001110011010
10111101001010111010010010001110
10111101001011110111000101010010
00111101010001000001101111100000
10111011100011100101110001000111
00111100010111110111110000100001
10111011101110101100110011101111
10111101011100101111101100110000
00111100101000011100010000011110
00111100100110000111110101111010
10111101101011000111111100000101
10111100010011000100101011110111
10111101110110110000001000011001
00111100010011000110101101001110
00111101001000111010000001111111
00111101100001001000011001011110
00111100010101101000100000011011
00111100010011011000111011000111
10111001110110010011110101010010
00111100100111111010011110111010
00111101011100100100100001011111
10111100001010101110010010111001
10111011111010000010001001100101
10111100101000000100000110100100
10111100110100011101101010111010
00111011110100010101110110101000
00111011101100111100111101011100
10111101000111000010001001001111
10111101101011100011111111110001
10111101100001011010110001100001
00111100001100011111101110010101
00111101000011100110000100000110
10111101000100100110011010101000
00111101000001110010010000110010
10111101101001011101110001111000
10111101110011011010100001001000
00111011100101111001110101110111
00111100110001000111101101110110
10111100100011001000110010111110
00111100111100101010010001111010
10111101001100010010101011001100
00111101000101000110111101110010
10111101100001011101011011101111
00111100100111000111011011000001
00111101100000111111001100100011
10111101010111000110000110111111
00111100000110110100111010011110
10111011111001110100011111001010
10111101110100110010110000011110
10111101100001010011111010001101
00111100110001010101000010100010
00111100001001010110100010101011
00111101000001011101110100100100
00111100100000011110100001101001
10111100111001100101000011101100
10111100110100000010011101110011
10111101101011000101000111000000
10110110001111101001000111111101
10111100001001100011111000001100
00111011010100001101001000101010
00111101010001101110001010101000
10111101011110001100101111110001
00111101100010001111000111000011
10111101000001000001011111100000
00111000110011001100001100110000
00111101000101000001010011111111
10111011111000100000100001010011
10111100011000111100100101101110
10111101110110001111101101000011
00111100010001110001001001110101
10111101000110001110011011001111
10111101101001011000011100101100
00111101000001011111101100000011
00111100011111111011000000100110
00111100101110110001100101001110
00111101010010001011001111001101
10111100110110110101111010011101
10111100111000001101000011011111
00111101010110010101010101101100
00111101000100100110110010001111
00111100001011110101011110110011
10111100100000011011110100001100
10111101001111010000110101010100
00111101001011000111101011110101
10111101011000111001001011111111
10111101000011011011011110001000
00111101001110111101111111010010
10111011000110101110100011001010
00111011010010111101100100011001
10111101001001001110110001001110
10111010101100001100010111011100
00111101010011011011010000100001
00111100010110110000000011010110
00111100101011001100111101110101
00111100111111110001110111100010
10111101110101011110011110111100
10111100010110011111110100111010
00111101000010001010100011110001
10111101011110000101110100001001
10111100110110001100001010000010
10111101100100101001011100100110
10111101011000011101101111010101
10111101101011001100010100100011
10111101101100011100101100001110
10111011101110100001001100000010
10111100111000100100001101000110
10111101011100110001010000111100
00111100101101010100000110011000
10111011111110111000101010000000
00111100110111111101010101101101
10111101000011000101000111011001
10111101100110000010111010001000
00111011101100110111000101011100
10111011101000000000110001001010
10111101011000101001000000101000
00111011011010111010110101101010
00111010110001000001010010110001
00111101000101100100101111001001
10111101011011111111011100100101
10111101010101110001000100001100
10111100111001111000100010011000
10111100110111110000100010010000
10111101011010001101110011100101
10111101010100010110101000100111
00111101100111000011011101101001
00111100110011001111001100111111
10111100111000100110110111000100
10111101010111100011110110111001
10111101011111101011100011000110
10111100001000011011111011111111
10111101010011010110010010000111
10111100101010110010010010001100
00111100110100100001011111011010
10111100101111110100000110100000
10111101001111011100000110010011
10111100100101001100110100000111
10111100100000111110111011001001
00111101011001010011001011111001
10111101000010101101101110110101
10111100111100101001100001100000
10111011111001100100110000011100
10111100000000011000100001101011
10111101000011001000000011001101
00111101000000101110111100010100
00111011101111100110010101101101
10111100100010111100101001000100
10111100111111111100010010001100
00111101000111000101101011101011
10111101100001100010101100011011
10111100100100110010001011110100
10111100001111100001111111001111
00111101010000111001110101101001
10111011101010110011100001110001
10111100000010100111111011111001
10111101000000000101010100001100
00111011110011110000011101111010
00111100100011011010101110000101
00111011101110111010001110100011
00111100000100110010010010101011
10111101010110100110001001101100
10111101000001110111010110011100
10111101011111101100001011111110
10111011100101111010110100110110
10111100001011000000111101000010
00111011011101111001001111001101
00111100011100000001110000100111
10111100101011110100000000101000
10111101100100100100000001100101
10111100110010001101011011111010
00111100101101111011001000101111
10111100100011001001010010111101
10111100110101100010100000111100
10111100010110110011110011101001
10111101100101111011001101000100
10111101001100010101101011101101
10111100010101100011011000011111
00111010100111111100010110010110
00111100001111011100001001001000
10111100101110010011010111010111
10111101010100011101101000011111
10111101001000101001101111111001
00111101000011110110011000110111
10111101000111111000100110110010
10111100001000101000001011110100
10111101101001000111000001111011
00111101001011101100001010100111
00111101100101100101110110100101
00111100111000011011000110001101
10111101001110110100000010100111
00111101011000110011000100111100
10111101000110110001011011110101
10111011100001010010100110110101
00111100101011111001110101111010
10111100100011110010110101100001
10111011111111011101100010000100
10111100100011011001100001100000
00111101010100011010111011011010
10111100111010110101111000011101
10111100011100110011100100101111
10111101001101001000101000000101
00111101100011100010000000100001
10111100111101110111110111001010
00111001110000111111110110111100
00111100100110011100101110111011
00111001111100010111001111101101
10111101010111110111110100100011
10111101000100111010000101000110
00111101001111101101111011010001
10111011101011001011010000111100
00111101001101110110011101011100
10111011100010101110110001000001
00111100111000111001011001010100
00111101011100010110010010100110
00111100111110100111100111101011
00111100000011110101011011010100
00111101010111111111110001001111
