10111100001010010000001110011001
10111101001101101000010100000100
10111101011011100000110101101100
10111101110101010100101001101111
00111101010000000100111111111001
00111100101001111011101011000110
00111101100100101001000111001100
10111101010011001000101101100101
00111100001101001100010001001011
10111101010110000110000000100001
10111101011000010111000110011001
10111100111010100000000100111101
10111101001101110011011011101111
10111101100000111100111001111001
00111101001100000111001110101011
10111100100101110100110001011111
00111101001000101000000000011111
10111101000001100111011101111001
00111101000000000110101000000011
10111101010110001110010000010101
10111100111011101111001100011000
10111001110101100111010111010011
00111101101001100111111101110010
10111101011110111000111110000011
10111101011000100110010011010000
10111100100110111100100000011101
00111101000011000000000000001011
00111100111000110001110011100001
10111101010000101010001010011001
10111101100101001101000010000101
00111101000101010000001010110100
10111100110010100100111010111101
10111101011001100011000010010001
00111101000110000011011010011001
10111101000100000100000001111001
10111100111011111000101010001010
00111101100100100011011010100101
10111100101100011000011101110000
10111101001000111000010001100011
10111101101101001001010101111101
10111100101011101011010100000110
10111100110110001011111010001111
00111101100111100011111101111101
10111100111110000001111011000011
00111100101111010111101001101100
00111011101100001011101001101110
00111100110011110010111011111111
10111010101010000011101110010111
10111101000101010011110011011101
10111000100111100111101101100101
10111100111100110011111000101000
10111101001010110101011000110010
10111100011111100111001011111000
00111101001101001101110100010011
00111011001111100010110000000001
10111101010010101000000001101000
10111100110100010010111010110001
10111101000010000100111111101010
10111100001001000000010110000111
00111101101000001110001011000001
10111100010000011100000101101110
00111101011100001001110000000011
00111101010001101001101010011000
00111100100101010100101101000010
10111100110010110001111101010100
00111100111101010101001101010000
10111100100111010101011001111111
10111101000100011010111010100000
00111101101011100110010101010001
10111101001110000111101111001011
00111101000000100010011110110011
00111011011010000010011100010001
00111101100000011110110101101010
00111101111110010101101100000110
00111101100001101101000101100110
00111100110100111001100111010110
10111101001000100011111010011101
00111101101011001010111110001001
00111001110000010001111000010000
00111110000000011001100010001111
00111100000010111111000000010010
10111101011010110111101011011000
00111100100101010000001111100010
00111101000101000010110110101011
10111100111001111010010011111111
10111101101111011100001000000011
10111011011101001100001001011111
10111101100011111100100001010000
00111100011001111100000101100110
10111101100110000110111001110011
00111010111000000010100101100111
10111101111000000010101000111001
10111011100000010100011000000101
10111101010011011101100001010011
10111100011101110101110100110110
10111101100100111110101010001110
10111101001100100101011010001000
10111100010101011010101010110110
00111101001100000000001010101100
00111100101010010110010001101101
00111101011000001010110001001011
10111101100000111100010111001111
10111101100100001110111100101101
10111100001001101101100110010001
00111011101010100010101110100000
10111101101010001111010100101001
10111101000111110101110100101000
10111101100011000111111100101110
10111101100010000000100010001110
10111101011001000100110011010010
10111101011111000101001010000101
00111101000100011110111001111111
10111100110000000111011110011111
10111101010111101111111111011010
10111100101110001001111001010110
00111100101110010100000010010001
00111101011001000100011110110011
10111100110000111011001110111101
10111101100001100010001001100011
10111100100010101001011110111000
10111101000111111001101010111111
10111101000011110010111110000010
10111101101010001111101110101111
00111011110110101111010111111011
00111100011001111111111110011000
00111101100110110011001011010001
00111101000101110101111011100000
10111100101001010011000110001100
00111101010000100101111000001110
10111101010010111001101100000000
10111100110110000100111100001110
00111011111010000110111010011001
00111100111010011000010101111101
10111101011011111000110100011010
10111101100011111110110010110111
10111101100010110101110011100000
00111101010100100001110100100011
10111101011010001111100110001001
00111100101000010010101100000010
10111011010011010100010110110101
00111101100011100111100111001110
00111100010110001100001111010001
10111010111100011100010101011100
00111101100100110101101110110101
10111100001011000111110111100000
10111101010110000000000111000010
00111101011011111101111111011011
10111101010011000101011111000010
00111011111100100001010101111101
00111100000001001100011110010001
10111101100010101010101101111001
00111101100011001011010100101001
10111101101101110011100100110111
00111100101110001011100011011011
10111100111010101111111011010101
00111100101011000011011100000100
10111101000000110011011001111001
10111101001010101000010001111110
10111011101001011110000010010110
00111101011100101110010010001100
10111101100001010001000001000001
00111100011101000100100111001011
10111101100101111111111011110110
10111100110110011100000010001111
10111100110000000101010101110111
10111100000101011100101100110110
00111100101001110001101010010110
00111011101010011101110001101000
10111101001110111000000010010110
00111101001110111001010001111000
10111101010011001001000010001011
10111101010001100011110110001110
10111101000001000101010110100011
10111100111000010111000101101011
10111101001110011101111010110111
10111101100100110111101101110101
10111101010010100100111101010011
00111100110100001011100101010010
10111100000101000111000000110100
00111100110011101010110011101011
00111011101001100010111001011101
10111101101100101000010011101101
00111100111010101110111010010101
10111101100010111000010101000001
10111011001010010000100110111110
10111100101011000000110111100001
00111100101001011010011111110010
10111100101100001000010110001011
10111101001010010010001100010110
00111011100110101000001101111001
00111100111011101110111010110111
00111100100000000100111101001011
10111101001101010110110110100001
10111101001001001001011111100011
00111101100100001110001000100100
10111101010000011110110001100111
10111101000010010110100101111100
00111100100011011110111111000000
10111101010110000010111101001000
10111101100110101001110111101100
10111100011111111010010110101001
10111101100100101000100110100001
00111101011010011110000011001110
00111100001001001100011011000010
00111011011010110001001000000111
10111100100101101010111110101111
10111101011001101001001100111100
10111101101111010100010010000011
00111101001111000110111000110000
00111101001001000100100000110010
10111010010011110000101011011110
10111101000110100010111001011011
00111101110111101000101001110010
00111011101000101100001100100101
10111101000001011110001110011000
00111101000011010110000100111011
00111010111000011111110001011101
00111101011100111011100010101101
10111100010000000011001000000111
10111101010110011010010100110000
00111101011111000000000000111001
10111100101110000011010100110011
10111101101100100011010100011110
00111100110101101101011001010111
10111100111010000001111001000011
00111101100001000010000011111110
10111100001110100110110001101101
00111101010110011100011011110000
10111011111010001101010011100101
10111011101100011011000111100011
10111101101001101111111001011100
10111101001101001101111100101101
00111010111001110111000101111101
10111100100111011000000100100100
00111101011100111000100010101010
00111100000011011111011001101010
00111101101011000011001001111010
10111101000101010110011000101110
10111101010110111101111101000100
10111101101101000011000110100011
00111100010011000010101111101110
10111101001011111111110101101100
10111101000001001010001111100001
10111101101001110000110110010001
10111100111111100111010100111011
10111101110000010001010001010110
10111100101011011100111101110011
00111100010111100111001101000111
00111101010000111111101110011101
10111101101011011000101010101101
10111101011000101101110110110001
10111100000110100100010010101010
10111101100100111000001100000010
00111100000000110000101110000010
10111100101011001100010101010101
00111100100110011110010001111100
00111100000100011010100111110111
10111011111001101101010111111111
10111011101010000110000100111001
00111101011101011100100001110110
10111100100010100100101000100011
10111011111111100001111110010111
10111010100110111101100100001100
10111101100110011101010101011001
10111101011101000100011001000110
10111101101011010010000011010011
00111100111111111111110011111000
10111101100010111011001010010100
00111011101000011101100011000100
10111001001011100011001011111011
10111011110000101000101111100001
00111101000101100111111010110100
00111100100001001101100001000000
10111100011000011110001010100100
00111010010001110010011100111111
10111101001001011010101111111100
10111100000101101110011001100100
10111101000001110100001110100010
00111100000101100011101100011111
00111100111010000001110000101001
00111011110110011101110110101001
00111110000000001101000100101111
00111101100111100010011111100110
00111101000101011000101111001011
10111100110110110000010101111001
00111100001111001001100001000000
00111101011001011111000001111100
00111101000100110110010010100001
10111100100111101110110100011011
10111101000001011011011100110110
00111101100001000001010111110110
00111101000101000111000110110001
10111010000100101010110010010011
10111100011100111110110000101000
10111100100000000100111000110001
10111100110010011001110011101111
10111100100100101111101100111111
10111100111110010001110001110101
00111100001101000000000010011011
10111101010110010010011100000111
10111101011111100101010100110000
10111101101101011001101001001011
00111011110100100011000100100100
00111101000101110011101110011011
00111101011110010100101011001110
10111100010010011110111111100001
00111100111001000010000100011110
10111101000100110111110110111000
10111101110011001111010010001010
10111100110101100001001010101001
00111100100001101001100100110101
10111101110110101000101010111111
10111100111111001110100011001111
00111100000000101101010110000010
00111101001011100010100110011010
10111100111011101100011010100000
10111101000100001110010100011110
10111101000001111111000111101010
00111101100111000110110110100011
10111101011000001101001110111010
10111101010100111011100100110000
00111101000110000001110010111011
10111101000010100011111011101011
00111100001001111110111001000001
00111101101110000010011000011010
00111100111100110100110001110011
10111100111111101000010011000001
10111100110001110100011000010101
10111100111000100101111110001000
10111101100001101010101000011001
00111101011010111101010001100111
00111101011011100110000010010110
00111101001001100001010001110011
00111101000001100101110001011100
00111100110101000010110010101100
10111101001111010001100000110100
10111100011101011101011000100110
00111100110100111011011100010000
10111011010101001111010100000000
00111011100110110001011000101010
10111101011100110111001101010001
10111100100001001100100101100010
00111100100111100101000111010000
10111100011001111110110110110001
00111010110101010101111001110110
00111101001110110010100110001001
00111101010010100111100100011010
00111101001010101000110101001110
10111100100111001110101001100000
00111100110001101000100001100010
10111100100101111100100111010000
10111101100010111011000101001100
10111101100010001010111010101001
10111100100000010111100001111001
10111101000010110101110001010110
00111100101011001011101011011001
10111101001010110101001111101001
10111100110010011110111100100101
10111101100000111001110010000010
00111101010110111000101100000101
10111101101000010011010010000111
00111100100011000010000001110101
10111101000001010011110011011111
00111101001111011000001000000101
10111101010011101101110100000001
10111101001011011001100010110110
10111100101011101001001000001100
10111010110111011110100000100101
10111011000000111010000100000101
00111100001110001001010010100111
10111101100010011010111101000000
10111010101001101111010000100111
10111100110111101100010110010100
00111100110010001001100010100101
00111101011000001011110100010111
10111101001011010000100010110011
00111011101100000101110100100100
10111011011001101000100000010110
10111101000001101000011000000110
10111101101111110001011101110111
00111101100000110111111001110100
00111101000001011100001001010011
10111101000101001101010010110000
00111101010110001100010111001101
10111100100101010010101110010011
00111011101011010000001110101010
10111101000010110010011111100100
10111101001100001000101001101011
00111100101010111101010011010001
10111101010010111111110001110000
10111100011011010110101111110111
00111100101110110111110011011110
10111011101111000000100010110000
10111101000001011101001000100100
10111011010110101010110011100010
00111101100111110010001001010001
10111101001111000000110001001100
00111100010000111011010101000000
00111101000100101110010111001001
10111011011101100101111111000000
10111011001000111001100010010110
00111100000011101110000100110110
00111101011001011101111100101100
00111100110001101110111100000000
10111101000011001111101100110010
10111100110010100010010110101001
10111011001011000110011001011100
10111101011100011000011100010110
00111101001001011000011100100001
10111101000001001011101110011100
10111100100101011011001001011010
10111100011110011000001000010011
10111101101100111000101010111101
00111101101001010010111110010101
00111100110011001010011001111000
10111101000010000011011111111000
10111100110010000110111100001111
00111101001110101010110100000000
10111011101100010111001101111000
00111101010010001001010111011111
10111100001110001110011100001000
10111100100010001100111001110101
00111100011110110111011110001100
10111101010100010111010111010010
10111001001110011001010100000010
00111100011000100111000111011111
00111101010010010000001110101101
00111101100110100110001101101111
00111110001000011010010110100110
00111101000000100110101001110100
10111101001101111001101010000100
00111101100110001001101110111100
00111011101111111010101110000111
10111100010111101110101101001010
10111100111111011001000100010010
10111101110000001010110010000100
00111100111010110010110011100110
10111100010101110100100001111011
10111101101000000100101100010101
00111100100001010011011100111100
00111100000100101101110001110011
10111101000111010101000011001001
00111100110111101000010100001001
00111011111110001000001111101110
00111100100100101000001000010001
00111101001010010001101000101011
10111101011011010010011000001010
10111101011100011001010010110000
10111100110001000111011111000111
00111100101001110001001001111011
10111101011111000001010001111111
00111100110010100101110000101011
10111101001000011000010111011101
10111101100100100100000011010001
10111101000000110101101010101101
00111011111101110111101011001010
10111101001000101000001100101110
10111100001000100111100101001110
10111101100000110010000100100111
10111100101010101110101111111110
10111101100001000011110111010100
10111011110000110011001111101100
00111011111110011001101000010000
10111101100001101100101001101001
10111100100010000100101010011100
10111101000110100101000000011101
00111101010111110010100100001011
00111101001110001110010110110010
00111100001001010000110000110010
00111011010010001100100010001110
10111100011001011111101010010100
00111101101100101000000001011000
00111101100110001000000001110010
00111100110101010000110011110001
00111100100101101000011001001000
00111101110100111111101100010111
00111011101100111011101110100111
10111100100001000000110001001111
00111101011101100110011111001100
00111101001000100110101001011101
10111100010111100011111010011011
00111100011000011000010100110010
00111100111110011001111011000100
00111100111000111010100110001010
00111101101101110110110111001110
10111101010100010101010101001011
10111101010111011011000111010001
00111100101001111100110101110011
10111100100000001001111100011101
10111101101000011101110101000011
10111101000010110100110100011110
10111100100101011101011111111001
10111101001100010000111000111010
10111101001000100110000110001000
00111011000101110100001001010001
10111011100011001010110011010100
10111011011000000001010111110001
10111101001111111100111010010001
10111101101000010100101000000101
00111100000010000011011100111010
10111100011111111101001011100011
00111101100011011111010111100011
00111100001011111101000010001001
00111101000011101001111010101011
10111100100010101001101011110000
00111101011001011001000100110000
00111101001001001011010001001111
10111100111110101010110111010110
10111100000101001110101000100000
00111011101010100101111000100010
00111100001011011011011101010011
00111101100000011011011100011101
00111100100000111001001000010001
00111101000001111001111111000111
10111100100110001101110000011001
00111101000110111110000110011000
10111011101011010100000011001101
00111100110001000001000000111100
10111101010110100101111101001111
10111101110000001011110010001001
10111100011110110100110101101111
00111101010000011110100101001000
00111101000110010110001111011100
00111100001100100001111100100100
10111100101000110001101011011011
00111011100001011000010010100000
10111100110011010000101001101001
10111100111010110010101100010010
10111011000010001101101010010111
00111011110100111001001101111001
10111101000100111000100010101100
10111100010110000000110111111010
10111010001101011001110010111100
00111100111110111110001001101110
10111101010101111000010111011110
00111100100011110101010111100011
00111101100010001010001111000101
10111101001001100100000011111100
00111101000111010011001010101010
10111101010110010011110000001011
10111101111000011001000000001010
00111011011110001010111010000101
00111100000111000000011011101011
10111101010000100100101101111111
00111100111011000111010101110011
10111100010101011111111000000100
00111101000001011000101100001000
10111011101000110001101000010011
00111101011110000001100111010001
10111101001111011010000101110000
10111101010101101010100000011101
00111101000001100110000000000100
10111100100100010111010010111101
10111101101010110101010101011001
00111011100010010100010101000101
10111101001101110111000111111001
00111100111010100110001110011101
10111101000011101111011100110011
10111101000011100110101000011010
10111101111010011000101001000011
10111100110101110101011010000000
00111101011000001000011010101100
00111101100000010101010010111111
00111100010010100110101100011101
10111101101000111001111110101100
00111100101010110001111010100001
00111101001100000100101110100010
10111101010111000011110101000000
10111100110101111111101110001100
00111100100101000011000101010100
10111101110000110011011111100111
10111100010001011011111010101101
10111100100010000110010100011011
00111100011101011100001011011111
10111101100010111010110000101100
10111101001000100111000011001001
00111100000001100111100010101010
10111101000000011100101110100101
00111100110100111000100011010111
00111010100011111011001010001001
10111100001000010000111100010100
00111100011000110111100111000000
10111101010110100011100001000000
10111101100101110101000010101011
10111101100000010010110110111001
10111101010000000010110000011111
10111101011000000011010011010100
10111101100010100011000000101111
10111101010101110111111011000000
10111101011101011110101010001010
00111101010111111001001101101111
00111100000010110000101101100110
10111100000010010000001111111110
10111100110101111111001001010000
10111100101100101011110101110100
10111100110010100100001100000011
10111100010000110101011110101001
10111100110110000010000110101001
10111100010000010010011110001011
00111101010000100101001001100101
10111101111001101001010011011000
00111011101001101101100000100001
10111101001101011001111010110011
10111100101101111000111100100001
10111101010010101110010101101100
00111011110000111101010111111000
10111101001100100000000111000010
10111101111010101011111000111000
10111101011110110101100100100111
00111100100111111111011100100011
00111101101101000011010110110000
00111100100011011111001101100010
00111100010101001111001001010100
00111101011001010010000011111010
00111101011101101101010010001011
00111100110010110010011010010100
10111101010010111001110111100110
10111101000001111111001011001101
00111100000010010101000110001101
10111101010110010100111101011110
10111100001001011011101101000000
10111100111100000110010011110111
00111101001011010000001001111010
10111101100001111000011101110110
00111101000001001001011101011010
00111101100001000011111000011110
00111101000101100001111010111010
10111101100101111010011010010000
10111101110010111110000110101011
00111101000001000100101010000101
00111010111110011010000101001111
10111101101110110000101110001100
00111100101101110011101011110111
10111101100010100111100110011100
00111100001100011001100101011011
00111100110010011100100001000111
10111100110101110001001010111100
10111101011110000011101011101001
00111100110110111001010111101001
10111010110000011010100101111110
00111101010100010101100011101100
00111101000110010001101111101010
00111101100111111000111001011101
10111100101110111101100000000111
00111100111011110011111010101111
00111100011010110110100100000100
00111011111101010111110010110111
10111100111110110011010101110101
00111100111011101100000000000011
10111101010001111101111100001001
10111101000010111010001110111011
10111100111101010100111011001001
10111100010110100011111110010011
10111100110001001100111100101101
10111101110111011001010010110101
10111101100110100111000000111101
10111101100001000001101001101000
10111101011010110001101000011010
10111100101110000011101110000101
00111100111110101100011011101011
10111101010100001111101001101100
00111100101100011001000101100101
10111101011101011101100111010000
00111101000100010100011110000111
00111101010001100001110000110000
10111100101000100101100101100000
00111100111000110001010100100111
00111011000001101101000111111101
10111100100000101110011100110001
10111100101000001110000101001011
00111100010010101001100011010001
10111011100001001110101100100111
00111100000010000111101011000111
10111101100110010101010111010000
00111100011111100100101101111001
10111101010000110000001101111001
10111101100010111100111000001100
10111100110011000101100100101111
10111011111111000010010000011100
10111101001010011100110011110001
00111100111100100110100011011110
00111100010010100111010100010000
10111011110110010000101001000110
00111101100000101111001001001000
10111101001100010111100111010101
10111100111000100100010011000011
00111101010011100011001011000011
10111101110001110010111000011000
10111101000110010101000110110011
00111101000101010000011101101001
10111010110101001111101110011100
10111101000001100011110100110001
00111101001001010110001110100110
10111100101011111100110111100110
10111100100001011101010001000010
00111100101001011001000010010111
00111100110101111111110010011101
10111101010101001001101000000100
10111101000111110010110111011101
00111100010001010000110001000111
10111101001001001111101110110011
10111011011010001110010100001010
10111011101101001000111101000100
10111100010110011000100010110110
10111101001101000010000100000110
10111101011001101100011100101001
10111010101100001100111001010010
10111100101111000101111010010011
00111101100110111000010001000010
10111101100000110000001100100000
00111101100100101010000101111110
10111101100110111011010010111011
10111011000000010011000111000111
00111110000011101110100101101011
10111101111111010000111011100101
00111101000001010010101110111101
10111101100000011110000101001111
10111101000010010101100010111001
10111101010100111001011001010110
00111101010100110011110000101111
00111101000000111000101001101111
10111100000101101101001101011101
10111101011010100010111010001000
10111101000010000111110010101110
10111100100110110000101100000110
00111101010010000111110100000010
00111101010100001010010101111100
10111100100010000110110110101100
10111101011101100110110010001010
00111101101000100110011001101101
10111100001111111100011000011010
00111100001110011000001100111000
00111101100010100110111100011110
10111101100110001101110110000111
00111010100001101010111111001001
10111101011000011110111101111101
00111100000101010001011110100110
10111101011010001000110001111110
00111101000011100101101000010011
00111101011001011110110111010010
10111100111000001001000110101111
00111001100011010110110101100011
00111101100100010111011111010000
10111100101000101101011111001100
10111101000110001000000110101011
00111101001101101111000000001010
10111101100000110100011011010010
00111011001111010010011110110110
00111100101010100011100110111101
10111101000001100011111101100110
10111101001011001101010001000000
10111101001111101011001100011110
00111101011111110001110100011001
10111100111001110000001011010100
00111101001100101100111010111000
00111101100110111000000100010101
10111100010101101001000011010000
10111100011001111110001100010110
00111101000000010001100100101101
00111100101010010100101111100111
10111011100110100101001110000101
00111101010110011001101111010110
00111101100110010010111100100110
00111011100011011010100001000001
10111011001110111000011011101000
00111100001011101100110000110101
10111011011001001101101010011110
00111011101010111101010111111111
10111100101010111011100101101010
00111100111100001010100000111110
00111011011011101110001000001110
10111101001011111100101111100000
10111100010100110111010010010001
00111101011111110011001100001111
00111100111110010111000011100010
10111101100001110110111001110100
00111100110100000111110010011001
00111011100001000000110001101000
10111100100010001010001100100001
00111101100111111010011111001100
10111101001111100011011001010100
10111101000110101010111011000110
10111101100101011000111001100110
10111100100100111010100000101110
00111011001000111110001010101111
10111101001000011100101100101010
00111100110010001010110111110000
10111101000110010101001000011101
00111101011011111101100100111111
10111101011000100101111111101101
00111100001011100100000110101110
10111101100000100010111110110111
00111100011001111000000010010111
00111100110111101100100010101010
10111100111100100100100001001011
00111101010100011100001001010101
10111101000101010000011101110111
10111100011111011010101000100111
00111100101011111101011101101111
10111101100110011010110001100010
00111101100101111100100100100111
00111101010000111010100100001101
00111101010110100111110111100100
10111100111110010001010110010101
00111100001001101110110000100101
00111100111001100101000111011001
00111101010000001100001001110011
00111101101011101101101001000000
00111101101011111011100010001001
10111100100111100010100111001101
10111110000001100001001001110100
10111101011110111001001011010000
10111101101100110100010110011001
00111101001001111000101111001011
10111101011101000010101100010100
10111101101110100100010101010101
00111101000000000011001100111111
10111101111001110110011100001100
00111100000100010011000000010101
10111101101001010000011101111010
10111101000001101101010101100011
00111010100011000011000111001110
10111101110110110101010010001000
10111001000000110110110011001001
10111101001001010101010001101101
10111011111110010010001111000101
00111011111000000100110111111110
10111101010010111010100110110001
10111101001110110011000011000111
10111101011111010001101101011111
00111101100111001101111110011011
10111101100100111001011001011100
10111101100001100010110101111101
00111101010110000001111101010111
00111101100001011000111110001010
00111011110101110010111001010000
10111101010111100011011111110100
10111110000101101111111101011111
10111100011001000110011000100011
10111101000100101110001001111011
10111110001011010011010001101000
00111100000010011101110110010111
10111101001010111011001110000110
10111101110000101110001101100010
00111110000010100000010110101010
00111101100101010001111100100111
00111101000010001001100101000100
10111100010001010100101010110100
00111101001111001011000111110101
10111101011100111110000101011111
00111011111110001111100101100110
00111101100111101100000100010001
00111100011001111110001111111001
00111100011011000001000010111001
00111101000011111001010011011110
10111101010001100100001100100010
10111100101111111100100001011011
00111101101010100001100110001000
00111100110011111001100110111100
00111100010110000100000101111010
00111101110001011001010111011001
10111100101010001010100111000111
00111100111111000011101100010010
00111100101001001100000111010010
00111011011100110100111110001110
10111101011010001011101000010001
10111100111110100101001100101110
00111101101000010110101001010101
10111100100011100110011111111101
10111101100000010011000001111111
00111100011011111000101000001010
00111100110001100101001100011000
10111100000010101111011110110101
10111101101101001110010110011110
00111011111010110100111100010111
10111101011010100001110101110101
10111100101101100011110000010100
00111101001100000101110100001010
00111100001110111010111011001110
10111101100101011001001011100000
10111101000011111110001100011001
00111101001101101001001011110100
10111101101110101001001000011100
10111101111000001001111111011111
10111101011110001000000110011000
00111101011110111111011101110110
10111101001000100011111100110101
00111100000111111011000111100010
10111101110000111010111110110010
10111101111001110011111000000011
10111101010011101000110110100001
10111100100011101111111101001010
10111100101110101100101100101111
10111101001000101011011100111101
10111101010000111111011111111100
10111101000100111111101111100010
10111100010011100101001111001111
10111101001001101110110001000011
10111101000100111011010001010110
00111101100000010000011000100111
00111101011101100000100100111110
10111100101011010001000010001110
00111100000100100001000011101110
00111100000110001101001100101010
00111101001011011000111011011110
00111101001011001001010100110111
10111101100110100100010101000100
00111011000110011011110001110100
10111101010110001000000101111100
00111011111000101101010110000101
00111100110110000011000011101101
10111100111000101101111101010011
00111100011000101001110000010010
10111100111001100101010010111000
00111101000111101001000001010100
10111101100001101010011100000000
10111101100111110001001111100000
00111100101000101001111011010000
00111101010011010101000010000001
10111100110100110101111101010010
00111101010010001110001001101001
00111101001111001001011000101011
10111011001000101000110000000000
00111011101011110010111000011101
10111101011011111001101101101001
10111100010011111001111101111101
10111011111010100010001011010111
10111101000111000000001001110101
00111100110100111001101110011111
10111011100011001001110111011001
10111101011001110110101001110010
00111100100011100110010110010110
00111100100011100001011010110101
10111101001001101001100111100010
00111100010100101001011100111000
00111101011111111000011001011111
10111101001110000011100111101001
10111100111000011011101101100010
00111010101011100001010110100110
10111101001000011011110001000100
00111100100100111000000110101110
00111011000101110000001100110011
00111100001111001111010111110011
10111011100010001111010101000011
00111100000111010111110101110000
10111101101110011000010101010111
10111100010111111111111000001001
00111100101001011000010100100001
00111100101110101111110101010110
10111101001001000010100010000000
10111101000010000101100000010110
10111101000001101000010011111000
10111100001110010110101110011001
10111011101101011000000110110001
10111101000101101000010101100111
10111101110001101100101001101001
10111100110110010000001101010011
10111101100010111110110100001011
10111100010011110000001000100010
10111100110001110100100111110101
00111010100010011100100000101110
00111101010001000011010111111110
10111101000010100011100000011101
00111100010110100101000001010010
00111101001100100100000101010111
00111100010111101101100110101011
10111101100000111010100011001111
10111101000000110000011111111100
00111011101111010000110110001100
00111101010101110000101110011111
00111101000110100010111000100110
00111101100101110101000110001010
10111101000111011011011100011110
00111101100010100101001110111010
10111100110110111001111101001101
10111101010100000010011010010101
10111101000000110011100000011110
10111101010111000101100001001011
00111100000100111000110011100100
10111100100111000001000100011100
10111101000011010001100010110011
10111101000111111001111101010010
10111101100100111101011000000011
10111100111111100011001001110001
10111101010110110000100111011001
10111101110000110111000100111000
00111101100110000001110010100100
00111011001110011010110101100101
00111101111001110111111011110010
10111101010101101001001110011100
10111101111110010100000101110001
00111101100110000001111100011100
10111100101111101110101001001010
00111101001101001110101101010101
10111101100100111001011001010100
00111101001011001010110110001001
10111100110111100101010000010000
10111010010101100101010100110110
10111100110100001100100001100111
10111101100010111011010100000110
10111100000111110111001001010000
00111100011111001111011011001110
10111101110011110100010101000110
10111011111001010011001000000111
10111000001101000000111101000100
10111101001000011110111110000111
10111100111000111000010111100111
10111101101110000000100101100111
10111100101100111001001001110111
10111100100100000011011011101110
00111101011011001011010000000001
00111100110000110101100110010100
10111010100101000011100110110010
10111100111011011001011111000001
10111011111101101110001011101101
00111101100010001101100111010010
00111101100101100110111010111111
00111100100111101011100001101101
10111101111001000101001010111101
10111110001001011010001010011110
00111101011000011010000111001001
00111101001100110011100000100100
00111100110000100011001001110010
10111101100001101001011101100100
00111100010011101100001011100010
10111101010101010001111100110100
10111101100010000100010110000100
00111011100101000011010000011001
00111100010010011111001100110110
00111100011110111011010101001010
10111101001111000001111000110000
00111101011001100000001100010110
00111100110100010010100011010100
10111010010111101000100000000001
10111101010000010011101001001110
10111101100100001011111110111111
00111101101010001010100110001101
00111100111010011101100000101000
00111101001010010011011001100010
00111100010101000001111100101100
10111100111001111110100111000010
00111100001000000000110100001011
10111011000010101100100100000101
00111101010101000110000110011100
00111100000111000011101110011011
10111101011011111110010010010111
00111100110100010101110100111110
00111010010000110101011001000001
00111100010101100110000011111100
00111100011000010110111110000110
10111100110111111010100000100010
10111101001101110110101011010010
00111101000111111000100110001000
00111101010001110100011001111010
10111101010101110000011010011111
10111101100010111110110011001010
10111101010000110011101001101100
10111101000000000011110101110000
00111100101010011001010010100110
10111101010100100110001000011101
10111100010110101100000100000101
10111101100111001100101101101010
00111100110110000000010110111101
10111100000001100110111101101000
00111101000101101111010101001110
10111101010001000101000100100010
00111101110010110010000001110110
10111101000111010010100110011100
10111100010100000000111011101101
00111101001011011111100010111000
00111101110001101110000001000111
10111101010100000101000000000111
10111100100010001011111010001000
00111001111010010101011111101110
10111101100111111001010111010101
00111100000001101111110100101010
10111011100000010100100100001000
00111100100011110001111100000000
10111101001110010101111100001100
00111101001001000101000001011001
10111100001001111101001010011111
00111101101010111111110000111101
00111101100001000111100010000111
00111101010100111001100010101101
00111100010100100101101000010000
00111101010011111101000011001110
00111100010011100010101111101101
00111100111000010010110111001110
00111101000000100110100010111101
00111110000000110010111001110011
10111011111111100101011000101111
10111101011001011110011010000111
10111101100101010111111101111101
10111101100011110110011101011010
10111101001111100110101011000001
10111101100100001100001011111001
00111101000011000001011001000100
00111100101101101111011101110100
00111100101111111101111110101001
00111101000001010010000001010100
10111101100110000010001110101100
10111101010111010110000101011110
10111101010011010111001111010000
00111101100010101101110010100111
10111011000011001001001110110001
00111101011000110110111000110100
00111011111000000011000000111110
00111011110011101111000111000101
10111101100000111110110110100110
10111011100100010101000000101111
00111101101101001100101110010110
10111101000100100000010111011001
00111101000011111011000000111001
00111100000000101110111000011001
00111100101011111010111111011001
10111100111100111011110001010000
10111010110000100100010100100011
00111100010111101100011011111001
10111101001011010100110001101100
10111100110000000011010101101111
00111101100010001110011000111110
00111101100111101100101001110110
10111100101111100001101111011111
10111101001110011111101010101111
00111101011001110000001000100110
10111100100010101001010011001101
00111100111100011000001100000011
10111101100000000100011001111111
10111101001011110101010100011101
10111101010110011101100011010000
10111100100011001010011001000001
00111101000111110110010010101100
10111100101100001100111001101100
10111100101000101001100011110000
00111010111010001111101010100100
10111100010111110011010100110011
10111101101000001110100111111001
00111101001101011010100001011100
00111100011100000110001011111000
10111101000111011001101100101110
10111100000001111011001001011001
10111101001010010010011001000101
00111011100010101010101101101111
10111101000111010101001110100001
10111101101100000110011101011000
00111011111110111001110101001011
00111101011010001100010001010100
10111100110010100001110000000110
10111100101101011010011011000100
00111011011111001000000101011110
00111011010000001101101010110110
10111101010000010110001110101100
