10111101100011100001101001100110
10111101000111110000101010110010
10111101010010110011111101010001
00111100001001001001101100101000
00111101101100100011101000011001
00111101100111111010000001110000
00111100001111001101000101011100
00111101110101111000000010110000
00111100100011010111011001000000
00111101001010110000001100101000
10111101001101001110111010100000
10111101100010011100101101010110
10111101110000011011001111110100
00111101000110010110011011111110
10111101001010010101100011011101
10111101010011010111011011010111
10111101011010011100100110011111
10111101100111111111101001001011
10111011101001110111011101101010
00111101101011001101101111100101
00111101110100011011110001010110
10111100100010011100100001100101
00111101010011111101001101111100
00111101010000001000101010101010
00111100110010011000111111110010
00111011110000111010011110111110
00111100110100011100011000011001
00111101010100101110010101010100
00111101101101011010000000100010
00111100011100100111001001101011
10111101011001010110110100100101
10111101000111011100001011111101
00111101010001011001001111101101
10111101100010001111000101010011
10111011000011010001010010001111
10111101010101110110011110000111
00111101110101001100101001101110
10111100001001100101111110101111
00111101011000110000010000100100
00111101101101110000111101101001
10111101011111000001001110101000
00111100010111000100000111110001
00111101101101111101110111011001
10111011010000110110010110011000
10111100000100001011101101101101
00111100011010110110001011110100
10111100100100000110000111100101
10111101100011111001000010101011
00111100001110010110110010011110
10111101100001110101001110100100
10111101010011010010101000101110
00111101110010011001010000110011
10111101000101010100010000101010
00111101100101011110111011010000
00111101110101111011111110010101
10111100101101000011101101010111
00111101011100101111100110000110
00111101011101000010000011010000
00111101110011110011011001011100
10111101110111000011100010101001
00111100000101111100001001101100
00111101000001110111000000000110
10111101100000000001010001000000
00111101000010101111100111100011
10111101101010111010110110011111
10111101101000000011110111110001
00111100111011000010010100001101
00111100000110110001000100001110
10111101110101000001000100001101
10111101101100100001101010111101
00111100111000101011100001010110
10111100010010001000101011111100
00111011101100001000011001111010
10111101010100110101001001101000
00111101011011011000111100000100
00111101101111001000101010011101
00111101011011001011010101010001
00111101101000100111101010001101
00111100110100111101101010000001
10111110000110100000010001010100
10111100000000110011001111010011
10111101000110100011111010100000
10111101000011110011000010010100
00111101100010001000010111000111
00111101110111001100010111011101
00111101001011001001011101010000
00111100101001110011000111101010
00111101100001100000010011001111
00111101100010101101110001001001
00111011111111110001100101110100
00111101001110100010010111101101
00111101110110010101001001110001
00111100100010011100111100110111
00111101001010101100011111101011
00111101001110011001111011100001
10111101111011000011011000101011
10111101000001001110100011001000
00111101011010101010011111101101
10111110000000111101100010000000
00111100000110001011000011000011
00111101010000000010100110111001
00111100111100010011010101010010
00111101111000100100010111001011
00111100101010100101001101010111
10111011101100001100000010011110
00111100111110000001000000111110
00111101001010111111010101001011
10111101000001111011111111110101
00111101011010001011011101001011
10111011111001011100010101111101
10111101010110000100101101000110
10111100010101000011110010010001
00111101010011000010101110010110
10111100111100101110110011110001
00111100101010100101001011011001
10111101010000101101111000101101
00111100100101100000100000100100
10111101000100111001100110111101
00111100011001001011101001011010
00111110000010001100011000010011
00111101001100000101001100110010
00111101011110010010011011011110
00111101100110111011001100101000
10111101111010000000111011000011
10111101111110010000000001111101
10111101101001011001000011010101
10111101000001001100110010110001
10111100010000100111000100000101
10111100101010100100110100101010
10111100000000111110100011001010
00111100000001110110011101100010
00111011101001001110101111010110
10111100100101000111101001001000
10111101110001111000000001111001
00111101001000110010001010101101
00111100011101100110011111001100
10111101101010011000001000110011
10111101100110001101010011011011
10111101101000101011011101111100
10111101111100111000000101111101
10111110000000110001010011110010
10111101010110100111011001100001
10111101001011111100010110111011
10111100011111111010110010110001
00111100100001101110001110100100
00111101011000000100100010010010
10111100101000101000001010111111
10111100100101001110100100011100
10111101000000100111011110000011
10111100001000010010100101101101
10111100110000010100010010101001
00111100111110000000111010111011
00111101000110000000001011000011
00111101101101011011100100010100
00111100000001011000011001110101
00111101101110001100101000010010
00111100000000011000110001101001
00111100100010101111011001111111
00111101000011000100010100101110
10111101101011011000110010010000
10111101011101001010000011111001
10111101101010101010100100011011
10111011011010111011110100011111
10111101100010110011100010011111
10111101100101000111111100000111
10111100101000011001001100011110
00111101001001101011111100101110
00111100001110100010111011110000
10111101100111110011000111101011
10111101100100110101001100010000
10111101110010101110010111101010
10111100010011100000110001110001
00111101000010100111100000011110
10111100011101001000101110010101
10111101011110010010101001010101
10111101100100100010111010101001
10111101110010010100110101000000
10111100101110101100100110111011
10111101100010010101101101100101
00111101101101101010100011001001
00111101001010101110110010111110
10111011101000111110100011101100
00111101010001010010101100011010
10111100011000011001110101011101
00111011011010000001100101001011
10111100101011101010001011101011
00111100001101001100000001001111
00111101100101000100100101001101
10111100000100001000101000101100
10111101000110110011111110100110
10111101010110100111111010001111
00111010100100000100010011011001
00111100101110110001011011110101
10111100000011111001110111000000
10111100100001011101000010010001
10111101011011010001001011110010
10111101000100010111101000011111
10111101101001000000000001110011
10111101101010000111000011010000
00111100101110000111101010001100
00111101011110110011000100101011
10111101100000100100011111110111
10111101101000111010110111010111
10111101101011001110010100110011
10111100000000010010100010101111
10111101110000000011011001001110
10111100111101010000010011100101
10111100101100100111100100110001
10111001110010010010011010110111
10111101010001110010111101101001
00111100111111111111101111101111
00111101111100011100110110100001
10111101011011100110111100110001
10111100100110111100111010101100
00111101010001101011010010000111
00111011110110010101000011100001
10111100100111000011011011000110
10111100100010000011100011011110
00111000101010001111101111000000
00111101001101000011111000001111
00111100110111010001000111101111
10111010111110001111011111001100
10111100011111011000001100110110
10111101011110100010001111000001
00111100001011101000110010000101
10111101100101010110011000100110
00111100101100000011111001111000
10111101001001100000000110011100
10111110010111101101010101101101
10111100001111011000101011010111
10111101101100110001111100000101
10111100111100001011111001101110
10111101101101110110101001011100
00111101010100010100000011101011
00111100001110100100011001110110
10111100111111110010001000100011
10111101100010001110101100011100
00111101100101101001000111001100
10111101000110111110110111010100
10111101101110011101001000010010
10111100110010011011100101111001
00111101000001001001100010001100
10111100100010101011100101111101
10111110001110111000000100011111
10111100010010101010011000100111
10111110001101010100100110011010
10111110000111011101011111110111
10111101101110111001010011010100
00111011111010101100101101110101
10111101110000111111011001100001
00111100001001110010100110110100
00111010101010001100110001011111
10111101010111100101010110110101
00111011101001000011111010011100
10111101100000000100000011011011
10111101101111101001010110101001
00111100011100011010110111110100
00111100111101101001000001010010
00111101101101100000000001101010
10111101100011011000000110100001
00111101101010011100000101001001
10111011100011011111100011001100
10111101010110100111101001010010
10111010100000101010111000000110
10111101100100011100100000011101
10111101000000101011011100011010
00111011100111110101010010110001
00111101001110111100010001110111
00111100000111010110101001001010
10111011010010111100110110101000
00111101100101101100011010010011
00111100100011011100100101111000
00111101100000010110001010111011
00111100101011010010111110101101
10111101100011010011100100100000
10111101001101100011101111110111
00111101001101000011101001111010
10111100100100010100000110000111
10111100010010111101001101100001
10111101000011101110111010011111
00111101101100001001111110111001
00111100111001001110111110010010
00111010000100101001001101100100
10111101101100000111000111101011
10111101001111011000100100000001
10111100011110001011011101111011
10111100110010000011000000000000
00111100111101101110010101001110
10111011101111100010011001100010
10111100100111110011010100010100
10111101001111000010110001011010
10111101011110101100101010101110
10111100100001111110110111101011
10111101100000011001001000001100
10111101011101100001001101110100
00111100111110011111010001111010
10111100001010001101001011101111
10111101011101001110011011100100
00111101100111100001100000001010
00111101011110100010101001001101
10111101111100001110101100100111
10111101100101001100100011000101
00111100100100010111000110001111
10111101100010011110101011110000
10111101000000010110000001001110
10111101101000100010100110101001
00111011011001100001001100001010
00111101001000001100101100101001
10111101001000111100010010000101
10111100110110110010111000011001
10111100110101011011110000100011
00111100111110101111001011110010
00111100110001110010100100110011
10111101010100111000000011111000
10111101011100100000101000100011
00111100110100001010000101100000
10111101001001001011001111000100
10111011010000111000000011100010
10111100101001000110010100001000
00111101011011001010011100110011
00111101010110100010111010100101
00111101000001101001100111101010
10111101100111000111111110111001
10111100011100000011010010010001
00111100011100111100110111101110
00111100101110111000010011010001
10111101011011111001100111010011
10111011101100110111101010110110
10111101011001100101000011111000
00111101100011000000010001011000
10111100001010010001010101010101
10111101100000001100001110110010
10111011101100000001100000100000
00111101001011111000001001111101
00111100000001101111110010111001
10111101110001101001100000100101
00111101101001111001010100000101
00111101001001011111100010011101
00111101000101101000011011000101
10111100011111000011101001101011
10111010100001001001011100110101
10111101000001100111010111110110
10111100101111101111010000011001
10111100110100001011001110001000
00111100100010000000000000111111
10111011101001110101001000011100
10111100101001100111101000001111
00111101011111101100011001010011
10111101001010110001101100010101
10111101001111000111011101000011
00111100111010100000111111101110
00111101011110001111101101001010
00111101010010111101111000010100
10111100011111001011011001010000
00111101100010000110001010101001
00111100100011111100000001110001
10111100010011000011100100111000
00111100110110000110100101101100
10111100000111101010100001010000
10111101100111110000000101010110
10111101110011001001100101111101
00111101100000111011010011111100
00111100111111101110111010110101
10111100111000001001111011101010
10111100011111110100110111010011
00111100111111111101111001000101
10111101101001000111010100101010
10111100111001010110011010111000
10111101000000011100111010000010
10111011110101101111110100110010
10111101000000111100100011100111
00111101110000011000000101001000
10111101011101010100111010100110
10111110000100011111100111011110
00111100100100100000010101000111
10111101011110001111100011100010
10111101001101010111100001011101
10111100111100000001111000011000
10111101011011010110111000100101
10111100010000010011000111111111
00111101000100111111010110010101
00111101101011001110001100110101
00111101100010011001111110000010
00111101101101100101000010110100
00111100001110011010100001101111
10111101000011100110110110110000
10111101110011000110101110001111
00111101100111001101001010101101
00111101100000011000101100010010
00111011100001101001101101101010
10111101001000111101011101110100
10111101100110010000010110110100
10111101100000111100010100110000
10111100111011011011011011001100
00111010100100011110010010010000
10111100101001110110100100100000
00111100000110011001011110101101
00111100111110001111010000110111
10111100111110100101101001011000
00111011101100000001110000001001
00111011101110000010100000101101
10111010111110101001001000011101
10111100101100110110111010000100
10111010101101111111000001110001
10111101010101011010101000001100
10111101101010000000110001011100
10111100110100010001000100111100
00111101100010101110010100001001
10111011011000011101100001011101
00111001101110001000101111011001
10111101011001111100100011011010
10111101100100101011010011110011
00111101001101010011000101110011
10111100101110011001101000011000
10111100111110111100011100001110
10111101011001111001101001011010
10111101000010100010111111001110
10111100111001010001000111110001
10111101011001010111011101110010
10111101001010011101010000111101
10111101011001010110111100111011
10111100110011111000111100110111
10111101011011111110010001011001
10111011000111010101101110101111
00111011101101100001111100101100
10111101011011101100100010011101
10111101110011010110111010111110
10111101111000011001001100011110
10111100111000101000010111100000
00111101001011101111001110101010
00111100100011011101010000111010
10111100111100110101011101100010
10111101101000100010110010101110
00111101001100110000100110000001
10111101100000010101010111001101
00111011100100000100100110000001
00111101000110010101011111001010
00111100110010000111010001111111
10111101110001011010000011111110
00111100110111100101000101001001
00111011010101101110111011010110
10111011000101111110010100111100
10111101001110011011110011000110
00111100001010110111000110010011
10111100001101010011101011000011
10111101110100001011101001101101
00111101000011001000010100010000
00111101101011100110100010010001
00111101000100000110101001100101
10111101011101110010001111011101
10111100110110011000101010111100
00111100011110001001101101101001
00111101100010011010110001010100
00111101110111110001000100000011
10111100111001000011011011011100
00111101101000110101000100111100
00111101100100011000001101010110
10111101010001101001001111110000
00111101000000101001000110101101
10111101010011111100000101011111
00111100000001110111000110001011
00111011011011011101001101011001
10111101001101011101111101000010
00111100100000100000100111001001
10111100000110001010100001011110
10111011101101010110100101110110
00111101001001111010110010001111
00111011110111100011011011010110
00111100100010011110001010100011
10111101100011100101100010100101
10111101010110000001001000010001
10111101011100011100111011001110
10111101011111000100100010111111
10111011001100011000110001110001
10111100100001011001011111101100
00111100110001011010101110001101
10111101010001100101111110000101
10111100100001111100111101001101
00111100110011101001100010111010
10111101110110100111011010100011
00111011101001111110100111011011
10111101101111000101001101101000
10111100111110010011110000101101
00111101111011001110110000000001
00111101001111101001010101100001
10111101100000010110101101101000
10111100011111100100110001100111
10111100100001101010100011010100
10111101010111001001010000100010
10111100110011010100011100000100
10111101010101001101100000111100
10111101101000010011101101001010
10111101101100011100100000111001
10111101101011010001111110101001
10111100000011110101000111101101
00111100110001101000111011101011
10111101100010001000000110010101
00111100101001000000111111010101
00111101010011001010110001111011
10111101000010111001110010011000
00111101001100100010111100110111
00111101100101011010010011010010
00111101000010101000010100000000
00111100001111101010100000100100
00111100101000000100000110100110
10111100011100001010110111110101
00111101110010001111011101110010
10111100001011101111101100101111
00111100100010110001111000011111
10111100110111010100111010101001
10111101110010111111110001011110
00111101100000110000101100010011
10111100100000011101010001000101
00111101100100101111110111111001
00111101000011111010111101000111
00111101000100100110001000000011
10111100010100001000000110101000
00111101000001001001011111110111
10111100110110011011001000001011
00111100100011101110101100100110
00111100100011011011100101110110
10111100110101010101100010011111
00111100110011111111111111000111
00111101100101101001000111110001
10111011011101010101101111110001
00111100000001111001110001101001
10111101010101011010010010000111
10111100111101111001100011000111
00111101001100001100001011010001
00111101011111010111001000111110
10111101010011111001100111010001
10111101101010011100010110001110
10111101011100101101101110010000
10111101000101111011101010010110
00111100000101011111000010111011
10111101100011010001101011111011
00111101101000011000110011100101
00111100101010101111010111111110
10111101100000010111001100111001
10111101100101001001101001000111
10111101001101011010100110001001
10111100101100011101011011100100
10111101101011000111101011110100
10111101101001100011011011101000
10111100110101001010011000011000
10111101110000110111111101000011
10111011111101000111010101001001
10111100011010100100111011000001
10111101110001001100111000101101
00111100010111001011001110001001
10111101000001100000001001111010
00111100100011100010111000101111
00111100110110001100010001101010
00111100110010111010100001011011
10111100101110010110101000100000
10111101000010111110110001110110
10111101100010110001010001010100
10111101101011001011010011100001
10111010111010111110110110010010
10111101010110000001100111000011
10111101111011001010100110101110
10111101001001000011001100110111
10111110001100000101000101101001
10111101111100100000000110001111
00111101000111001111010100111111
10111101101100101101111000000011
00111110000001000111011111010011
10111100010010101110111010011010
10111100100110101100000110110110
00111011011011100100100100101011
10111101010001010111001010100001
10111101011101001011100011101100
10111101100100010011100010100110
10111100110100000010110101111011
00111101001101100000011011100000
00111101000001000010100100010001
00111100001010001111111000010001
00111010100100000110111000101111
10111101010011010111111010100001
00111101011110111011101101110000
00111101000010101011011101001001
10111101000110000000101111100110
10111100101011000111110110001011
00111100100111101100110100011010
00111100110100011111010101101001
10111100001000100100001011000110
10111110000011101011000100110011
00111100101010011011001001011100
10111101011000110101111010101100
10111101100111000011011101011111
10111100110000100111101110000100
00111011110110011001101010111000
00111101101111011100110001000010
00111101001011000001001010101100
10111101000110100100001011010110
10111100111111001011000111001000
10111101001010001001111010100110
10111101000010001110111000111010
10111101000101010011010111100001
10111101101000111101011100100001
10111100110100101101001010010001
10111101100111111011000011000100
10111100101010000010001000011110
10111100110010010000001100000011
10111100010110101100111101110101
00111100001001111000000000010110
00111101110001000010101110010110
10111100001011001001110001110011
00111101001011001101110000011111
00111010010001010000010110001000
10111100011101100000110101100011
00111101100001110001001010100011
10111100111010110010100010000000
10111100011100010001101110101000
10111100010111101110111100010111
00111010100010101000010001111010
10111100010001010110100001000110
10111101001101001111101111011111
00111100111101110101001000011110
00111011111011001011000011111001
10111100010101110110001011111011
10111100011001110000010000000111
10111101110101101011110110010100
10111101010110100011111101111111
10111101100001011000100001110001
10111101001111011010100110001011
00111100000011110110101110001110
00111101100100001110010000101000
00111011011100011110010100110110
10111101001010010001011000101000
00111101010010100111111001000110
10111101101001001110111101001111
00111100110100111011100110001011
10111101000011010000101101011011
10111101100011111011101011110001
10111101010010111101110011110111
00111110000110101100000011100111
10111101010000000111110001101100
00111101011010110111100110110100
10111100110101011100101101001011
00111101100101011001001001001010
00111101101001001101100011101010
10111100100110011011110100000000
00111100000111011001110100101001
00111101011011101100110111100110
00111101101110000111001001111011
10111101100100010001011010011100
10111101111011100001000111010101
00111100100010011110000011010111
10111100010110100001100101101001
00111101100111111100000000100010
10111100111101100111110101001111
00111100111000111110100001110000
00111100100100001110110100010101
00111101001000110100100011101001
10111101100100101111100110110101
10111110000100011110110100111010
00111100111110011110011011011101
10111101001000110011001001001000
00111110000001110111101110001101
10111010110001010101001011010111
00111101100010100001101000101001
00111101100101100011101111001101
00111101101011111011100001000101
10111101111000100010101100110001
10111101100100100010011000001100
10111011010011101010110000110101
00111101111000001011000001100010
00111100010111010010110111010011
00111100011100110011100100001000
10111101001110010000111011111001
10111101001111001111110010001001
00111101001100011001000100101100
10111101101000000100100111001010
10111101010110001010101100111111
10111101010010100000010110101000
00111101010000110110101000101101
10111100110000001001110110101111
10111101001001001110100001100100
00111101011111011010101110011001
00111101001011001110010111110000
00111101100110000011110001001100
10111010001111100111000001110001
00111101100111100011010010001000
00111100101110110100011010100010
00111101001000001101010010100011
00111101110101011001101101011010
00111100110011111000011110011001
10111100001001010110001111010001
10111101101010110111000101010011
10111100000100110110100110100011
10111110001000010001101011100000
10111101101010100110110101000111
00111100110110101011101011110101
00111011001111100000111000011111
00111101011100111100010110001011
10111101100001000101000100101110
10111100100100100000010000001000
00111100001001110100011010100010
10111101101010101100010100001100
10111101010100011001011111000100
10111101001010101001100010010000
00111101000010111000111100111011
10111101011001101000101100101011
10111100111101100010110000010111
10111100101011011011010100100111
00111100011010111011000011010111
00111100101001100001000001011010
10111110000110010111101111010100
00111101001110000000100100010111
00111100010010000011001111111010
10111101101010101100011001101111
10111110001000000011000011001110
00111101100100100100111100111000
00111100011100100111100011000001
00111101011110111011011110011100
00111100100110011000101111010010
00111100111011111000110100010001
10111101110110101110100110001001
10111101110011010001000100100011
10111101010001101111001100100000
00111101001011110111000001110100
00111100101010000010110101001100
10111101111100010011101011011110
00111100110110000001100010111011
00111100110111101000101101110100
00111101100011110001101101111111
10111100101101100010110100110010
00111011111010001010110001101010
10111101100110000111010110001001
10111101010001111011000101000010
00111101001111011010100011010001
10111101001110001110100101010011
10111101100110000100010101110111
00111101110000111011010110010111
10111101000100111111000011100010
00111101001100011001000010001101
00111100100110111001100010101011
00111100011010010011010001110000
00111101011000000010000111110011
00111100101110111001101110000111
10111011000011111111111101110001
00111101100100000000111010000110
00111100110100000000100101011101
10111011111111011101101110111011
10111101000110100001011111110110
10111101011110100000010111101110
00111101011010001101010000101111
00111011101000111110000100111100
10111101000000000010101000011011
10111101000101100110011010001111
10111101000000000011111000111110
00111100001010001100010110010010
10111100110011111011111001110101
00111100100011100111001010110111
10111101110100110100000101001100
10111101010101101010110000000111
10111101110010110110011111010011
00111100001101001100100111101011
10111100110001110111000100101001
10111101011000111010110000010010
00111101001011001001110000000111
10111101010001001001010001111111
10111101000101010011011110101001
10111100100011111011111001101011
00111101001100101110111110110011
00111101011001000101011001011101
10111100111100100101001111010001
00111101001101011111000010000000
10111101101001101111001000100111
10111101011011011010111101001101
10111101010011101001001011011101
10111101010100011000010100010010
00111101000010011001111101101010
00111100101011011010111111111111
00111100110001000011101110010010
10111101001000110000100010000110
10111101101111111011000000101010
00111101000110010011110000110111
10111101011010110001001111001100
10111101101111011100101100011111
10111110000001000010010101100011
10111100110011001000000011101100
10111101011111010001111000111011
00111100001000111100000010011001
10111100111100100001111000000111
00111011111111100001011011110011
10111101010000100111000011011000
10111011011001101100011001010011
00111101011110110101101100111010
00111100001101100101001000001011
00111110000111011101110111111101
10111101100110011100101101110000
10111101111000100111110000001111
10111101101111111101111100010010
10111011000010000100000001100110
10111010100110100111011100000111
10111101001000101011001110010000
00111101000000110001101110100110
10111100100110101000100010110111
10111101111010000011101011111101
10111100010110100011010000011110
00111101010100111011000101100010
10111101101001000101001011111111
10111100110100110010010011100111
00111101011010000000100011101000
00111101001100000110111111001111
10111110001100010111001111011100
10111101001111110000100100011010
10111100001111011001010011011001
10111100011010011010001011001101
00111011111111100010010001000110
00111101101000010010100110100011
10111100101001110110010101011110
00111100101110111011011100011001
00111101011101011011111000001011
10111011001101111011000100111110
00111101010110111011000100110110
10111100010111010001011001000001
00111101010010010011000100010110
00111110000100110111010011110010
00111101110001010000101110100111
10111101101010101000111001011000
10111110000011010100000000001100
10111101001110111000110001101111
10111101000001110001110010001001
10111101010100011101011100011111
10111101100000001110100101110111
00111101000110110011011111000111
00111101100000011001011111110100
10111101100011001101010110010000
00111101100010010010100110101111
00111101010110111111111110100100
00111101000001000000010111011100
00111100100010111101101110010000
10111101100000000000000010010100
00111101000001000111000001010110
10111101100001000011011101010101
00111101100110001010010100001100
10111101100110010001010101001101
10111100110101101010100101100001
10111101000101101001000110110100
10111100110010000101000100101100
10111101110111101010101000001100
10111011000000011111011110010110
10111101000111010000010101101011
10111101001001010111100101111111
00111100100000011101010101011100
10111011000000001011011001010001
10111101100100001000001100001100
00111101001101000000111010001110
00111101000100101110101010100001
00111101010011111001110110110000
10111010101110110000011010011010
00111100011001010100101110111000
10111101110001111100111110011101
00111100010001010001101110100001
10111100000111101100011111010110
00111011100000000011000001000001
10111100100101100001000001111000
00111101101010011000100100010001
00111101001001101000100001101101
00111101100010010000111001100101
00111100110101100101110101011101
00111101100001111110011000101001
10111101010000110011010011110011
10111101001111010000001000011000
00111100110100000100001110111010
10111011111100100100000110001111
00111101100111111110110111111001
10111010110101101000001100011110
10111101010011010110000110111111
10111101011000110110001000110001
10111101001000010100101000110110
10111101000000001011001111010011
10111101110011101010110011100001
10111100110100111001110000000101
10111110000010000001000111110111
00111100001011100000111111111000
00111101010100010010100110010101
00111011101111001001110100100010
00111101101001000001110001000011
10111101000100111101110011100001
10111101100010101000001011011000
00111101111000000100111010010100
10111110000100111011000011010001
10111101101110100011110101011101
10111110000101111101011010110010
10111101010011001100001110101010
10111101101101111110001001010111
10111101010101101101001011010001
10111101000011111010110011111100
10111100010111110000101001001101
10111101001010111100111001111011
10111011110001000010110110000110
10111011001110110100100111111110
10111100100110001011010011101001
00111001101101011001001010011001
10111101000110001001001011110111
10111101111000000101010100101110
10111101011100001011101000000110
10111100011111101011001001110000
00111010011010000010111111011101
10111101011110010000000011101001
10111001110110011101110011010111
00111101000100011101011101110001
10111101110000110010101100111000
10111100101010111100011110111101
00111100100000011100001111110111
00111101011010010000111101100001
10111101010000011111101100011000
10111101011010100001101011100010
10111101100100000010011100101011
10111101100101010011110000100010
10111100100111110110000111110100
10111100110000000010101011101011
00111100011011001110000111000010
10111101011111000100100100011011
00111101000010001111011011010111
10111101001000110101011111111010
00111101001111011001011100010100
10111100100001010110010100001011
10111101001100111000011000011101
10111101001110111111100110001000
00111100110010101000011001110001
00111101001000110010001100111101
00111011111100100100010110000101
00111101011101110001110101000001
10111100011010000101100101011010
00111011010010101111101101010011
10111011011100010111011100010110
10111100000000010110000000111000
00111101111000110101000000010111
10111101111000001110110110000101
00111101110011110011000011000100
00111011100011110011000010100111
10111001011010000000001011101001
10111101010110101011000010110111
00111100100001110011001010101010
00111101100110100100100011001011
10111100110010101110000101011100
00111101100000111011011001101010
00111010111010110111111110001011
00111100000010001100110000011001
00111101100000111100000100111001
00111101101110001100111001111100
00111100011110111111110001001010
10111100101101101001111110111110
10111101001110010111001101101100
10111100100111010000101010111111
10111100111101100110111010101001
10111101001010001111000010111010
00111101010101111011100111000101
00111100101101101110100101011100
10111100000000010011100101100100
00111101001000000010001001111110
00111101100001101011100101010011
00111101011000001110100011001110
10111101101011000101010101100001
10111101000000101110010100111011
00111101000010110001000111111110
10111100110101010101010000101011
10111101010101000011101111000100
00111101100001110010010110011011
10111100011000011011111111111100
10111100101001111101100011111001
10111101101010100111000001111000
10111101011101010101010000101100
00111100111011111111000000111001
10111101001100000010111100100111
10111101011011001011111100110100
00111100101000111001001110001000
00111101001111101111010100010010
10111010111111011001110110010011
10111101101010001001101000001110
10111100110010011001010000101101
00111101001000111100100101001010
10111100101111101111110000101001
10111011110011011111101000110000
10111100111110000111111110010110
00111011111000101000011110101010
00111101110011000001001000010101
00111101111011110010001000001111
00111101001011000010000000001011
10111101100010101101110111110111
10111101100010110000001001110001
10111101101100000000000011110111
10111101011011000011110101010110
10111101111110010110001110100100
10111101011010010101100001000010
00111101000011001010100100011111
10111101100010000100100001111101
00111100111111001001011010000110
00111011100110110000001111100011
10111101001000110101000100000101
10111101010101011001111110101011
10111100010011000001101001010101
10111101111001011110111001010101
00111100100101000100111100000111
10111100111110001111000001111001
10111101000001011000001111101110
10111101101101011011110101000011
00111011101101011010011110010011
10111101011010110011010011111111
00111101100111110000001100000111
00111101011111000011001100001101
10111011100110111101101001001000
00111101011011000011011010010010
00111100110001011111001110110100
10111100100111110101111100000001
10111010100010110011010011111011
10111101010001111011101111101101
00111110010100010000011010011101
00111010011111111011111100110110
00111101110001101010001000001111
00111100110100100011011000101101
00111101111010100111111010100010
00111101100011111100110000101000
10111101101100001011100110001011
10111001101110011100110010100010
10111100011101000110000100010010
00111100100100011011001111110110
00111101100001011000111101111010
10111100011110000001100100011111
00111101011111000010110110111100
00111100101011001001000100111000
00111101000101110001110101110100
10111100100011010000100111110100
00111101000111000011111011101011
00111101100000010001010110111010
00111100011011100011001101101011
00111101101011100100101101000111
10111101100000000011000100000101
10111101110010000000111011100001
10111100001010100000010110000011
10111101100011101000111111100010
10111101100111101010000000100111
00111101001111101001100101101111
10111011111010110001110000110100
10111101010011101111000101101011
10111101001010011111001010011101
10111100001100000101110100001110
10111101110100010101101000100111
10111100111001100000100001011010
00111100101010100000111101010100
10111100001101110100010001010111
10111101110101111101111011111100
10111101111100101100001001110111
10111110000010001100000000010101
10111101000001011111001110110101
10111100111100001001010111000011
10111011001100100010101111100011
00111100101101100111110010110010
10111101101110111010101110001000
00111100001101110011011011000000
00111100011111001001001110000001
00111101011000011011010011101111
10111101101001111100010111100011
00111101101101110011010001101000
00111100110101001100010000111111
00111100001101000011111110000100
10111100110001001101010101000111
10111100101001111001011100100101
00111101100100011001111111111100
10111101011010010101010000100000
10111100111110100111100110111011
00111101100100110101110010010010
00111100000000101010010000000010
10111101111010001010001001110010
00111101011001110101110110110011
10111011101110011111001110011111
00111101101111000111010110100001
10111100101001100101101010010101
10111101000010110100111001000101
10111100100111000000101101100111
00111101011101110111001101100001
00111100100001010101011111110111
10111011100101001110100010111100
00111101100110001111000011000001
00111101000111110010010110010110
10111101010001001101011001010110
10111101100001110001010110011100
10111100111001110000011101100000
00111101000001110000011101101111
00111101001010100001000000110011
10111011101001011101000001101011
10111100100001010101101000000000
00111100110101000100100100000100
10111101000100011010101101001100
10111011001011110000010000101100
00111101011100111101101100111101
00111100100101111101111100010011
00111101100010110100001101100011
00111100101011100011001100110011
00111101000000011110000111100001
10111100010101010110010000111111
10111101111010010011011011111001
10111101001010110100011001101001
00111001111100111010111001110010
10111101000000010010010011000100
10111101110100100010100010101001
00111101101100111111010100110011
10111011100110000101001111010011
00111110000001101110001101010011
10111101010101011010100010010111
10111101010100001100001111101101
00111101100001001001110000000111
10111101110001011101111001010111
00111101010111011111111001011001
10111100110111011010010011001101
10111101000001101111010001011001
10111101010001110000110001111100
10111101101110101110010101110111
10111101010001001001010101011011
00111101100101001001011100010101
10111101001011010110011001110101
00111101000000000110000000001110
00111101101000011010011010011101
10111100011110001010110010001001
00111100100011001101111010001111
00111101110001011011111000111111
00111100101011000000101100111111
10111100110000001111100110000101
10111100110100111000001110011110
00111100101111001110010111111001
10111011001110000010100011001010
00111101001100000001001010100011
00111100010000001001010101010111
10111101100011111000001101111011
00111101100101000110011110100110
00111010001110110011110101000100
00111101011101010101011110111100
00111101000111110101100011000111
10111101010000001011101000011010
00111100010000101010100111111111
10111011100010001110111111110000
00111101111110110010111101001010
00111101000110010100110000010000
00111100101100001111110110010001
10111101001011001010111010000100
00111011001010011000000000100110
00111100110110100110111100101011
00111101101101000110010111100111
00111011111001001011001000110111
00111101001110101101010011000110
10111101010001101011111111011010
10111100001101000100110010000001
00111100111100010011001010001110
10111101000010101011111111111010
00111101100000001101011010110111
10111011110010110110010001111100
10111101101000100110011010010010
