00111101001110000010011000100110
10111100111111110010110100011011
10111100101110110101111001001101
10111101100001010001010111101010
10111100000101101100100101111100
10111101010011101110100100101101
00111101010011100000100000101110
10111100100111101110101000010100
10111101001000111011111100011111
00111101011000100100011101111101
10111101100100000111011111111100
10111101001110011100010110100110
10111100010010100110000100011101
10111100110001001110001010001001
10111100111101111001111110111100
10111011010101010001001101011000
00111101000001000011001110011010
00111100100001011011111110010000
00111100000101110111111001111111
10111100100001000011001001111001
10111100011101010101110100100101
10111101100111111110110110101001
00111010110101011011100101010000
00111101000111100110101011101010
00111010010000001001010011010100
00111100110101100111001111001010
10111100110011100010110011001100
10111101110010010110110110101111
00111100100100111010011001110111
00111101100110001010011101001001
10111101101010011100100001000100
10111100110001100000001110000100
00111100111000111100011100100111
00111011110011010001111111100000
00111100111110001010110101100000
10111101001011010001011010001100
10111101000010110001000011110001
10111101010001001100011010101101
10111101100111000100000101000010
10111101001100110000001101000001
10111101100011101000011000100001
00111101010110111011000011000100
10111011111010110110001110110100
10111100100010011000011001011101
00111100101111011111011010001000
10111101010100011101001000100101
10111100010110110011100111101000
00111101001011101001101001111010
10111100101010001100001111111000
00111101110000000010001111110100
10111101011100011110110110101011
00111100000011110010100110000101
10111100111011000011011111001111
00111101100101011011001010000000
00111101100100000000000101010011
00111100000011001010001001010001
00111101100111010010010000111011
10111100100110011011101011001011
10111101101001000001000001001111
00111011110110100000100010100011
10111101001100010100100010110000
00111101001001100110111011111101
00111100110010100011110011101000
10111100101100000111110101011011
00111100100001101001011001101111
00111101001111101110111110000111
10111101000011001011110101111110
10111100101001100101011100111011
10111101000001100011110011101100
00111100110100010100110101110110
10111101010001010101000101101000
10111101010001010111000000111001
00111101000000011010110011011100
00111011000011011100000000011000
00111100101110010110101000000000
00111100100000010010111100100111
00111101010110011000110000011011
00111101001110111001010110011001
10111100110100101111110110010101
10111101011011000001000010010001
10111100000000001010010110110011
10111011100110000111111110010011
00111100100000101110101100010110
10111101101010100000010010001100
10111101110100101101001101111101
10111100011110110110101101111110
10111100101010010000110100000111
10111100100111000101100110101110
00111100101011101011101010001110
00111101001000010001011011111100
00111101011001110011101001101001
00111100101001001010010000000101
00111101000100100001000100011000
10111101001100101100100010101000
00111010100110000100101010100110
10111101000100000001101101100100
10111101110110000110100110110111
00111101010000001101101111101001
10111010111011000101100001000011
00111101010110011000010101011000
00111101001100010010000101001110
00111101001011011110101100110000
00111100101101000010100010010100
10111100111110111100111101001101
10111101100100001101100110111001
10111011111110001101000001000001
10111101000101111111001010010000
00111100000100010100001011010000
00111100111110001001001100010000
10111100110111100011001110100101
00111101001100001000101101010011
00111100010110010010101101010001
00111011101111000010110010111000
00111101000100000011010010010101
10111101011111111000100011010010
10111101011010010010001111101110
10111101101010110000000000111101
10111101001001011110100100101110
10111101001001011000000001000010
10111100010010101011010000010011
10111101000100011011011110001100
10111101000010000111110101000000
10111101001001000001101110011101
00111100001010111001100011100111
10111101000101111110001100000110
00111100100010000111011010000101
10111100010001010011101110110010
00111101011000100101111100010010
10111101000110111111100111111110
10111010110101001100110110110101
10111100001110101110011111010100
00111100010100001101100111101101
10111011111100000110010000001111
10111001010011111000001110111010
00111011000111010100110001010000
10111101001000100010011101010110
10111101101101010110100100110111
10111100101110010101100100110000
10111100111101100011101011011100
10111101011011111010110001001100
10111101101110100111110000101101
10111101101110100110000110100011
10111100101011110011110001101001
00111100010110110101101000010010
10111101100111011100001111110100
00111011011110110011100100110110
10111100000111110001000011000000
00111101000111001110000010110010
10111100110110101001011000111010
10111101100010100101100010100110
10111100110001010001000111010000
10111101001101111110110000111101
00111101000101101001001011111001
10111101000011011101011100111000
10111100000100110101110010111110
10111101001111111100010000111101
10111100110011111000010100111001
00111101000110010010111011010110
00111101001011110010001011001101
10111101000100000011100011010100
00111100100101111100000100101011
10111101000010000101010111101010
10111101101111001100000011000100
00111101100111101111001000000011
10111100011001100010111011100101
10111101000111001101100010101111
10111101011110111101001101010110
00111101101000010001110001001111
00111101001001001111000110110010
00111101100101001111100101111010
10111101100011100111010110110111
10111100000010110000011110110101
10111101000001001101000010101000
10111101100011010111000010101101
10111101101000101110010011001111
10111100001000101010000110101100
10111101010010000100101000001101
10111100111101100010001110100001
10111100111001001001101101111101
00111011011100101010111101000101
10111000110011101110101011011101
10111100011000000110010101111100
10111011001011101101110101011011
10111100110010000000110110011101
10111101010000001111111101100101
10111101100111001111101011100111
10111100110000100100010110110101
10111101000001001111100010010000
10111100100111011110001010011000
00111011100000010101011001101110
10111101010100111011110111100100
10111101100101111010011110111100
10111101110110101001010011101101
10111100000001011011011111111000
10111101000101011010110001100110
10111101101111010000000100110100
10111100101000100100100100100101
10111100011000101001000000101001
10111101000111001110101010111110
00111100110010010010111000100110
10111101001110011100010100111110
10111101010010000000011110001111
10111100110010000011110010000001
10111100101001100100000011101001
00111101000100100100110000000010
00111101100000010011110000000000
00111101100010010000001011001001
00111100100011001001010000011000
10111100001011000110100110000001
00111100110110101001111111100011
10111100110010000010010011000001
00111101001100101111101100010101
10111010101101100111100001001000
10111101101110011111100111101111
10111101001011111100010011100000
10111101011000101011001011101010
00111101001111101110011001000101
00111100111101001001110111111101
00111100111110010010010001000010
10111101011001000111011111110100
10111101110000000111001000011001
00111100011001011100110101110010
10111101000101101010110101110011
00111100111100111101000011010010
10111100011111110011101011011000
00111101010101011010110001010111
10111101010111000010000100111000
10111100110101101011001110111011
10111100000111011111001010101101
00111101001011001101100000101100
10111100100001111001111001101111
00111011101111011101101100001000
00111101000111001010001011101001
00111011001110100111100000011010
00111101010100001110000000110000
00111101000100101000100000011010
10111101011011000101000001111100
10111100100100111100111011110111
00111011111100011010010101100000
10111101001000101111111001001001
10111100001101110001101011000010
10111011010101010011011111111100
10111101010011100101010100101011
00111101100000001110111001100101
00111101011011000100001011011111
00111101010110000111010101001001
10111100101000001010011001101110
10111100000110110111100110110000
00111101001001110001001001111111
10111101010111111111101011100010
00111011110010001100100101110111
10111100100000111011101110001010
10111100101010001111010110010011
00111101100000000000001010000000
00111101000010100011110111011010
10111100101101010101001110000010
10111101010010010111101001010101
10111101101011101000010101001100
10111101000000001010110101001011
10111101001101011011110011010001
10111100010101110000101101110101
00111100100110101001011111010000
00111101010101111010110110111100
00111011100001001101010101100110
10111101000101010010100010101110
10111100010100110000111110111110
00111100001010101110011101101100
00111100001101110111000100011000
10111100100000010110110111110111
10111011001001111010010101001100
00111011111010111000010001100101
10111100110110000000100011111001
00111101000011100111001011110011
10111100100001100000001101111010
10111100001111000000010001011101
10111101100000001001101110101110
10111101100000100110010100100011
00111010010110111111101111101001
00111101000111000111001101001011
00111101010011011000111001101000
10111100110110001100101001101101
00111101010001111011001011001100
00111101010010000110000110101110
00111100111011001110011011010110
00111010110101011101110100000111
10111101100000010100000010001110
10111011100110001101111110111101
10111101110110001100000011111100
00111010110010000011101011011101
10111100110101011101100011010000
00111101101000001100111000000100
00111100101011010010111000001000
10111100100011111110110010000101
10111100101010001111100011000011
10111101100010001111010011101001
00111100001101001100110000101111
10111100100110000011010110110101
10111101010001001100110001000101
10111101010101101101010101100101
10111101101011101010100001011001
10111101100000101111101001010110
00111011111111110010100101111001
10111100110010111101001000100101
10111101000001101111111001101100
00111101010000001001010001011001
10111100100010001110000011101110
10111101010011111010111111010000
00111011111101011011101001010101
10111101010101010000100001011111
10111101101000100001001100110111
10111011101111101100100011101110
00111011110101010000010010110010
00111101011001010000010010011111
10111101111000100010010100100000
10111101010100111110010101100011
00111100011001010111000001101110
00111101101100011101011001111010
10111101100111100110000100110011
00111100111001100101000101111000
10111101100100110010101001001010
00111100110100000011101100111111
10111101101010011011100111011011
00111101100011111110101010011001
10111101000001010111101110011101
10111101001010110011111101110110
10111011100100001001000111111101
10111101011000100001010101110100
10111100001110010101000000111010
10111101010010100000000000101010
10111101101100111010110100111011
00111101000110001100010110101100
10111100101011100000001000111010
00111101100001100010100101011000
10111101100001010010011000101100
10111100010001101000110100011110
00111101010110001100011101111101
00111101001001001101101000001011
00111101001111100011111000110101
10111011101111111010100100001001
10111101000111100001000000001000
00111100000111110110101001010011
10111100111100111100001101011010
00111011010100111001111001110011
10111100101000001111101010111110
10111101100001011110000110110110
10111100100001010110110111110111
00111101100011011110001011010100
10111101010001101000001111110000
10111100100110010001000100100001
00111100111010110101101101101000
10111100101011101011110000110110
00111101001110011100100101010101
00111100011100001001000100000101
10111101011110010111000100111010
10111100111000010110011111101110
00111011010100011011000001110010
10111101011010010110011101100011
00111100111100110001011111111101
10111100101110100101011000010100
00111101100110000110101001000101
00111101010010101011100100010001
00111011111011011101010000000100
10111101010111111011010100000001
10111101011010001011010101100111
10111101001011101001110001011100
10111101101100011011010000100010
10111101100001011011110100110111
00111101001011011000011010111011
10111011111100000010111101001101
00111101011110000101100001101010
10111100100000010101101000011011
00111100010000011001110011010111
10111101000011010010001111101110
10111100000100011000011101010111
10111101100101100010100001110110
10111101001010111011011000011001
10111100111111100110001101101000
00111101101010100100111100100001
10111011000001010011111111010111
10111100100110101001010010011101
00111101010110000010110000001100
00111101001111101001001010111011
10111010100100000110011101010011
00111101100001010010110001101110
00111011110000010000010101101000
00111011111101100011111011100001
00111011111000101111010101101110
00111101100011110100101110111110
00111101000000100101100001110111
10111100001111111110101100110110
10111100110100100010100110100110
00111011010010101000010110111000
10111011011010000100011110000110
00111011100100111000001010010100
10111101010101111001010010111110
00111100110101111111011101111010
00111100110010100110011111000100
10111100011000111111001001101101
10111101010101100101101001110111
00111100100101110110000101100110
00111100000001110101110111000000
00111100110011100001100010000000
00111100111001010101001101100011
00111101100001100111110011010001
10111100101111001000011111101010
00111101000111011001010101010111
10111101100010110001010101101010
00111100111000110000110001000010
10111100111010000010100001011000
00111101000100100110010011100000
00111101011101110001000010110101
10111101010110000001100001111110
00111101100010111111000111101000
00111101000100100110000000100001
10111101100100101010010011000110
10111100111101101111010001001011
00111010100100101101010001111001
10111100101100100000100101100111
00111101000010111000101101100110
10111100101011001000111100000100
10111101101010000000101110001110
00111101011001011000000101111101
10111011001000101000110101011001
10111101100101010011011111110010
00111101001111101001101110110010
10111101100000101101101101101010
00111100011101111010110001001101
10111101001111001100010111011111
00111101000111111111101111100010
10111011110001100000100100000011
00111100111001000111000010000010
00111101100110100000110101011010
10111101010110111100111000001000
10111100111110000101100111000000
10111101100011011100110110101010
00111011011010101000111111100001
10111101100001101001000101100101
10111100001011101000001100100110
10111100110010100100000001011010
00111101001010101101100000111111
00111100111101001110000010101011
10111101000000111101100001111100
00111101000101010111110100110001
00111011011010111000011111001110
10111100000101100011000001110110
00111101001010111011010111010110
00111101001111110101000000001111
10111101011011000100000111000011
10111101101001011000010011010000
00111101001110110001101001101011
10111101010101010011111111011100
00111100101000101101010000101001
00111100110001111000100011111111
00111101001110000010000110001010
10111100101010000011000001100100
00111101010100010011000101110000
10111100011011100011001011101001
10111100111101001000010110001010
00111101011110010101010000101011
00111001110010001011000100111011
00111100101101110101011111111001
10111100110011100010111010101100
00111011110000110000111110010100
10111011110010100010000100010111
10111101001011101001001000111110
10111101100000110010001000010110
10111100011110110001000110001000
10111100111000110001000111001011
10111101011000111001001001011110
00111011010011110010100000011111
00111100111111001100001010001100
00111101001000000101000100011000
10111101000000110101011010011100
10111100001000100001110001101010
00111100101010110001010010100111
00111101101100001000011000110000
00111101001111011011100111101000
00111100011010001000001110100101
10111101100011100010011011100101
10111001000111000100010111001010
10111100110101011010001000010101
10111101000000101100110110110101
00111101101010000010010101111010
10111101000000011000100001010001
00111100001110110101101011001100
10111010100011101100001010001000
10111101110101000000111111000010
00111100011100100000000100000011
00111100001100111100010110011000
10111010001010001111000111011111
10111011001001101110101100001011
10111101011000010010111001100010
10111101011111001001111100011001
10111101000010010011011011001001
00111011111011001000011101010001
10111100100101101101010101101100
10111100100000101110011001111010
00111011100101010111111001010111
10111101011011110101011111111011
00111101001010100001101111011111
10111100111101000001110101010110
00111101001001001000010110100100
00111101000110011100110011001100
10111011000000101001100101100100
10111100111000000001110010110101
10111101000000110110101000000101
00111100111010111010010111110110
00111100100000100111110110000000
00111101101001011110110101011110
10111101110001111101111101110111
00111100101011100110111001010101
10111101010100011010001010101111
10111100111101010111000001101101
10111101010010011111111100000010
00111101000011010010100001010111
00111101100010000001110000101111
00111011000000111011000000010001
00111011100001001000110110101000
10111101100010101011010110000011
10111100101100010000100000010011
00111101001101000011110101011100
10111100111011010111001100010000
10111101000110100101111110110010
00111010101111000110100100010001
00111100110110110000001011100010
00111011010010110111010110101000
00111101011000001101111110100011
10111101011011100000110000101010
10111100100001101110111011010001
00111101000101010010110011101111
00111100001110101001100011110101
00111101100000111100110100000011
10111001100000111001111100011111
10111101110001101101110011000000
10111101000110000111111000001011
10111011000001010110001010001010
00111100010101100110000110110110
00111011111011100111110001010100
10111101101110100110110101010101
10111101000111001100010011011101
00111101000110110111000001001100
00111101000000001011100000110000
00111100001011001001101010000001
00111100100001001100110001001010
00111100100101100011010110100110
10111100111010110101000011100100
00111010010000000000111010001010
10111100010100011000011001000110
00111101010001111001000100110101
00111101011001101101010011010110
10111101011001101011000000111111
00111100010110000100001011110111
10111101010100101100110001110010
10111101010010100101100101000100
00111101100001011111000100000110
10111100001110110101001001011000
10111101110011100000001011111010
10111100111110000011110110010011
00111101001100110110110100100110
00111100010100001100101000100101
00111011011000001100110100011011
00111011101100101001100110010100
10111101011110001111100100001010
00111100000000101101011000000101
10111100101000100010001011100111
10111101101101010000111110100001
10111101101011000000100010000110
10111101000110100010101111101110
10111100101001110011111100111101
10111100110000101011011110001110
10111100111000110010100010001111
10111101101010010111000000000001
00111101010110000100100111000001
10111101000111001001011010100110
00111100010111000000111000011110
10111100101000000011011010001010
10111101101110000000000000111110
10111101110010100001000010100001
10111101101001111000110010100010
10111100110101100110110110011100
10111100100010010110101101010110
00111101010001101010000010101110
10111101101100100011101111111000
10111101011100100110010111010000
00111101010111110011101110101010
00111011010011101001101011100010
10111101010001000000111001011111
10111101000001110011010010001111
10111101010001001111010011001101
00111101000000010001001000111101
10111100001110010001010100110011
10111100111110110001001010000011
10111100001111101000100111100111
10111101100110011011010010110101
10111100100000110011011110111111
10111101010111111110010001101101
00111100111011000111010101001100
10111101100110001101101010010010
10111011010010001100111110011110
10111100100111111111011100101000
10111011110011010011100100110111
00111100110101101100111011100011
00111011100110111011111100101000
00111101000010101001111100000110
10111101010100011011010011110101
10111101001001110100001101100110
10111101011111010111111110101010
00111101011100110111001111000000
10111101010010110000011000001000
10111101001101111001101110111001
10111001101111111110101001100000
00111100001100111110101010101000
10111100100000000110000001011101
00111100100011110101111100000110
00111100100010001001010000111001
10111101001001011011010110001110
10111101101111100011111011111110
10111100001010111100101111011111
10111100011101101110110110110101
00111101000011001100100010001100
10111101011010101100101100110010
00111101010011011011110011000100
10111101011010101111010000011111
00111100111111111011110010111011
10111101010011100110110101111000
00111101001000011011001000110000
10111101000111010110000110101110
00111100100010101111010000101101
00111010101111011001011101001100
10111101011110100001011101111100
10111101100111011000100000000101
10111101100011100100000001001001
10111100110000000011000011101100
10111011010110000001111100011000
10111100100111000110011101000110
00111011110011000001101011110101
10111101101011111110011000001010
10111101000100110000001011100001
10111101101010000001111110101010
10111101100001010101000100110100
00111101100100100000101011101000
00111101000101000001101010100011
00111100110010010000111000011001
10111101000010011000011100010101
10111101010101101010011001110110
10111100001011111101010000000110
00111011110011001000001100011000
10111101010111110000010000101000
10111100100111110111011110110010
10111100010000000100000001111011
00111100100010101010001000101000
00111101011110011000111010110101
10111101010100011110101011000100
10111011110111101110110010011100
10111100100100010001001110010010
00111010001000100000110011111110
10111101100010011100010010000011
00111010101110001010000001011110
00111101000011110101010101010011
10111011100000000100111110010100
00111100001001001001000010110110
00111101100010110011011010001111
00111100110111110100001001001010
10111101010000100001000110011110
10111101001010100111110110010110
00111101000101111100101101100001
10111101100010111100010000111110
00111101000101111111111011100101
10111101001000110000110010000110
10111100100101000001011011010110
10111100110011101000010010001011
00111100001111000111010000001000
00111101101011101110100011011111
10111101101110111000110111100111
10111100110010111110011011000011
10111100101000110011101001010101
00111101100001110111110100100101
10111101001001101110001011011010
10111101001101000110001110100010
00111101100001010001101100111111
10111100100000000100001100101110
00111100011110100000010100010110
10111100100100101010001100101000
00111100100101000010111001000011
10111101001111001101110010010111
10111100010101110111100110011010
00111100110001001111101110111000
10111100100110011001101100001001
10111101000000101010001011011100
10111101011101000011110110001001
00111100011001100100101101010111
10111100010101010011001110100010
10111101011011010100000011010010
00111101001000001101010101110101
10111101001100000110001101011000
10111101011011110010111001011000
10111101011111000101000001110100
00111101001101001100100010101101
10111101011001010010111101101001
10111100100111100110000110100010
00111011110000101001100011101101
00111100111100110110101100111010
10111100111100011111101100000000
10111101010011010001000010101011
10111101000000110011100001011000
10111101101001000100001101110110
10111101001000011001111001000111
10111100101100000110001100111000
10111011010000111101000101001010
00111100100011000010001000110111
10111101101100110001011101100000
10111100011110011110100110110011
00111101101101000000100001001010
00111100010110011001001000011110
10111101100110110010001000000111
00111101001000010110011010100110
10111100110011111001001011111110
10111100110010011010000110000010
00111101101100001001001011100000
10111101011100001100111000111101
00111101000001100100110101011100
00111101001111111010100100100100
10111100010011001100110000011111
00111100000101110010100010101011
00111011100001000111011011000110
10111101110010011101111000111101
00111011000100101111110110010010
10111101001101110110100011010100
00111100010011001010001101011000
10111100110000101101111111111000
00111100110001000011000011100001
00111100111011101110001011101000
00111100110110110000100111111100
10111100001011111000100100010110
10111101101100100110100100000100
00111100111001100001110010000001
00111011010101101111010000100101
00111101100000101011100010111101
00111100101000100011001010100010
10111101001000011100101110000111
00111100100001000011110000111001
10111100111111100011001111101010
10111100100110011011000100110100
10111100100010001101101010111000
10111101010011110001011011111101
10111101000000011010010010011111
10111101100111010101110011000000
10111101100011110011010101000111
10111100001110011001000000111100
00111101001100110010101100100101
00111100100100001100010000001100
00111101101010110111001001000010
10111100101111101101101101001001
10111100011100111001001011111100
10111100101000100001001000101000
10111101011011011110000100011101
10111101010001010100010000110011
10111101001101010001001011100111
00111100100010010100001110101100
10111101000011111010101111100100
10111100101111000010000100100011
10111100110110000100101010101110
10111100011110100001000110011010
00111011001111111001111011010011
00111100011111111000111111000011
10111101100000111000100101000000
00111100111011101101101011001001
00111101001110101010011000110011
00111101100001000001101001011111
10111100101001101011000100010100
10111101000110010001001101001101
00111101010010111100010100101101
00111100010001110000001111110101
00111011101000001011111001110011
10111101011101101110101001110001
00111100101010000000100100001010
00111101011001100100111010100011
00111101001010111010101111000010
00111011000101100101101010001100
00111101001000000001101011000101
10111101000000110110101100001111
10111100111000001000000011010000
00111100001001011000011101000001
00111100010100001110011101101101
00111100111101010101110110100001
10111100011101111100101011100011
10111100101001100100011010010010
00111100101001100000010101110010
10111011111010000000110110011111
10111101010110010001101001000110
10111101110001000010000101101000
00111101001101001110010110010010
00111100101110000110111011101010
00111100101001001110100010100110
10111101000011000110110010011100
00111011111100010110000110101011
10111101000100111100011101100110
10111101000111110111001110111110
00111100010001010001011011011011
00110111000001011011001010111110
00111101100000000001001100010100
00111101000000100100011111101100
10111100011100010010010000001010
00111100111010110111100000100100
10111101001111001000010100010000
10111101001101101110100101101001
00111100110100111010011011010110
00111101101001101110001000011001
10111100100010111010111011010011
10111101000010001101101011100111
00111101100011010100010001010110
00111101001000100011110010110101
00111101000010001010111001100001
10111100110101110101110000101100
00111101101000010000000101000000
10111011101000111110001001101111
00111011100111000011001110001011
00111100110010101101111010010100
00111101000001010000110001111110
10111101010110001001101001110110
10111101001101000000000110000000
00111100101000000001010100111010
00111100101011101001000010100010
00111100100010111010110000011001
10111010101011101010001011000000
00111100101011100001011011101101
00111100000001101001010100101010
00111101011011110110011110100010
10111101101110010111010000111000
10111101100100100011100010110101
10111101011101101100010111110101
10111101001111100011100011110010
00111101000011110000100100000001
10111100111010011100010010110001
10111101000110100100000111011011
00111101000000001010011010111001
10111100011011111110100010010001
10111101101010000111000100010010
00111101011011001001000110101100
10111100101011001111101100001100
10111010100001111111111111000001
00111010001100011100110100010011
00111100010011111100011000010101
10111101101000110010100010100010
00111101100110111011111101010010
00111101000110000011000110110010
10111101101010010111100010011111
00111100001000100001101011111001
10111100101001010010111001010100
00111100111000000111010101010100
10111100100000000000111100101000
10111100100111111110000101001111
10111101001100100110011101111111
00111100000100100010100110001110
10111100100100010001001001110110
00111010111011000000010011001110
10111010100110101010001001000101
10111100010101111000111101011001
00111100110001111010011000100111
10111101000001000110111100000110
10111101000000011011110111010100
10111101000111111010010110000111
10111101011110001111011101101101
00111001000100110011110100011110
10111101010100001011011110001101
10111101100111010101011110001110
10111101101100111111010011110100
10111100100010111111010011011111
10111100111111111000001111001000
00111101100110011001100110100100
00111100110010010110010001001011
10111101101010111010000011101011
00111101001011011001000111010101
00111100000011001000010101111011
00111101010001011010110010001110
10111101100101101110000011001000
10111101011011101101000101011011
10111101100100111001100011111110
10111011100011100001010000100111
00111100100010101011110111011100
10111101100111101100001001110000
10111101010000001001111101111101
10111100101001101011000111010110
00111100110111001001010001100001
10111101000011010010111001100011
00111101011001110101001000110111
00111100011111100101011011101001
10111100101011000011110000000011
10111101110100000111101111110100
10111100101100110010110000000000
10111101101101110100111100010101
10111101100011111010101011001011
10111101110000110001000011110000
00111100001111011010111010010001
10111101001111111010011011100000
10111101001011111010111101011011
10111101010111111001000010001110
00111100010111100010100011101011
10111101000101101101110101011100
10111101001011101000001100010010
10111101100011100010111111111100
00111011110000011001011110110010
10111101000010011101101111110100
10111100111010101001011011101011
00111101000000011101100101111100
10111100011100110100011001010111
00111011001110000010110111110111
10111101001111000110000111000101
10111101010011011000000010010100
00111100011100000110100010101110
10111101010011001011110010010100
10111100101101011001101101100100
10111101000111110101100001111110
00111101000110100001111111101000
10111101100010010101110110101101
00111100001110100000110110100110
10111101101110101110110101101100
10111100110000010000010101101111
10111101001101110101111100111000
10111101010001101100000010111110
10111101000011100110010000000110
10111100111111010100010110011110
00111010111100001011101111101100
00111101001001111010001001010010
00111100000101000101101011011110
00111101101011001000110010101001
00111101100101000011000101010110
10111101000001011111111110100100
00111100011111110100010011000011
10111010111010010101111111001011
00111100111001011111100000010010
10111101000111010101000101111010
10111101000111011111011011111110
00111100010110110011011100110010
10111010101011110101101110110100
10111101000110110100001000010010
10111100000001010101000110101100
00111100111011001000010001101101
10111101010000111110010010010010
00111011011011010100000100010001
00111100001100100001010011011010
10111101101111100111000110010100
10111100001001111010000010011110
00111101000110100000101010111011
10111100111000011001001000101000
00111011101010010001001110001101
10111011110001011111101100011101
10111100100001000000101110100001
00111101001111000100101111010010
00111101010101001101010000111000
00111100101001110001010111100101
10111101101011000110110010011010
10111100100010100011011100100101
00111011010010001000100111111010
10111100011111101010101101111110
10111100010010010010101100100100
00111101000001001111101001001100
10111011100000001001100101100110
00111100001110000000010101101001
00111100111001011100100111101011
10111101000111001000010101000101
10111100011100100100011101110100
10111100001100011010101101001110
00111100101100000110101010001101
10111100110111110010111110110000
00111101001000001111110100110000
00111100001111101110010101100101
00111101001101100111010110010100
10111101011101111001101101110011
10111011111110011101111100000101
00111010010001011100111001000011
00111101011101011001101111000110
10111100100101111100110000110101
00111011001010110000110101000101
10111101101000110011101001000000
00111101101101101100011001011010
00111100010000111111001110000101
10111100101001000110000101001000
10111100010001001101011001101100
00111101100001001000001011111111
10111100111101111001001111100001
00111101010000110011100100101110
00111101011010011010011000111011
10111100010111011101000100001010
00111011101001100110101001010110
10111011100101011111010101010001
10111101101100110001001111010100
10111100010001000101001010011010
10111100001110101000111011111000
10111100100101101000100101000000
00111101011101111111100100010110
00111010101110100001010111110110
00111011100011001011110000110010
00111101000001101111001100101000
10111100011100010010110100110001
10111011110101001000011100100001
00111010111100001000000100010101
10111101101010110001110100101100
10111101000110100111001100010110
10111101001011111101100101011100
00111100110000111110111101010101
10111011001001010110100000110100
00111101010001010111100101011101
10111101011111010011010110011101
10111001101111100101001011110110
10111101100000111001110011010110
10111101001000100011000011101100
00111101000100100111010011001001
00111100110010101010000010101110
00111010000100101010000111100000
00111010101110000001001001000101
00111101010010110010000011000001
10111010100111100000111010110010
10111101010000101011110010010000
10111100110011100001001110111000
00111100111110001110101111110001
00111101100111001110010111111111
10111100101000110111000011110100
00111100001101010010100100111000
10111101000111100010000110110101
10111101001111000010101101001000
10111011001011101110011010010100
10111011101110011100101011010011
10111101100011100100111001101110
00111100101111110000101111000010
10111100101101010110111001110111
00111100100111100011111011111100
00111101000111100010111001001101
10111010111001011011101010101110
10111101001000011001000111000010
10111100100001101000001011100100
10111100101111101000100110011110
10111101000111001110000001011011
00111100101101101010100001110100
10111101001111101010010100010010
00111100010110101101010101011010
00111100001111100001001101111101
10111100110110110100001101010010
00111101000101010001011011001010
00111100100001011000100000101100
00111100000010101001011111001100
10111101010000000101110110100001
10111010101101101011110000100010
10111101011010010100001111000011
10111100010001101011011000110011
10111100101000001000010111011010
10111011000011101010001000000011
00111011011000011011001101010111
00111100001110001010000010101111
10111101011111111101110100010001
10111101110000011011011010111000
10111101101110001100111111100011
00111100110010011001111010101010
00111101010000000110011010100001
10111101001110011010101100100000
00111100101000110011001000001000
10111100010000100100001111111100
10111101110010101100111111100101
10111101011010010111001101001011
00111101001100010111101100110111
10111100000001100111110100110110
00111010111011110010011110101000
00111011101000000011111010111100
10111101001100111101011110100011
10111101110000001010111100000011
10111011110000101110111101000010
10111101001011010001010010001011
00111101101001101010010100011000
00111100101101000001110010010010
00111100110000100000100100111101
10111101010100010010011100011101
00111101100100000110101101100000
10111100010001000100111100001100
10111101001000001100100111101001
00111101011001101100110010110000
10111101101101000001110110010110
00111100101100010010100101111001
10111100100100001000000011110110
00111011000000101110100000000010
00111011101101100111011100011110
10111101010011110000100100110011
00111100101000001011010000111100
10111011011100010100110111011000
10111010101000000110110100110000
10111101000101001100001110000110
10111100010110110010111001000010
00111100110111001010010111100010
00111101000010100101110001100100
00111011101011011101000010011011
00111100110010111011100111011010
00111101000000000011001001011000
10111011111101001011111111110000
10111100111001001101001101110101
10111101001101010000001100101110
00111011110100101111001000110000
10111101010000100000011100001000
00111101100001110011100001001011
00111100100101100110111100011101
00111101101000100101000110111101
00111100101001000001001110111111
10111011011010111010100110001010
00111101011000001101010111001110
10111011110101010111001101111110
10111100110100001011100111110100
10111100000010111100010011110101
00111101000011010110001101000110
00111100110110000010010010101100
00111100011110100111101001110010
00111101100100001010110111000100
00111100011111011101001010101101
00111100100011011111101100001111
10111100000100010011000101010000
00111101000100010110000111001111
00111011110001011100100110110101
00111101010110010000110101010101
00111011110110001110111111100010
10111101000000010101111111011000
00111100011000011110100111100101
10111101100000010001010110110101
10111100111111111011111100111000
00111101001011100111000010001110
00111001010011000001010001011011
10111101000110111101011001101001
10111101000100110000100010011010
00111101101010011010110100100010
00111101010100101011011100001001
10111100100100011101000110011111
00111101101111101110111010011000
00111100010110000110101110101110
10111101101101111010001010101001
00111100111010001101110111110000
00111100010001111001110000000001
10111011010000000110010011111100
00111101000010100010110101011000
10111100110111011101011000000101
10111100101001100011100011011110
00111101000111001001000110011100
00111100110010110110110011001011
00111100000001011100101111011100
00111101010011010011111111010101
00111100000011101111110000110110
10111010111001001110111011000010
00111010111011001110111101101110
10111011000111110110011101110010
10111101100000101111110100110001
10111100010010100000110011110101
10111101010110110000110100010110
10111101001010111110111001101101
00111101010001111111000101100010
10111011011001010100110100010011
10111101000011001011000010000011
00111101001011100110011010000101
