10111100111101100011011001111010
10111101100001101100110101001001
10111101000010111100111100101000
10111101100010110010011011000001
10111101010001101110010010100000
00111101110100011101111100111110
10111101100101101011111000110110
10111101111001000001101110011000
00111101100000110110011101110101
10111100110111100011100011101010
00111101000100101001100100101100
00111100111000010011111010100110
00111101011010010110010111111000
10111101000001100010001101001101
00111101100001110111010011011111
00111110001000101101111111111100
10111101010010011111110101011010
10111100011000010001011110010100
00111100001011110000001000010010
10111100111101100110000001101100
00111101010100110101110101001111
10111101001110111001111001111010
00111101000001100111111001010101
10111101001011000011010000010100
00111101010000001110101110111010
00111101100101100010110101010011
10111100100111101100111100110110
00111011001101100001011000010101
00111101001110101101101010001001
00111101001100101011011001101100
00111101101011001000100010001111
10111101001011100001101110010010
10111011100100010100110111101010
10111101100011001011011100011110
00111101100011110001010100110101
10111101100011101111111000110100
10111101001001100101011000110000
10111100011110110111000010000101
10111101010011000010101010010001
10111101000011100100001100000000
00111010111110000001011111110101
10111011001001100000010010011111
10111101100001000100001000010000
00111100101111001100110110011010
00111100110001100001001011111101
10111101011010001010110010110000
00111011100101111110111110010111
00111101000100100010111001011100
00111101011001011100111000010001
00111101001111110011010110011101
10111101100010010111000010100010
10111101100010100101110000001000
00111101000100001100100100111011
10111101001101101101110000010101
10111101011001000010100000001110
10111100101101101000001110100010
00111100011011110110011000011011
00111011111001011010000101111010
10111101011110000110111110001001
10111101101010111110111010011100
00111100011111001100100011000011
10111101101011100000111010011101
10111100000111111111001010111101
10111100000001000000111111111010
00111011101000111111001100111001
00111100111001011110000000000100
00111101000010010000110011000000
10111101001111110011001110000100
00111101100101010111111000101011
10111100100000000110001111010010
00111100011111001111001111100110
00111101000101010100000000111110
00111101000000010011100001101100
10111101110011010110001110101010
00111101000000100111001010101101
10111101100001110001010111010010
00111101010101111000000110101101
00111100111100000011011001001111
00111100010011010101000011001110
00111100010001111000001000110011
00111100111000111000101110011010
00111100000100000000000010000010
00111100101001110100100011100111
10111100110110001000011110110011
10111101100001011101110111100011
00111101010100001001010000001001
10111101100100010101101000101001
10111101000000101110010001100111
10111101011111010111100010011100
00111101100101110100111001001010
00111101001011111000110011011010
00111100001100100001010110100000
10111101001011111011010000010110
10111101110000100011010001011101
00111100101011001100111110010011
10111101100010001010011000100111
10111011001011111011000110110110
10111101010100111000001001011101
10111101110001010001010010101101
00111100100011000000010111110101
00111101011001111110001101001000
10111010011111110011011110110001
00111101110111001000111100111011
00111101101011001111100110001101
10111011101110111100000101100110
00111011001011100010111101011000
10111100100001001000010010111101
10111100110101011001011011000010
10111010011010101101010100100110
00111100100101101001011011000110
00111101000000110001100100001101
00111101011011011011110000100010
10111101010001111010111110001100
10111010100110000010001000100010
00111101000010010001111000111110
00111011111111110000111001100111
10111100101111111010001110100110
10111101100101101100101110110100
10111100111110010011000000101110
00111010110011101001110000111100
00111100001111010010110010100000
10111101011001101101111111010100
10111101001001100111100001100111
10111101000011110110000101001101
10111101000100000100010011100011
00111101100010101100000001100010
00111100010010110101110011001010
00111011000110001001011110001001
10111101001100111010011111101110
10111100000011100110101011010100
10111100111101001010100100000001
00111010010011001100011111001100
10111101100011100011000011011011
10111101001101101000011000110011
00111101100111111000110101110011
10111101100000001000101110110001
00111101010001000110001011110001
00111100111001110000101101100010
10111101000001011101011110100101
00111100010001110100111010010100
10111101100010110011011111101110
00111101000101011010000110010100
00111100100001011001111100101110
00111101011011011011011011011010
00111100110110110100011110001111
00111100000010010110011110100111
10111100110110000100010011001101
10111101100101100010111111000010
00111101101001111010010110101111
10111101100000010000001001111101
10111101001110000010010010101010
10111100010110101011001001111010
00111101010010111111111011110011
10111101001101110110010011000001
00111100110000010011010111111000
10111101101110110100110100110010
10111101000000001110100011110101
10111100001101010111101000011000
10111100001110000010100100010101
10111101011000111101000111111110
10111101000000001011010101100100
00111100011001000101010000011110
00111101001110010100001001101101
10111100101000110011101110000111
10111100001100000101000100011011
10111100010110100111111001100001
00111101101101001100010010011001
10111101100101011111111101010100
00111100111011011110101001101001
10111100000000111011101110111110
10111100100110100100001111000011
10111101001101101010000001100101
10111101110110101101101110101001
00111100101110010111111001111010
10111101101111110110000011100010
00111101100100001010100000111110
00111101001011100010111110101010
00111100100100110111000111101101
00111011000010111011000110111000
00111100101001111000101110001011
00111100010001010001001101111011
10111101011011000110011110001010
00111011100111101110000100000000
10111100100001111110110100101000
10111101101101000110000001110000
00111010111011100010110111110100
10111101010101000001010101010010
10111100100111000000001111001010
10111101010011110011010101110111
00111101011001111110110010100101
10111101011100111100110100001001
00111101000111010111111010011010
10111011110010100010010101110111
00111101010011111000110000111010
10111101110101010110101010110110
00111100110100101011101011110001
10111101011000011111011010110011
10111100111011100101110111010000
00111101011011010110010011101001
00111101011111000110011011101110
10111101100010010001111100010010
10111100011001110100101111101010
10111101011000100110011111001011
00111100100011001001101111001011
10111101011001011101101001110000
10111101010000000010011110001000
10111101011100110111000001000010
10111101011111010000110010110000
00111100101110111100010101111101
10111100101010000000111110000011
10111101101101111101010111110001
00111101101100000110010110101110
00111100111100100000101101010100
00111101000000001100101000111010
00111101001010100101011001000100
00111100100001010010101111110000
10111100100000011100110000101111
10111100111111111100110100010111
00111101010001000111100111010010
00111011101000110111101110110110
10111101010000101000010010011101
00111101100111101010100101000111
10111100000010110001111110111111
00111100100101000101011000111100
10111101100100001101100111011000
10111011111111001111011111101010
10111101000101100011010110000000
00111101001100101101110101011100
10111100111011111110011001000101
10111100100000101100100011100111
00111101010011100010111001011110
10111100100100101110111111100010
10111100011000000001000011110000
10111101100110001011110001011101
10111101000100111000000100101110
10111101110011111001100100000010
10111100101110000100110010111110
10111100100111101100001111001011
00111100101011010100110000111101
00111101000101001011100101110011
00111100000000110001101101001110
10111100100110010010000010101010
00111100101000011111011101111011
00111101101011100011100110010000
10111011110000000100100010011110
00111100100100110110111011111010
00111011100000010111100110011001
00111100111111011111111000111000
10111101000110000001111011011111
00111101001100100001001010100101
10111101001001110010001010000000
10111011010100001011001011110100
00111100000011000100110101000101
00111101011001001110000001011010
00111100010000010011000001010001
00111100110010101010010010100110
00111101010101011111111011101110
10111101010101000101101000001000
10111011101100010111010101100100
10111100100100011100001110101100
00111101100111000110000010110011
10111100000111001111001110001111
10111011100100111001101101001000
00111101010000010011011010001011
10111100110100110101000000011000
00111100000001011100100101001101
00111101001111110011001100000011
10111011111100010001000111101000
10111101110101111000110110000000
10111011101111101001101110100111
10111101000101010011111100100101
10111100011101010100100101101110
10111100111010000000010111010101
10111101000110000111100011011101
00111101011011001001110111010101
00111100101100001100001110011011
00111100100000011001010001011010
00111100101011101100110010100111
10111101001001000100111100001011
10111100100001000011010001100011
00111101000011111000101111101011
10111100100001000010101000110101
00111100101110010101110101111000
00111101110001010101011100011000
10111101100101100011010111000100
10111100000101110000011101101011
10111100001001100001101001010111
10111101000110000111101100011110
00111011010110110110111010001110
10111101110110101010101001000010
10111101011000101000100001110111
10111101010010010000011010111000
10111011000101110111001000101111
10111100100100010100101100111011
10111101100010101001000011011110
00111101001100010001100111011010
00111100101100111110000110011011
00111100001001010111100100111011
10111101001101001100000100010101
10111101011101111011010010110101
10111100000000000101011111111001
10111100110100111110000100010100
00111100111100111000010110001101
10111101010011001011001110110111
00111101010111000010010000110011
00111101001010100111110001010100
00111101000111110000111010010100
10111101001111010001111010100111
00111101011010111101101110000000
00111101000111001010110010100011
10111101101111111001100001100110
00111101100001001100000000101100
00111101000001111100011100100011
10111100110110101010100001111001
00111100010111000000000100110100
10111101001001111011000000111100
10111101101010000101001110110000
10111101101101110000100101001001
10111101000000100101111010001110
00111011001000110110011010100000
00111100010011100010011000111111
00111101011100010101111011100111
10111101100010000100011111101001
10111101001001001110110010010101
10111100100101001001110101100011
00111100101111100101110100011111
10111101101011111001100011010001
00111100111011000010101101001010
00111010100101111001101111010010
00111101010000001110000011101010
10111100100100110101110001000001
10111101101000101001110010001010
00111101011000111101101111000111
10111100010000101000001011011011
00111100001100001000111111010111
00111100000010101000000011000110
00111100111010010010111101011111
00111101000100001100110101110100
00111100000010011000001100101101
10111101100000100011101101110010
10111100010011111111001000001110
10111101000110000110000001111101
00111100100000011111101011100011
10111101101010010011011100101000
10111100101111101100000111101111
00111100101110000000010101111011
10111100110000101000010010010100
00111100010101010011110010110110
10111010110101111010100000011110
10111011110011011011101111100011
00111001110101001110001111100111
10111101101111100100100000100000
10111101000000000110111010100110
10111101101101011111000101101010
10111100100110101100001110101100
00111101001001110010101000111111
10111101101001100111101001001000
00111100101011110001000000111000
00111100101111111101110100101001
10111100101001000011110000000101
10111101100111000000111000111111
10111110000000001001000111111010
00111011110101100100001011110001
10111101000101101001111001001000
10111100111111110010101001110001
00111101011110111110001010011001
00111011110011100111011001110110
00111100010111011011010001101010
10111100001000111101010011000100
10111101000011001000011000010010
00111011101001110011101101110100
10111100001101011010010011110101
10111010111011010010001010010000
10111100111100101100000101001000
10111100110001101100101001100100
00111100001101001000010100011011
00111101100100101001111110000111
10111100111111111011011101011001
10111100111011010001011001001100
10111101000001100001011110010111
00111101100100000111111001111001
10111100100011010000100011000100
10111100110010010111110000100010
10111100110110010000011111010100
00111100001100000000100000010011
10111101101010101000110101111110
10111100110110000011000100011001
00111100101101110100011101110001
10111100100100100111111011111000
00111101011001011000010110110010
10111101001111100111001101100011
10111100110011101010111000110011
10111011000111111010010011111110
10111101010001100110111111101100
10111100101110111001010001001000
10111101011000010010111110000010
00111100110000011010101011110000
10111100111000010101000011000001
10111100101000100011110000001010
00111101010010011100110001101000
00111100110100001011100100000001
00111101001101100111100010100110
10111101110001110101111010000100
00111101011001101110101000100000
00111101001001011000001010010010
10111100000101011101011100101001
00111101011010011110101100101000
10111101000011110100010100011001
10111100001001000101101111100000
00111101010011110100011010110000
00111100001001010110100011000110
00111011001101110010110110001100
00111101011010000111111100100010
00111100101011010010111010111010
10111100111001010011011110010010
10111101001000000100111001011000
10111101010001100100011100111001
10111101011111000101001101110110
00111101010110100010011011101111
10111100110100010111101010111111
10111101110110110100111010110100
00111101100100011001101001010111
10111100010000001101101110101010
10111100110001001001110100111001
10111011101000000101101111010001
10111101000100010010100111101111
10111101001010111110111010111010
10111101100011100101001000101110
00111100101011101100111000011110
10111100110000101110011110100100
00111100110100110001000000010000
10111100111101110101110001000011
00111011001001011010011101101100
00111100111010110010011011000110
10111100100010011010001100000000
10111101100111110000100100101111
10111011010110011011010100011110
00111100101110110010101001011010
00111100101000010110001111101101
00111101000100110010011000101010
00111011111111111101000111110110
10111101011110011000011000011111
00111101001000111101101001101001
10111101101100011101000011111110
00111101010100111100101100011100
10111100101010101011011010010011
10111011001000111101100110010010
00111100100101110100001011100101
10111101100011010000100110100101
10111100000101101000101000110111
10111100111111010001101110000100
10111100010001000111011001110000
10111100110000010001010101001110
00111100101001001100011100110100
10111101001010001011110101001001
10111101101110000110011010001000
00111101010001100000011100000011
00111101001010111010000111001100
00111101010011100101011100111011
10111101000101001110000010100110
10111101010010010100101011010001
10111100000011010101100110010100
10111010100100000011111100110001
00111100100000100000000001111110
00111101011111000110001111010111
00111101101010100101010110011010
10111011110100011101110100101001
10111100001110011000010000010011
10111101011101011011101111000111
10111100111010101000010001010110
00111100111111000111100011111010
10111101110011001111000110110001
00111100110110001110100111011010
10111101000000001001100001101001
00111100100101001011111011110001
00111100100101101100001111000100
10111101011001111011001101001111
00111011111100011010101000110001
10111010110100110011001011111011
00111110000011110011110000111100
00111101110000011001101110010011
00111100000011000100111000100000
00111100111101101100000001101111
10111101011010000111011111000000
00111101111101110100011100101001
10111100100110000001010110111001
10111101010000001010111000110011
10111101100011001110001000111010
00111001111010111111001111101010
10111011110000110111001101100100
00111100110001111110101011011100
10111101101011000001101110100110
00111100000000001100011010110010
10111100101010111000010010110101
10111101101011011111010010101101
10111100100010000010001001101010
00111101101100011100111011111011
00111101101111100001110101000100
00111100101101101101101011000000
00111101011001111101001101010001
10111101100111000001111010010100
10111101001010000001101111010001
00111100110001100000000000100111
10111101101011010101010011000001
00111101010011100101011111111110
00111101101100011000000110011000
00111011000000011101110011000001
00111100001100001100111010000100
00111011110000010101100011111111
00111101010011111110010101010001
10111011111011101000110001101111
00111101011111110100111110000001
10111100101110100100111100010110
00111101010001011100011111011010
10111101001101110100011100100111
10111011100001110011001000101000
10111100100100101101010100101110
00111101010111101010010101100101
00111100101000000011010010010111
10111100110000010011100101000000
00111101010110100100000011101001
00111101010011000000010001111011
10111100000011110011011011011101
00111101000010111101101111010001
00111011111110110100001001001010
10111101010010111001101111100001
00111100011010010010100111011101
10111101101100100111100101110110
00111110000000011111010001101010
00111101000100101000000000000111
00111100100011010001000011010000
00111101100110101011010100111001
10111101101101111000010110010101
10111101000111110111011001110100
00111100100001111111101101000001
00111101100000100100100110010111
00111100110010111011111001010000
10111011011111101111011001111011
00111101010010110000011100010100
10111100110001010011100101011001
00111101100100011010100100100011
10111101000000001110011110100000
10111100111101100001101100110010
10111100100101011100101101101101
00111100101101010010110110010011
00111101001111000010000101110110
00111101011010000101101100101000
10111101101100110100111101010100
00111101001110110010111010011110
00111011110010100110010011111100
10111101001110101011101101110000
00111101101110111100101110110111
10111101100101001100100100111101
10111101000110110011101011011101
00111101000011100100000101001111
10111101010111001101011101010111
00111101000011100111111010110110
10111101110000011100010001011011
10111101110101010100010001100011
00111101001001000110101010101110
00111101010111101111010110101111
00111101101011011001101011010011
10111101010011011011110101110101
00111010010110111001001111110100
10111101110101001001000001011011
10111100101000000011010010010111
10111100110010110011101110110111
10111101100101001100000011010000
00111100011011100101100111001101
00111101001001100111010001000101
10111101100001000101000001110010
10111101101000001110111001000001
00111100111101000101011000001000
00111100101001111100100110001010
00111100101011110001000111100001
10111011010101111111001111010001
00111101101101001011011111101001
10111101100010111010111011011101
00111100001011010000111000110101
10111100111010111110001111101011
00111101010010110111111101000011
10111100000111111101101111111100
10111100101111000101011100111101
10111101011111010100011110011010
10111100001100010001001100100000
00111101010101010101010000100110
10111101101111100011010110100111
00111101001100001100011110101000
00111101000111100101110010001010
00111101101000000111100000011010
10111101100011011111001001010000
00111011010100110100111100011001
00111101101100100010110000010110
00111101001010110100101101001010
00111100101010110011001001011100
00111101000110011011100110010001
00111100100011101111110100110100
00111101011010100011110111101110
00111101101010001101001011101010
10111101010000101011001000110011
00111101010000101000101010011010
10111101001100001011011110001110
00111100001100111011101010101100
10111101000001011001111100000110
00111100001001000011100011100001
10111100110100001010001000000101
10111011011001000101011001000010
00111101101110001000111100100010
00111101011010000011100010111010
00111101011100011100000001111100
00111101011111010110110101000001
10111101101110100000101001011111
00111101100110010010010110000011
10111011000010011001111001101101
00111100001000011011111111001011
00111011011111110010101000000001
10111101001001000010101110001010
00111100100001010001011011110101
10111101000110000101100110001010
10111101011101100001111010011010
00111101101010010110000000110000
10111100111100001010001111010001
10111101000111110100101100110010
10111101100000001000111010001001
00111101001110111101101010010101
00111100000101011010011101001010
10111101110110100110101100010010
10111101011011010011001010000001
10111101100100111101011001101110
00111100101110010001000111001101
10111101011001110110110100011001
00111101101001100001000011110110
10111100110110111110101001001000
00111101100110010010111000111110
00111011000000101001101011000101
10111100000011111110110110010101
00111101100100000110110110010101
10111100111100011100011001001000
10111100111010111101101000010001
10111101000101101000010101100111
00111100110110111110101111011010
10111101011111010101010011010011
00111101100010101101010000000010
10111100101000010010000101101000
10111100011110110101011011111101
00111101000001000101001101000111
10111011111001001111110111101010
00111100100100011001110010011001
00111100100010010001110011000011
00111100101001101000001010100010
00111101000100000010111011010000
10111101000001110000110000110011
10111100010000011100001100101011
10111101010100111100011011101100
10111101000111011001110011011100
10111100101110011000000111010011
10111101011111110111001101000001
00111011010000001101100000011001
00111101011000100010111100011110
00111100110001001011001001011000
10111100110010000001100111010001
10111101011011100100001011000101
10111101100001101010001111011111
10111101011100001011000111101000
10111101111111110011010001100000
10111101101110111001000101010111
10111100110001111100110011001010
10111011110100101000100110011111
10111101010000001110110110100100
10111100011011100011111110111101
10111100111000100001100101100101
10111101010101111001001100101011
10111110000000110110011110111111
00111100101101010000000101111000
00111100101111000001000001111001
00111010011001001100010111101110
10111100100100000000110001100101
10111101000011001011100111100011
00111100110100011101111001011010
10111101000001100110101001111000
10111100110110011110101010010110
10111101001010000010101101110011
00111100011101011010001100000011
10111011101001110001101111110100
10111101010000001001111100110100
10111100111100111111101010001000
10111100011011111000010001001001
10111101010110011010111001001000
00111101110011011011101010001100
10111101100011101001111000010100
00111101000100001010011000110110
10111100000011110101100100001001
00111100100001100011111100011000
10111101011100100111110111001001
10111101001101010100010011110011
10111101001101010001110111111111
00111101001111000010100100001010
10111100101000100001110011110000
10111011100010101001111100110100
10111101000110111011010001111111
10111101101101011110011101001001
10111100111001010111010011010011
10111100011010010011010100110110
00111100100010010111000000110010
10111100011000100011100001001001
10111100101111001100001111110001
10111101100111011000110000000101
10111101010101000100111111001101
00111100001101001000110110001000
10111110000000011000110010100010
10111101101011100000010011110111
10111110000000111000010010110101
10111100001110001110000100001000
10111101001110101110000100011111
00111101010000110100100111010111
10111101100001100011100011110110
10111100101000101110100001011001
10111100011111111100010001100100
10111011011100110000011110001111
10111101010011100101000001010011
10111110000101101000100110110111
00111100101010011101110110111001
10111101100011011110100011110111
10111101011000000111100110100111
10111011010011110011001010101001
00111011010111010010011111000111
10111011101111111010010010001000
00111100100010111110000011001010
10111101100111011001000001110011
00111100111100111000110101011100
00111100110101001011111011001101
10111101011011110001101001001010
00111011111101110001001011111011
10111101010110011111011001010011
10111101000110001101111000010111
10111101101100111101111001100011
10111101011001011000001010001010
10111011110000011101011010111111
10111101101000010000001100100100
00111101010010101100001111000100
00111011011010101011101011111010
10111101011000111001111010111010
10111101001100110100100110000001
00111101011001101010111001001000
10111101000101110110100101101100
10111011000111010100000111110011
10111101110110011011101011111010
10111101000010010101000100101001
00111101101110011001110011100001
10111101010110101010111100100110
00111101001000001110000111001000
10111101100101001111011011011101
10111101101100000010000000101000
00111101010000010110000001101100
10111101000101010111000001110000
00111101000011101110101111001000
10111100111101010100110110010110
10111011010101000000101100000001
10111101000111111001011011000000
10111100011011001100110101001000
10111100011010010001101010001000
10111101000000110100111111111001
10111100011001001101011000101011
00111100000110111010000010101000
10111101000001100010010101110010
10111101000110101110000101110000
00111100100111110111001010011001
00111101001111010111000010110110
10111101101010111101101010111000
00111100011001101001101010100100
00111101000000101001111001111110
10111101001101001001100101111101
10111100111111110001110111000101
00111101100000111010101001101111
10111011110011011001001001000111
10111100101100101100101110000010
10111011100100100110000001011011
00111001100100110100101000011000
10111101110011101011100101101001
10111101101001110100110110100001
00111100000111000110011001101101
10111101100110100100001001000111
10111100100101000011010001111010
10111101000101111000010111101001
10111100111101010010101111110111
00111101001100001011110010010011
10111101100000011000001100110001
10111011010000000100101000110101
00111100101111010110010110000100
10111101101001000111111110101110
10111101100110101100000111100111
10111100110100001110101010111110
10111101100100011001001011011101
00111100010000101001100100100001
00111110001010001100110100001110
00111100110001100110101011000001
00111100011110110101101110001100
10111101000000010000000101111101
10111100010100101000001000010001
10111101110011101111001101010011
10111101100111101001110010011110
00111101011111010101011010111001
10111101000101011111001010000100
10111101101111101111000000011110
00111100110001000001010111100001
10111101011100110100110000110101
00111010101000011101111111100111
10111101011110000100001110100110
10111101101000111001010100100001
10111100001100100001000101111001
10111100101001100001000001000010
10111101010100110100111111011000
10111100111000011100101100100101
10111101010001001001111101111110
00111100001101001100100110010010
00111101011110100011001100101111
10111101011011100110110011000101
00111101000010100100110011001011
10111100110111010001011010100100
10111101101000110111101101001110
10111100100111011100010100100001
10111011110110001100010101100100
00111101011110011010110111001111
10111101000000010010011110111111
10111100001111001011000010011010
00111100101100101110110011111100
00111101101000001100111110111000
00111100101100011001000110100000
00111010100101010011101101010010
10111101010101100100100011110011
00111100101011000101111100110101
10111101001101111001110101111010
00111011011110010011110010101000
10111100110010101010010011001000
10111101001111001111110001111100
10111100110111000010000000100000
10111100110011110101110000100100
00111011001111011100010110110001
10111100101111110110010001010111
10111101011000111010101100011110
10111101000001011110010110110000
10111101001101110011011011101001
10111100111101011101001000111000
00111100010111110001110001011100
10111101010000000001100001001001
00111101011011000000110100000000
10111101100000100110010100011110
10111101000101100100010001001111
10111010000010110000111000010010
10111100011100110110100110100111
00111101101001001010110100111101
00111101001100010111001010001001
00111101011101111111100011110001
10111101011111000100000110001100
00111100111100000100100000101100
10111001111011011010111111010110
00111101000111010111111100100101
10111101001101001000110111110010
00111100111100000000010001001100
10111010101110011001010110000111
10111100100111101000110000010000
00111101010010010110011101011101
10111001101010010100010010110111
10111101100001010100110000111101
10111101000000111001111001010100
10111100111111010101000001000011
00111011100011010111111111001101
00111101101111110011100000001011
00111011101100110110001011111011
00111101100010101110111000110010
00111101101000001110111101110101
10111100101111001001011000000110
10111011010111110110000100110011
10111101000001011100001100010101
00111010101110000000001000101100
10111100011110111001010001011010
10111101100100101101100101110110
10111100111011001000100100010000
10111100110001001010111000000000
10111101000001101100100111010001
00111011101100011001111110000011
10111101110101101011011110010110
00111011110001011101011000011011
10111101100001000111100101111110
00111011110101111011011001000100
00111101000010111000001010100000
00111011111110111110101011000110
10111100001111011111111100001001
10111101100001010000110010101111
00111101110111101011000110110111
00111101011010011011010010111111
10111110000010101000100101011010
00111101111000100110110100011000
00111101111101011011010000011011
00111100011000101101001011100110
10111101110001010111011110111100
00111100001100010100010110011001
10111100111001011111000001001000
00111101001100110111010011000101
00111100101101101010101000001100
00111101001000000000000010000010
00111011101011010000111101111000
10111100111101111110010011001101
10111101001110010000101010011111
00111100101011101001000011000011
00111010011010000011100010011010
10111101000001000001100000010111
00111100111000110011100101001001
00111100011100001001010001111111
10111011011110010000101001101000
10111100101000111110010101010010
00111011101111010111111001101101
00111100101110101101000001011001
00111011110110101110111001000011
00111101001110010110101101100011
00111011101000110101000000001110
00111101100101011111010110000101
00111011010010111101101000100110
10111100001101111011101010111010
00111100000010000100010100011111
00111010100111100011011111010001
10111101001011111111101011101110
10111100000110010010010111111100
10111011101010111000011100100011
10111101100110010101010010001011
00111100001101101100010010010101
00111101010001100100101101100011
10111101101110010001101110011101
10111101001101111001110100000100
10111100010101110100010011001100
00111000110111100110001001111001
00111100000100010011000101111000
00111011100001111010000100010010
00111010101100000000101100010001
00111100101111111000110000011011
10111101000101001110011101110110
00111100001110111010011101011100
00111100100010010010000010001000
00111100110101001100100111111010
10111100010010110010110011111000
10111100001000001100001001001111
10111100010001101100100100111011
00111100110111110111101111110101
00111011100010100111100110110101
10111101010100001101110111011011
10111100010001000101100011001011
10111100100110110110010010011000
10111011110100000111100101110100
10111101100100011110101011111101
10111101100101100010100011101010
00111101010110011010010100001111
10111101100010100100111101100111
10111101001010010101110101111001
10111100111010100111000001101001
10111010011001100100111010110000
10111101000100001100001001000011
10111101000011001110111100111101
10111101100011011111000011000110
10111100011100110101101010110000
10111101000100001111001000001110
00111100110010000111111011001111
00111100110111110010100111011100
10111010101011100110000000010000
10111100110010010101010101110010
00111100001100011100111110011111
00111101101110111100000101101111
10111011011101000011110011100111
10111101110110101001011000010100
00111101001001000000111111000100
10111101000011011001000110110100
10111100110100010100110101101010
00111100111001110111111101100111
00111101010010011100001010110011
00111101011100001111111110111101
10111100100101100001101110000111
00111101101101101010100000101110
10111100101110010000010010011011
10111100101000101000101110001010
10111101001001011100101010100001
00111011101101111101110011110101
10111100111101110011010010001110
00111101000010010101000101110101
00111100011100010011100100101011
00111011001110101111111111011111
10111101001100111010001100111010
00111100000000101011101101111010
00111100111001011010100110101111
00111100010001101001100111101000
10111101010010011011100001000111
10111100101110110110011011100101
00111101011010000011011010011011
10111100110010000110000011010010
00111100110010111100011101100000
10111101010011111011000000110010
00111010111001100100001101100010
10111100110000110011101000000100
00111011110011001101110011100101
00111101110011101010110110111100
00111101100011100100100101111111
00111011101001011110111001110000
10111101010000111100110001001101
00111101101101000011010010010101
10111101100101110111001001100011
00111011110000000110001001111101
00111011100010010100011010111101
00111100001100111110101101101001
00111100100110001101000101110111
00111011111010111010101001000110
10111101100010011011101000011010
10111100101010110000111111011010
00111101010010111100010101010000
00111101010001100001000011010000
10111100101101001001111111101111
10111101000000110110000010110000
00111100110110010001000000101010
00111100110000000010111001101011
10111100001101110110000001011101
10111100100111000111000101101100
10111100100000110010100000001111
00111101001000000100000100010110
10111011101101101011100110000101
00111100011010100000110000111000
00111100010101100110001010000000
10111101001110001110011100001100
10111101100111110101011101000010
00111101000000111100111100011101
10111101101101000000001100000101
00111101011110001111110100101000
00111100000001010001010100010011
10111101110111101010011010110001
10111101001000111000000000111101
00111100001001111101001000110001
10111101100000011111111111101010
00111100101100001010010010001100
00111101001010000011001010100110
00111101100011001010100111001000
10111100100010010000101111010100
10111101010000000000000101001111
00111101110101001110100010010111
00111100100010010110110100111100
00111100101010000000001100111100
00111100011010010011100110000100
10111101111001101010010010101101
00111011000000110101000101011110
00111001110000100011101100001010
10111100011101110111110101111100
00111101100111000110111011001100
00111101100110001110110000010100
10111100100011001000001010100100
10111101001011011110101010001100
00111101000110100101011000000101
00111100000100010101100010100000
10111101100001000100111011011001
10111100101101001110001101101011
00111101100010101111100000100101
10111101011010110011110110011101
10111101100000100101001111001111
00111100010100001001110010011111
10111101011010101111101110110001
10111101110011100111101010111101
00111010101000001110010100010000
00111101100101011111111000000000
10111100110111110110111101010111
00111101001111000001001010000010
10111101100000100000010110010111
00111100111011001101001010000100
00111101000110101101100111010100
00111101000000011101110001011100
00111101011101110000101011101010
00111011010011111010011011010111
00111100100000001110101000110101
00111100111101001001000001000000
00111101100011001110111011001100
00111101111101100000101010111110
10111101100100100110000000010001
00111100010011101101100110011000
00111100100001111000000001110011
10111101010111101101000101110011
00111100100001001101111011001110
00111101100101011101100111011001
10111100111101111001100000011000
00111101000011000000010000101001
00111100111010101111011100000111
00111100101001111110001011001001
00111101100011011100100100011000
10111100111111001001100101011111
00111101001001111010001000010010
00111101001100101101111001001101
10111100110110011000011001010010
10111101000010101111010010011001
00111100101011001011110111101111
00111100011111110011001111001011
10111101110011101010111101001101
00111100110001010110111111010100
10111100010010101101010100000010
00111101000110100111000011001011
00111101001100100000000001101001
00111101000110010111000011000010
10111101000001000000001100111110
10111011101000001010110010100000
00111101001000001101011010010000
00111100000000010111001100011110
10111101011101000111001001111010
00111101011111111001100011001110
00111100010110011100101111111110
00111100100100111011001101110000
00111100111011110010100000000010
10111100101011110000100111001101
10111101010010010110111100100001
10111101100101111111010001001001
10111100010010010001100111010111
10111100111000111010100100011111
00111101101011001110110111100111
00111101100100000100000011111000
10111101001001101101001111001111
10111100100100011100000100010101
00111100011111010011100000101001
10111101100100100100010110011000
00111011010111110011111011100011
10111100101101100010010110101111
10111101110101101100000100011010
00111100100000101110010100001100
00111100001011000101000110000101
00111100001101111011100111010001
00111100100000101110110111010000
00111101110001111000101110000101
10111100000011110111000011000000
00111110000101001011100111001011
10111101000111101101111111011011
10111101010101101100001010111010
00111100110101101100101100101010
00111101000100111000010101010101
00111011101110000101110110000100
10111100110000110001110101010100
10111101100000001011011010100000
10111101101100111001000010011100
10111101101011101110110100011001
10111100100101011101100010010100
10111001000101100001000000101011
00111100001111100000001000001011
00111101001011010110000001101101
10111100101001111000001000010001
00111100101001011101010111100010
00111101011111000100110110101001
10111100111000001111011000010111
10111100100100010001001001111111
00111011000001101001011111110110
10111100000010110110100001000100
10111101011001100001110101001111
10111101000101010101011100100000
10111101100110000101101011000010
10111100001100111110011111000111
