00111101110011101110011110011100
10111101010111111101001110001011
10111101101111111100011110110110
00111101011101101001000010000110
00111110000001100100001000000010
10111110001011100111000000110110
10111110000110101100000110010100
10111100011100111110010110101100
00111101000011001001111011110000
00111100110001001101110111000000
00111101101010011110011010000110
10111101110100101111110111111000
00111110000000110011110010100000
10111100011101110010110010000100
10111100000010011011101001100100
10111110001101100010100111101010
00111110000000100110010000001000
00111101000001110101001111001101
10111101101010111010110110100001
00111101011001010110000011000100
10111110001000001001110001101111
10111101010110001111010111100001
10111101101100011110010011101110
10111110000100010000100110010010
00111100000010000001101100010111
10111110000000111111011011100111
10111101110111000000000100011000
10111101101101000111110011101000
10111110001001001101110001011101
10111101101110111100111000011011
10111101011010100000111100001101
00111101010010110100100001011001
00111110000011010100001101001100
10111101101000011011100001001000
00111101101011010001001101000010
10111101010111101000000010101100
10111110000111111101111000010111
00111110001001000100011001110011
00111011000101111110100001101110
10111110000000000100011100011100
10111100001000101101110010101100
10111101010001011001000111001100
10111101000001001101100110011100
00111101011000100111111101000011
00111011110001001011001011011101
10111110001011111011000111100011
10111100110011111100001111101011
00111101010110111110110011001111
10111101001000001101110001011100
00111101101001101011000000001010
00111100111001110001001000110001
10111110000010001110110100010011
10111101011110011101111100111000
00111101101011000011101111100101
10111100011011010001111110000101
00111100110011110011110111000100
00111110000101011110010010110001
10111011111110011011100000000001
00111101101010100111010110010110
00111110000010001101101000111010
10111101111010101011111001110001
00111010001111010100100011100010
10111101000111100101000001111010
10111101101111101100101110100111
00111101101100000111000001101110
00111110000000011100111011000000
10111110000100011000101100000100
00111101111100000111111010010111
10111100110110011111111010001001
00111101000101111110001001001100
10111101100101011110101111001111
00111110001010100111111011110010
10111110011011000110111001111010
10111101101010001000101000101001
10111110010100000111111111110000
00111101111011110100111100001101
10111101101101000010110111110010
00111110000010011101000001010011
10111101100111111101010110001100
10111110000000001000100011111010
00111101000001110010111000011110
00111101011001001110011011010110
00111101010000110101111000111110
10111101111101100110101101101111
10111101101101001010000011011111
00111110000011010011000111111001
10111110000001100101100011010010
00111110000001100010110011011000
10111101101100111010000011011000
00111101011100001010100011100011
10111101110101111100101110101010
10111110000101000001001100100111
00111101111100110010011101100010
00111101010001010011100100011101
10111101010001001110111110101011
10111110000101011111000100010101
10111101101101010000100001011010
10111100110110111010000100011010
10111101111111011011000101010000
10111101111000011111011000101000
10111110001000010010100010001011
00111101100100010111010110101111
00111101000110011101101110110001
00111110000011000101111101011010
00111101110010001001001100101001
10111101010110010110110000010000
00111110000101010101100110101111
00111101101101100000110001111100
00111101110110010010110110111000
10111101100101010100000100101110
00111100101010000011011100000111
10111101110010101000011010011111
10111110000011010010010001111011
00111101100110111010100110011101
10111100100111111110110111110001
10111101111001000100010001010010
00111101110110101101000011000100
10111101101111010101100101111011
00111101101011111101000101110101
00111100111010001010001100110010
10111101010101000101110001010001
00111101011110110101000010011011
00111101110011111101011010110111
00111101110000100010001001101110
00111101101000100100110001001001
10111100100111000010010011000000
00111101010001111011101000111100
00111001110111101011010000000101
00111110000011100111110100100101
10111100010110010010100011100000
00111101011001000101001110010000
00111101010111110011101110011001
00111110000011100000111011101011
00111101100111100100110011110001
00111101110101010011001001000101
10111101010000001110101011000011
00111101100010001110100000010101
00111110000001000011010011101111
00111100100111011110010000100001
00111110000000010101001111101010
10111101000010000100000110011000
00111101000010111110011110100100
00111101111011000100100101110111
00111100111001011010000110000010
10111101010100111011011110011100
10111101101100001110000111101010
10111101111111100100111111000000
00111101100101000000011111100010
10111101100100011110110111110110
10111101100101011100111110011001
10111110000000111100001011001110
10111110000110110100100111001010
00111100010000100001111110011011
00111101101110101100010011000110
10111100101001000101000010111100
00111101111111001000011011110110
00111110000101111110101110001110
00111101101110000001111000011110
00111101110000100111001000111000
00111110000010100010000100111000
10111101110000000010001101111001
00111100101011111111011111110110
00111101010101100011101011010011
10111101110000000110011000010000
00111100110000111010000011011101
10111110000010011010000010010110
00111110000010011110011111110000
10111101010001100010111001110101
00111101100001100010010010001101
00111101011101010001000101100110
00111110001001111110110001111110
10111011001010111101111011110110
10111100100101100110111010111001
00111110001000010000011100010011
10111101100001001010011000010101
00111101001010000110110111101111
10111110000000110111100011011101
00111100000011000001111000000011
00111100110001000100111000000101
00111100110011000101001001010111
10111101100111010010011011110110
10111110000011001100001110010010
00111101100001110111111101100101
00111101100100110010001000000000
00111101101110010100001011000010
00111101001010110110000110101000
00111101100011111011000001010010
10111101000001111000111101101000
10111101000010010001000100110101
00111100111001000111011101100001
10111101111110110010101100001001
10111101001000011001001001011010
10111101011110101111011001010011
10111110000111001101001011001010
00111101111011110001001101110101
00111101101101100001110110101110
00111101111001111101000010111010
10111101110010101001000001110001
10111101001111100110100000100110
10111011101110000011011000100011
10111011101100010001000110011010
00111110000101000000111010011100
10111101011100000010110110010111
10111110001001101100000001010100
00111101001111000101000100100000
00111101111011000011001110101010
10111100110101111111010111100111
10111101011100101010000110010110
00111110000001000001010111010110
10111110010001001000100111110010
00111110001001011100010010010101
10111101101010010000011111100001
10111100110111100000110111001101
00111101111100001110100011100101
00111110000100111010111111110011
10111100110100000001111111001010
00111101101101001111011011001001
10111101101110101100100010001001
00111101011110011000000100111010
10111011110001111011110101000010
10111101011101110001011010101100
00111100101001000100011100111010
10111100011111010011110010010010
00111110001100001101000111100001
00111100111100111001101110100111
10111101110100001111100111100010
00111110000010111100010111110100
10111110000011001110110110000000
10111110011001001110100011101101
00111101011101011011101100101001
00111101110011110110010110001110
00111101000101011110101001101011
00111011011101100010111011011111
00111110000001100100100010111101
00111101011110101010000101000011
10111110001101111000001101110100
10111101001011001111001001011010
00111100111000101000000001011010
10111101010011101101110100101110
10111110000011011000111111001010
00111101110001001000100111010000
10111100110011110100111010000101
00111110000001011100100001001111
10111110000100011000101010101111
10111101011000001111101000100001
00111101111010000100010110001110
10111100110010110111001110100000
00111101111011000001110011000101
10111101100011101111000101011110
00111101100101111000001100001111
00111110000001100010011111001111
00111100011101101011111010010000
10111101111000101100100101100010
10111011100001101001111001000111
10111101010100110011010011010011
10111110010100001101111111111100
