10111100110011101101101111110110
00111100101010010101000011000100
10111100100000111000010001100011
00111100100010110000001011011101
00111011110111011100100001111111
00111101010000010111100110001001
00111101000011001111111101010000
00111100111110010111010011111010
00111100000111011111111000011000
00111101010000101010101011001101
00111101000011110011101110001101
10111101000100000110011110110110
00111011111111011110011000111001
10111011100000100110100010001001
00111100101001011101101011010101
10111011001100100100110000101000
00111100101101000111000101010101
10111011111010110101011110110100
00111101011111100011101101000100
00111100110000011001000010000001
00111100110101101101101111001010
00111100010111101101001001010010
10111011000001001000100110000010
00111100110101011001000101011010
00111101010110010001100001000100
10111101000010010111110100110010
00111100000101001110110000000000
10111100000100101100000101111101
00111100001011110010110100001111
10111101001100101111100000011111
10111011111001101110100011110101
10111100111111110110110011101110
10111101001110101000101010110000
10111101001001011000101000101111
00111101000101100010011110100100
10111101100000010100110001001101
10111100011011110100000010010000
00111101000001001011101110111100
00111101010000011011101101111111
10111100110110010000111101000101
00111011110101110000111101010011
00111101010011100100111000000111
10111010101110100010111001001001
00111100010010011101111010000000
00111101001100000001100110110101
10111101010101010110011010100001
00111100101000000101111111110001
10111100001111111110000101111011
00111001101001110101101011101101
00111011011010001100001110011011
10111101001000001101100000011100
00111011111100010000100010011000
10111011001101110000000110111011
00111100100101011000011010001000
00111101010000110011111110001101
00111100110110100110010111100001
10111101001111011100000100100011
10111101001000110101111010110011
10111101001101100110110011110101
00111100110011111011110001011100
00111101100100101010111011110001
00111101010001000111001001111100
10111011010000000010011011111010
10111100111101010100101010000001
00111100100001011100011000000101
00111101011110110011001100101000
00111010111011100001110101111000
10111101001000011000010100011110
00111101011101110111010101100010
00111100110000011010010111010110
00111101000100110100001111111000
10111101001010011110111111011000
00111001000001110100111010111000
10111101101110011000011000111001
00111100101111110011001111001111
10111100100010110101010101011011
10111101011010001011000101100111
00111101001100110000010010001011
00111011100101000100000101111101
00111101001010010101110011001101
10111001101100000101101010111101
00111101010111101000101110110011
00111101001011001000101000010100
00111011011101000011100011001001
10111100000111011101000100000011
10111100101101001000100101001000
10111100011010011100001011010101
00111100110001100111000010101001
00111011101010000000111110100011
00111101100110010111001001101100
00111011111111011011110110000011
10111101001011011111100010111001
10111101010011001111101101100100
00111100101110001010010011110010
00111011110001000100101010111100
00111010100111000011000100111011
10111100001000111100111001001000
10111101011101101100110000100000
10111101100111110111001001010101
10111100101110000001010100111100
00111101000011100001010111000011
00111101000110101101100000001010
10111100111110000010110101110100
10111100101111000110111100010001
00111100100010100100000101011010
00111100010101100101101011101010
00111100001010111111101111000010
00111011011111011001110000110011
00111101001111001111001001100111
10111011101010100010010000000001
00111100100001100110111110111100
00111100101001110010100110111010
00111101011100001100110110100001
00111100101000000010011001101110
10111101010010011100010101111010
00111100100011111110001001001010
10111101001101010001101000011000
10111100110101000010001110111100
00111101001001110111100111100011
00111101011001110101100111001001
10111101100001101010001010010010
10111101011111110110011010011101
10111011111010110101100100000000
00111100110110001111100001001011
10111101010101000000111001010110
10111100000111001100100110111110
10111100011110100111011111110110
00111100110011101011000000101000
10111101001000110100010010100010
10111101010111110110110000010111
00111100011001000100110101000001
00111100100101010001010101101011
00111100101110010101000110010100
00111011100110000101100001111111
00111100100010110001001111010010
10111101011011100110000001001001
10111101001001000001111100110101
10111101011111001110010101000100
10111100001000011000000011000001
00111100111000111111100100010100
10111101000011110111100011100011
00111101001011000101010010001011
10111100001011010100000111111101
00111101000000000110000011001000
10111001100000101111110111001000
00111101001101110111111110110100
00111101001110010001110101000000
00111100110001001000000111011011
00111011100101100010011101100001
00111100101000100000101001011110
00111101000110110111011101011011
10111100100000000000110100111101
00111100110010100100110101110000
00111101001101110110010001111100
10111101000001110100000010111111
00111011110101011010001110001001
10111100111000110000110100101101
10111100000010100011001010111010
00111011111110110110111001000110
10111100101000101000000101011010
00111100111001001011101101010010
10111101000110011110001001111001
00111100100111100011101110100001
10111101000111011101011111011110
00111100101001011010000000100000
00111100000111010000010001011110
10111100010010100010101101111101
10111100101001001000100100001000
00111101011011010000001100111110
10111100011000101000111000101011
00111011001010001000000101001110
00111011110010110100011111100000
00111101011101010000111110110100
10111100100001101111110000100000
00111100101100101010010010110111
00111100110100000010010100010110
10111100100100100011101100100111
00110111001011001010101001100110
00111011110101001000001101001001
00111101010100001100010010101110
00111101010100101110100101000000
00111101000010000111000011111001
10111100001101011110100110010101
10111100100010110011011000001010
00111011111111101000111001110010
10111100011000111100011101010010
00111011011111111011110011101000
00111101101001100100101111011001
00111101010000001100110000101000
00111011110011101111100011001110
00111101011101100110000110010110
00111101100100101101011110010110
00111101011010100111011000001001
10111011001100110011100010111011
10111011010011110011001110001000
10111010110000000011010010011110
10111100100000110101001011100101
10111101011110000001010001111111
00111100011001100110000011000000
10111100010000011100100101101110
10111101011011111001000100000001
00111001101000000000001111111001
10111101001111111001001101000100
10111100110100010101110101010000
10111101001101000010000101110100
10111101000000011010011000101001
10111101101010000111100001111100
10111101000010101000101011010001
00111101011000000001110011110111
10111100111011101000010101010110
10111100111110100001000100011010
00111101100010011101010010011011
10111101011000100000000011011110
00111101011011111100010101111111
10111011110010010010001110001110
00111100110001111111001111011111
00111100110110000111110100000011
10111100110111100011001000101010
00111101000001010111001111011101
00111100001101010111000101010000
10111101001000001111011100000001
00111100101001011010100010001110
00111011111000101001101001001001
00111100111101010001011110001001
00111011001011101101100011011001
10111100001110000111110101001000
10111100100011000011010011111010
00111100011011010110110010100110
00111011100101011111011100100010
10111101001011000100110111010001
10111100100100101001110100111001
00111100000011100110010111101100
00111101011001111001110100111001
10111101100001101101000100000101
00111101100010100111101001110011
00111100110100010010100101010110
10111100111001101100010110111001
10111101100101001110001111011000
10111101100101100011010111010001
10111101001011111000000111101100
00111011011100100000000001101101
10111101011010001011000010011110
10111101100010001000001111000110
10111101100110111110000010001011
10111100010111001100111100000101
10111101000000111110000000111010
10111101000110010111100101000110
10111101010110010100001000110100
10111100101111011000100000001100
00111010010100110001100000001010
00111100110111011101010100111110
00111100110000100101110001001010
00111011001110110101110110110000
00111101010011011010001011100000
00111101101100110101101111110011
00111101000010000111011101001111
10111011111101001101001010101111
00111100101111101111110100101111
10111100111110110110000010000100
10111101011001001111101111010100
00111101000101001100011111111011
00111011100110001001100000101011
00111100100111111100110011101001
00111101000000010110011010111001
10111100101011110011000010010100
10111101000000000110011100001100
00111011010111101100111110000111
00111010111100000110111011111100
10111011011110111000010100110111
10111100110111010111100100101100
10111100100001111101100010000011
00111101010001011000101100010110
00111101100000001001000100000010
10111100101010111011111010110100
00111101000000110101010000010000
10111100110010111010011010011101
00111101010001111100001101001000
00111100111101000011110011011001
10111011001001000110111000100110
00111100000000011011000100101001
00111100000000101111010100110001
10111101011011110100001110111010
00111101010111100110001111001001
10111100000000011010100000001011
10111011111110001100010101101011
00111100110100101000011001000100
10111101010101110001111110001110
00111011000010110110101111001100
10111100111111010001100001101100
10111100101110100010010011100010
00111101000101111110110001001000
00111101001011000000101101000100
10111100101001001100011100100110
10111101000101101100110001111010
00111011000000100100100001111110
00111101000101011111011111011011
10111101000100110000100010111110
10111100110110000110111101011100
10111011101111000001000111011010
10111010110100110010010101011010
10111011101011011011001000100001
10111100000111111101101000110100
10111010111110011000100110100011
00111101001101001101010001010001
00111100011100111100101110010010
10111011111011001110111010111001
00111101100111111001000100001110
00111101011001011001010110001011
00111100101011010100011110010000
00111100000010000011101011011110
10111100011100111110010111001000
10111100010001101111100111010001
00111011001010000110101011010000
00111100110011100101110100010100
10111101001000010100101001011100
00111100101100110100010010110110
00111101011100011111110011110101
00111100111111010001101000111101
00111100001110011000000111011000
00111101000001001010010010101100
00111100110100101100011000100011
10111100110011000101100001001010
10111100000111111011000010001001
00111100111101011111110001001011
10111100001011011000010111111010
10111101010010000101000100111010
00111011111001100001100010100110
10111100110101100001101110000010
00111100010010000000100111100111
10111100001000101110100000000100
10111011100110110101111000010001
00111101001101101110100101000111
00111101100110011100001111010001
10111100111010010011001101110011
10111100001010000100101001010000
00111101011011000010010001101011
00111100101111100110011000001101
00111010100110010101010011011010
00111000100010110110000011101001
10111100111010000111101011010011
00111101000110101010101111000100
00111100011101010000010001000000
10111100001010000001000000010001
10111100110001011111101001110010
10111101001010110000110110101101
10111101000011010001111111001110
00111011100101001010001111000001
10111101000100001001000110100101
00111101011111001010111010010101
00111011101000101101001011010100
10111011100011101100111010001110
00111100111000111000110110111101
00111101001011001110010001011111
00111100010010000011011110000110
10111100010000110000101000000011
00111100101011110110000001000101
10111100101101001110011000010100
10111100101011011111100110000001
00111101000010001111011000001111
10111100100001000000100010101010
00111100111100011001110010001001
10111100111001000101011001010010
00111101001111001110110110111000
10111011110111010001001000000111
00111011111000111100011010101001
00111101000011011101001010101110
00111011110111110011001000001101
00111100100000100001001011011111
10111011111000000011001111001000
00111100111100001101001110010111
10111011111001011111001110001001
10111101001011111010000011101001
00111101000010010100011110000111
00111101001100001000000110010101
10111100000000100001010011110001
00111101010011111101000111101000
00111100011101110001101110010111
00111101010101111101111001010100
10111101000001101110010010001000
10111011101111000111000010101101
10111100100001101101101001101100
00111101000010111001101100001011
10111010000000000001111101110010
10111101001001010110010000101111
10111011001111110010111100011010
10111101001000110000001110000100
00111100001100010010001100101101
00111100110010000001001010011110
00111011100100100101011111110110
00111100111000110011100110101110
10111101000101000111110011101000
10111101010100111010000001110010
00111010111101011011011110111110
10111101011001000011100101100111
00111100000101100001001111111010
00111011010011110110101010001101
10111100111101011110010110001101
00111100110010100110011111011100
10111101101101000010010101001001
10111100001011010101001110110110
00111101000011100010011000100100
10111100100101010101001101111000
00111100111011011011000000011011
00111100100111000010000111000111
00111100111110011000010010011000
10111100100100000100000101111010
10111101001110101010111001101001
10111101001010101000110100111111
10111101000000101000001010111000
10111101001011110000011100010000
00111011001101000011101101001011
00111101000101101111000001011111
10111011100010101010011010110100
00111100101010110011010110000110
00111011011110110100101111110101
00111101000111000111110111011001
10111101011110101010110111100100
00111101001101111010000111101101
10111100101001111101010010010000
10111100011101101111010010101111
10111011011110101000111010110010
00111011101111101100001111001001
10111100110100100000111100111000
10111100110001101001010001000000
00111011100110111001111000100111
10111011010101000111010100001101
00111101000111011010001110111110
10111100011101110101101110011100
10111101010111110000111101110100
00111100101110110101101000111000
10111100101011010010001111010101
10111101001111010101101111011000
10111011001010101010010111111101
10111100100100010000110011111001
00111101001110101011011111001010
00111011110010000010010101000010
00111101000111001011110101111101
00111100100101101100111001111010
00111011010001001010110001110110
00111101000000110101101101010111
10111101001001111100010001011101
10111100100101010000100011111001
10111101100000011010011111101010
10111100100000010110100001101001
00111011000110101111010011010111
00111100110111001001000110101101
00111101001111010010111100110000
10111100000111000010000101010111
00111100101001100100000000001100
10111101100010001001001010111001
10111100100111000111101001010011
00111100000000100110000111101010
00111100100000110110010101001110
00111011100101100101101100011110
10111100101001001011110111101000
10111010001101010111001101101001
10111011111011000011000111101111
00111100101010110110010001000011
00111100101101010010100101010101
00111011110101010011010111011011
10111101011100100100000101100110
10111101010011101111011001000010
00111101010111111011011010110111
10111101000100010011111001101101
10111101000011000000011000101111
00111100000100000000110110011111
00111100101001100011100110111101
10111100010001100000010100111011
10111101001101110001111011100101
10111100001111101110111100011000
10111011111100100011111001101111
00111100000010010110010001111001
00111101011100111011110011000001
10111101000010111011101110011001
10111100001000100101111010010100
00111101011101010111101101011101
00111011111100111100110100000111
10111011110000101010000110100000
10111101011001000110011110010011
10111100101001000010000100010101
10111100111010000010110110000100
00111100010110010010001110100101
10111100111001010010000110111000
10111100110111100101010110001101
00111101010001101111011000010010
10111101011101001010110001111001
00111100101001100001011111001011
00111101011010100100110110000111
00111100101101010101110001000010
10111100010011010010111000100001
10111101000101001101101001101111
10111101000011001011001000110000
00111101000111000111111101010010
00111001100110000001000110010001
00111100111110110010110010101101
00111100111000111011110100110101
00111101001011001101100000111011
10111101100011111001100101000001
00111100111110001001101100010111
00111011000010000000001100101000
00111100101101110111111101011011
00111101100001011000100001010101
00111101000110001100011101011000
10111100110010110001100100111111
10111101010111001000000011110110
10111011010011100010000010010100
10111100100010111111000110000000
00111101001100111110100010010110
00111101011110000110011111001101
00111101011010011111100010000100
10111100101010000011101010011001
10111010111010011111011111011110
10111100001010110010011101110111
10111100100001000001110011011001
00111101001111011110011001101111
00111101001001000001011110111100
10111011111101110101010001011011
10111011110001101001011101110100
00111101001101001100110101000100
00111101100110011101101001101100
00111100010000110111110010010100
00111100100000010010101011000000
10111011001010110000001111001101
00111011000000001101010011111010
00111101000010100010100010100011
00111100000001100100111101001011
00111100011111010111010010110110
00111011100001111111011011110100
10111011110111110000011110011110
00111011101111010001101110011011
00111101001010010001101011001100
00111101010100101001111010001011
00111100111010010110100000111100
00111011100100000001101011000100
00111100001110100010010100000111
00111100001100011011110000110000
10111101000011001111011001010101
10111100110000000110110001111110
10111100100110111110110011001100
00111100010101011010001000100110
00111100100000000100101000010110
10111101000001000010110001100110
00111100000110111000100101101011
10111011101110101101101001111011
10111100100000110100101100100111
10111100111100000100000110110110
10111100011100001110110001101001
00111100110010100001010011011110
00111100101001110010001011100011
10111100100010100010010010100100
10111011100001011110001101011110
00111011100010001000000110111100
00111011110010111001011011000100
00111100001101000101110111110001
00111100001101000100000100111001
00111011100101101100001110001001
00111101000100000111100101101000
00111100110111001011101010110011
10111100100000010001101101010101
10111101001011001000111100001001
00111100100010010001101001011100
00111100010101101100001100000100
00111100101110110100010110001000
00111100010111000001100100000110
00111100000101001001110011001011
10111101001111100100101101011101
10111011100100000100000111001111
10111101001011101100101101111111
00111101010101010011011011010010
00111011100111001001111011100101
10111100100111011101101001101110
00111100001100010111011101001000
10111100110000001101110111001001
10111101000101111101010101100000
10111100010011110101001000110101
00111100101011000110100111001000
10111100100110010100110000011011
00111100100101110011101100000000
10111011000100000000011111010100
00111010001111010110000101001101
10111100111111000100000000001100
00111101000100010111110100001001
00111101011011000011011101010010
10111100100100110011100001110011
00111100110011011001010001010110
00111101001100111001000100010111
00111100100011001000001101010101
00111010111000011011010111001000
00111100111001100000011011110000
00111011000000011011011010101100
10111100111110101010010100100100
00111100010000100101100001011100
00111100110001101011110101110101
10111011010001011101011111110000
00111101000110111011010100110101
10111101000111101001000110110111
00111101000000001100110000001100
00111100001011101101010110011000
10111011101100101011111101011111
10111100010101001101100100100001
00111101000000010111100110011001
00111101000000011010010010110111
00111100110000010011010000010110
00111101010001111101001001011001
00111101010000011110001000000110
00111000101010101101110100100100
10111100100010100011001011011100
10111100111110000000001111001000
10111100101101111100110000101101
00111101001011010000001011110100
00111011011011101111000010100001
00111100110000110111111011010101
10111101100010100010001111111001
10111101000101001101001110111011
10111100011100001111010000000010
10111101010001111101011000110110
00111100110010011111001100111011
00111101010011101101110001000001
10111101100000100111000110101110
00111100110010100101110000110011
00111100101011111001011101110011
00111100011110100101001101000011
00111010110100111001111000100010
10111101000100011010101011100100
00111101000111110001011010101101
00111100101110111001001010111101
00111011111001101110011100001100
00111101010111100010101111111101
00111101010101100011000001001001
10111100110001010111000101101010
10111011001011000100110010001011
10111100001001011001000011010100
00111100001100100111110111100101
10111101000101100101000111000011
10111011000111011100110101010011
10111100011011101010110010000000
10111100111001010011001100001100
10111100101110010100111000000110
10111100011100111111101101011110
00111101001101111000110111011110
00111100111110001110000101110111
10111100111101011111000011000101
00111100110000011000001011001111
10111011010011100000011001010001
00111100101000111110001100011001
00111101000011010000100010010110
10111101000001001000000110010100
00111101000101001000010001100001
00111101100011111101100111100010
10111100100101000100110000011100
10111100101000011000111101011100
00111101101001111000010110111011
10111101011010110101111001100000
10111101100101101000010010011011
00111100101100101101101010111010
10111100010110011110001011100010
10111101010110010010110110010111
10111100111010001101000100100000
00111100110001101110011000000011
00111100100110010010001101111011
00111100000001100100001010011111
00111101001011001010100010110011
10111100111110010000101011011110
00111101000110111010011110101111
00111101000001111001010110110001
00111011100011001010101001001000
00111100110010100110101110110101
00111100100011100011010000001010
00111101000000101001111111001011
00111101010010011011111000010010
00111011101010100101000111110010
00111011111100100000111001110100
10111101000001011000001101011001
00111011000100011101101010101111
00111100110011110111000110010111
00111100110111100111000110010001
00111101010010010011111100110100
10111100011011100111001001100000
00111011110111101010011110011010
10111100101101100100101010010000
00111100101000000111010101010100
00111100010100011111100010010000
10111101001011111100100110011010
10111011101101110100101100101010
00111100100010110111110101000101
10111100001101011110101100111111
00111101100001100100110010011110
10111101010111100101001001100011
00111011110111110010010010110111
10111100011000100001101010101010
00111100100010100101111010110000
00111100011000000010111000110100
10111101000110010000100101111101
00111100000000011001000101001111
10111100110011000100011001100010
10111101000110101100000100011111
10111010010010000011000011010101
00111101010011011111000100011100
10111100000111010101010001000100
00111100101110000111101000110001
10111101000110100110100101100110
00111010010001001001010100100101
00110111110001010011000100010000
10111101000101100100101101111111
00111011110001010010100101010001
00111101011111101001110111010000
00111100111010111010111111000101
10111101000101001101010001100111
00111101101000001010000010111100
00111101101001011100010001111011
00111101000101111001010010100111
00111101000111100010101010101101
00111100111000010110111000110110
00111101010110000011000000100011
00111101010111001100110101000110
10111100110011000111110100011100
10111100001101110110001000110001
10111011110100111100010000101110
00111100011011011100001011000001
10111100001011111010001100010110
10111100110000001000111101101111
10111101011000011000011001001011
00111100101001011001011011101111
10111100101001000110110101110110
00111100110111001100010111101010
10111100110110001100101010111111
00111101000100010111001111110110
00111101000011000000101011100100
00111101000110100100011010101001
10111100101101011001110000110110
10111101011010101101111110101111
00111011110000011100111010111101
10111100111100110110011100110010
00111100110110000100110101100000
00111100101100000001101110000110
00111011100000100001101001101010
10111011111011101011011101110001
00111011100001000111001101111001
00111100000100110101110000100011
00111100101000001111011001000000
10111101001110001110010100111110
00111100000100101010111101111111
10111100111100010111110100100001
10111100110101111111111000000011
10111100010011010011100100101000
00111100111111001011001001111100
10111101001011010001110001110110
10111011111100011100001111111010
10111101000011001001100010000001
00111100010111011110010100001110
10111100000101011101001010001110
10111100110111110110100100000101
00111101100111000100111011011000
00111100100110010110110011111100
10111101010011011101100101101000
00111101010101000001101110001100
10111100100101000111000111010010
10111100101101001100010111111101
10111100100001001101011101111011
00111100010011101111011011000111
00111100010010010010001111100101
00111100101111011011001000110100
10111011101100011001011001111101
10111011111000110001000111011010
00111101010000101010000100000001
00111100110100000010010001100010
10111011001111001000010010000010
00111100010011110011011010000010
00111100101100100110000000110011
00111100011100010111100000111101
00111100111000101111001011000110
10111100000001111111111011001110
00111101100101010010010110001001
00111101001111111100001001110010
10111101001101011101000101000110
00111100111010100010001100101011
00111101000101000110010111101101
00111100110001101100000010101111
00111101001101101100100100010110
00111101000011111001111111101100
10111101011001111111110000100101
10111100000110011011110110101001
10111101001010001001101010000110
10111100001110000001111000010111
10111010000110100000010000100110
00111100000110101110100100001110
00111101010100111110010101111001
00111100101111010111110111000101
00111101000011111000010100001101
00111101010010011100111000111001
00111100110101100101010000100110
10111011010101000111110001001010
00111100110101111111010100100110
00111101000011101000101010010010
00111101001001010100100111011001
00111100111110000111100111110010
00111101000010100011011011111110
00111101000011000001001011111010
00111100101011110101011010000011
00111100110010011000110010111101
00111011001010011111000110011110
10111100110011011011111100011101
00111101101101010011111111110110
00111101100011010110001011000001
00111100100011111011000111011111
10111011101111011001111010001010
00111101000011110000010111010000
10111101001110101100100011011110
10111011000100011110110010001001
10111100001100100111000101100101
10111101000010011100101100011011
00111011111110001101010011101110
00111100001101010010011111111101
00111101100101100110101011001110
10111100110011100001110100000010
10111100100010101010000100111100
00111101000001101001100001101011
10111100000000001100000000110000
10111101000010100000110011001101
00111100100000110011000100001001
10111100100011100010101100101111
00111101001001110111011100001001
00111101000100011100101010010011
00111011110001110100110001100010
00111100010110010110001101100101
00111100010001010001100101000000
00111101100000011001000011001110
00111101010000111110101101011010
10111100101101010000100110010100
00111100101001000001010110001101
00111101000110011000111110100000
10111100110000000110111101111001
00111010011101111110010100101001
00111101010110011101100011001011
10111010101010101111011110000110
00111101100000000110011010110111
10111101000110100001101001000100
00111100110001111100111000100000
00111100101000010111110001000101
10111100010101110101010111010111
00111100101001011111101011001101
10111100100000101101011101000001
00111100101000001111000110100110
00111011010111011100101010101011
10111100111110100101000100101010
10111011110110001101110000001101
00111100100111100001001101111100
10111100000011001110110010001000
00111010111101110000110001011001
10111101001001010100000110010010
10111101000111001011011110001110
00111101000011010101111101000000
00111101010100000011101110100101
10111011110101101101111111100110
10111100101100101111001010011100
10111101001111111011110011101000
10111101010000001011101100100010
10111100110001000110000101110100
10111100001011011101010000111000
00111010110101110101111110110100
10111100010110001011111101001010
10111101010101001000011101100101
10111101001111000101101010100011
00111100100011101110111100110001
10111100101000001011100001000111
00111011101000111011001101001010
00111100101001010110010101010110
10111011110100011100110011111000
00111100100010001101110111000110
10111100001001011111011000000010
00111101011000101111000100101101
00111101000011111001001110000110
10111101000011110000010011111000
10111100110101100010000001111100
10111010001110000000100110100000
10111100101010011110001000000010
00111100111101110101111111111011
00111101000100001000111000011001
10111100101011100010010100100001
10111100111010000001110010100101
00111101000011110110101111111110
00111101000100101111001000011110
10111010100110110110101111011101
00111101101001001000000011100011
00111010010110010111101111101100
10111100111110101011110110101000
10111101001111000100110001000011
00111100111110011101100110010000
10111100101100110101000011011110
00111100010001011010111011000011
00111100101000011101001100011101
00111101001101000100110000010010
10111001011100101001100101001111
10111101001011101101011110110001
00111101011011010000111111101100
10111100111100000110000011001000
00111101100001010010110110101011
10111100011101010011111001001011
00111001000001101001100001101000
00111101001011011100100111100001
00111101001111010110010001011101
00111100001111000101000000100000
10111100100001110000100100101100
10111100101000000010011100010101
10111101001111110110000100101111
10111011011100010000110100000111
00111100101110000111001100001100
00111101001101000110000101010111
00111011100001101110000010111011
10111011100110111000011110011000
10111101110010110001110000110100
10111101001100101110000000011100
10111101100111011001010101010001
10111100011100100011101110110101
10111101100100100011001001000001
10111101011010011110101001011010
10111100010111110000011001100111
10111101100100011000011010101001
10111100110000000000100110101111
00111100111000100000110111110101
10111100111101110111011010100101
00111100010100010001101010011101
00111100110010100111011100100000
00111100010111111001111010000100
00111010000001000011100110101100
10111010100010100111111001101000
00111100010011011010111110111010
10111101100001100111001100101010
10111101101010010011101111001001
10111101010011100101010111100110
10111101000111110111001111011100
10111101000111000110011011110100
10111010010001001111001110101010
10111100110000111010010001110001
10111101100100100001000011101101
10111100100010010010100110001101
10111100100101010101000110011001
00111100101001111000000101110000
00111101110001011100010111110100
00111100010001110010000000100101
10111100000010000010100100010010
10111100011001111110010010110001
00111100011100000110010100101110
00111100001111001110110110001101
00111101000100011101000110000110
10111101001110000111111110000100
10111101010000010111010110111110
10111011010101000100010100010100
10111101001001000101101110011011
00111101000011000001011011011000
00111100111110011110011111110000
00111100010100011101111111010110
10111101001110011100000000011000
10111100111001010110011110000000
00111101010101100100000011111001
00111100110101011001010110000001
00111101101001000111101100010110
10111100010001001100011111011000
00111101010101010101111111110110
00111100101100011111001111101000
00111101010010101011010000100110
00111100101101011000010101010000
10111100110011110000001000011101
10111100011100001000001111011010
00111101100010011000111001001111
00111100010100100110011110011000
00111011011010111001111100110000
00111100010101010111100111011010
00111011110011110011011100000101
00111101010011010100001010011010
00111100100110111000010000000001
10111100001111100100110110110110
00111100111011000001101101110001
00111100101110100110001010101011
10111100100000011111001100011011
00111101100100001010001000000010
00111100111011001011111111011011
10111100100011101000100110001000
00111011110000101001100100011111
10111100111101101110010010000110
00111100100000010110101100110100
00111100000110100100011001001111
00111010110010111100000010100001
00111100011001000000111100000011
00111101010011110010000100010010
00111101010100100110100110101010
00111100101110001110110111001001
00111100111011100101011000110010
00111101010011010111111010110010
00111101011100111100101101100111
10111100110110100101010101010011
00111101010101101001000100101110
10111100010110100111100001100101
00111101010010111100010011111111
10111101010111000101111111111101
10111101000110100000010011010111
00111100011111101101101111001100
00111101000111001100100100001100
10111100001000100000100010111011
00111101010000111010010010000111
00111101000111000000111101110100
00111100010001001100010101101000
10111100110010001101101000110001
10111100111001000111100011010100
00111101010101011110100111000001
10111101000001011001010000100011
10111101001001100111000010011000
00111101001011001001010111111100
10111100100100100100010010110111
10111100101011101000010111111111
10111100110011011111101001011010
00111101100001101110110110010100
00111100111000000011101010010100
00111011010011010111110010110010
00111011010011000101100110001010
00111011101011110010010100000100
10111100000010100000001111001000
00111101000110001000010110011011
10111101000010000011010000000100
10111101001110111111100100111011
00111100101000010010110111001000
10111100010110011100100001001001
00111101010000100000001100111111
00111101010011110010011001000111
10111100000101010110000001001010
10111101000011100001111101111110
00111100101000100111111010101111
00111100001111100000100111001010
10111101100010101000011000100111
10111101000011111100110001001001
10111010011001111110010011101010
00111100110010101010001001001011
00111100110000100011010010000101
10111100100000000010000110101100
00111100100111100011111011110111
10111101000000000001100001111110
00111100101111000100001000001010
00111101100101101011111001101000
00111101000101010111010010101011
10111011010111101100011001101111
00111100111110010000011110011011
00111100011101011011111010100001
00111100100011101000100011001001
10111101000010110100000000110110
10111010100000100110010110101001
10111010101110101010010110011101
10111100011000000000100010010100
10111100111011100111001000111101
10111011110111100010011000000101
10111101000101111110100111010111
10111011110011101101001100110011
00111010100111111000110000010001
10111100010010110000001100001111
00111100101101001011011101101000
10111100100011100010101111100001
10111101000011000100011011100110
00111010000010000000011001001001
00111100110111111111100111000001
00111011000001100011111101010111
00111101001110110100101111000011
00111010101100011000011111011001
00111011101000101000010100011011
10111101001100111110110011011111
00111100010000010110000100101010
10111100000001010010011010111111
00111100001101101111100111111111
10111101011001011111010100001111
00111101011101100011011001111100
10111011101001100001001001001111
10111101000100111010000011010111
10111010001100011010000000010000
00111101100011100111011011111001
10111100100111100101000001110000
00111101000000001111100010110001
00111011111010011101101000010011
00111100110010000001011010000110
00111100011011101001011101111011
00111100101001011010110011011000
10111101010100000111111111100110
00111101000110110010100001011000
00111100111011110101100011010111
00111011100111111001111000101111
10111011100101010000000011110011
00111100000010000100110101111000
00111101011100110000110111000110
00111100100100000101001101001011
10111011101101111000000010110011
00111101001100010000110110010100
00111100111010100111011010010010
10111011101001111111011000010111
00111101100011010100010100000111
00111100110110100000010001001010
10111101001011010001110100011010
00111101000011010001000000001101
10111101000010001101000110011011
00111100110101000100000010011000
00111011011111101000110110010110
10111101010110010001011011110001
00111101010000010111101100001101
10111011010000101100111111011011
00111100110001111110000100101001
00111100110011011010110100111100
00111101010001010000111001010010
10111100000001010000110001111100
00111101000101110010111010101110
00111100111000111101110100001100
10111101000111101010000011000101
10111100100100100111010110001001
00111100111111010110110110101100
00111101000111110100000000111011
00111101000000111111011100101110
00111101000001111111101000011100
00111101001010111110000111001101
10111011001010110001100110011001
10111011010001100000111001100000
10111011110100011000111011000101
10111100110011101100111111001111
10111100101110111001010010000110
00111101010001011100001000011111
10111101001011010001000110001001
10111000101011101100101110111101
00111101010111011101000110000011
10111100001110100000000110001110
00111100100001001101101001000111
00111100001001101111110000001100
10111100101110111101010001100001
10111101000110001001101001100110
00111100100001100000110011000011
10111100000111011001100001011001
00111010110011110010100110001000
00111101001111001100010100001010
00111101001010100101101000001100
10111100000100011101000011010110
10111100111000110101111110001101
00111011110001110110000000000111
10111100000001101000010000111110
10111100100001101000101100100101
10111011010001001111101101011101
00111100110110110001001101111010
10111100101001010001001010101100
10111100111101101110100010111101
10111100110001111100101000011110
00111100110001011010001110011111
00111101010010011101010100100010
10111101000101111000100100110100
00111010100010100111111100111000
10111011110000111001011011101010
00111100000000110111111000000100
10111100001001001100010001101001
00111101001011010100011010000010
00111100010111110101111111011011
00111101001111110110100001011101
00111100001100100100100100110100
00111100101101110111011111001011
10111101000110100111110010100001
00111101010111000101101101010011
00111101000000011010000110011010
00111011001000011000000111001000
10111100001110101111101011010100
00111101000111011110101010111001
00111101001111010001010101011101
10111011011111110100101011111011
00111100110010100010010000111101
10111100100101111001011111001011
00111010000001100110001100110101
00111011111110010011101100011001
10111101000100000001110110110110
10111100101111101110010111101111
10111101011000101100001101001010
10111101011001010110011101110110
00111101011010101010010100111001
10111100000001000000010000010000
00111100000101111010111110011100
10111101000011000011011110110100
00111101100000001111110101001010
10111100010111111011110101111001
00111101001000011000000100100011
10111100110010111110101000001110
10111100001010011011100001100010
10111100100110110101001000001000
10111101000111010111000100111001
10111101010111011001100011000001
10111010001101000011111001110011
10111101010011110110111011101100
10111101011001000100000100100011
10111100110000011010101101100101
10111100001000111010101010001101
00111100011000101011110101101000
00111100000100011101100010111001
00111101010011000001101110001101
10111100000000100011010000010011
10111101000001001100110001100110
00111101001100111011111011000110
00111100111010110110110001101111
10111010001111111000110111111010
00111100001000000100111000100001
00111100101111001100100001011101
10111100100110000001111100011000
00111100000010111100111101101111
10111100011001101010011101011001
00111101000111010011110001101001
10111101001001011000001010011010
10111011100111000010111000000011
00111101000110000100000001100000
10111101000011000011011011011111
10111100110001110011010101111100
00111101011001101001000110100001
00111101001000111111001000111111
00111011100111101001100101110110
00111101100010111011101110010110
10111100000010111000101100011100
10111101000110110101001110101011
00111100101111000011111110001010
10111101000010000101111001000001
00111101001010011010010000010111
10111011001000111000001001001011
00111101011111100001001100111111
00111101011111001001000010111010
00111101001010101001101100001111
00111011101001001001100111111001
00111100110110111100001010100100
10111100110001010111110100001110
10111101010111000101011000111010
00111101001010010100000110010000
10111100111000011101010011011010
10111101101001010100111010011100
00111101001010011101101001001111
00111100010011111001111110001111
10111101000001011011111000001010
10111101100101001110001100101001
10111101000101111000111101011101
00111011001010100111001000000000
10111100100001000111001010011011
10111100101100010110111100010111
00111101000110001011101111011101
00111101001011011100001110000000
10111100101010011010101101100101
00111101100011000011100001000111
10111100001110100010001010000110
10111100001100010100100001001001
00111101010001110001000111010100
10111100000100010000010010100000
10111100001111000101100001110101
10111101000111101101100011110010
10111011000100110111101001101001
10111011100110010110110011000011
10111100100011111000110100001011
00111100011011011100001000010001
10111100011110110011011001100000
00111100111100010101100011001011
10111100111010011110001101101110
10111100010000111110011101100011
00111101001111110001001111000000
00111101010100101001100001000010
00111100110000000110000111111000
00111101001010010111010110011100
00111100001010100110100101000110
10111101001101010000000000011110
00111100001011111100110000011001
00111100101000100001110101010010
10111100000001111110101101100010
10111101001100111000010001001001
10111100101000010011101110110001
00111100111001010000100111101100
00111001100000111110001010111111
10111101011001110111000001010011
10111101011111111001010001001010
00111100010110010101101000000010
10111100011100100001001101110010
00111101000111010101111111100100
10111100101100010111100000010101
10111100100110001100111010000100
00111011101010110100011100011111
00111101011010111100110010101001
00111101100101101100100011101001
00111011011111010000110010010111
00111101010011010011111101011000
00111011100011101010000000111101
00111101001011110000110110110101
10111101001010011010110001010100
10111100000010101100101000010000
00111100100101011000001111001001
10111101000011011110000010100111
00111100101111011011000000000011
00111101010011111110110010101011
10111101011011011001101001111101
10111100011010100001111000100010
10111101000011110101100001100110
10111100000000110010100101100100
00111100101011011001001001100100
00111011000010111011101110100111
10111011011111010010001011010010
10111101011101110001110001001101
00111011111111101100000010010101
00111101010100111110001110011110
10111101010011100000110101110011
10111101000111111001000001001100
00111101001001111100111011101101
00111100110011010001100100010011
10111100011011101111101101100100
10111100100001010000111101101110
00111100001010110100001100111101
00111100101010111111010100000110
10111100100100110110101101111010
00111011101000101000101101001000
00111101001011010101001100100011
00111101001000000101101110110101
00111011100110001110010101011111
00111101100010101010011010010100
00111100001110011001010010111100
00111011010000110110001001011001
10111100001011101010101100101110
00111101000000111111000111000001
10111011001010010011001110001100
10111100110101111100110100011011
10111100101101100101010110110000
00111100111010111010100011000001
00111101011110111101100000111101
10111100101101000010111001001001
00111101001111000010001001110100
00111100000011000010010111011011
00111100111010011101010101001110
00111100101111011011111101100100
00111011001001101101110111100000
10111101000010110110000100000101
10111101100010111100000110111111
10111100110101001001010111011000
10111011111110011001001000110100
10111101000100011110111010010011
00111100111110011000011110110111
10111101000010001011101100110111
10111100100110001001110110100010
00111100110001111010011100011001
00111100101000000010101101010000
00111100111101101001010100001000
00111101010010100110101100110100
10111100100000111011100100000111
00111100000100110110100011100111
10111011100111001000110101001011
10111101000111011010001000111101
10111101010100001100100011100001
10111101001010100100101111000111
10111101010001001111001011101001
10111011101111100000001111011110
10111001001110100111111111110000
10111101001011101000011000111010
10111010010110110101011010101110
00111100010100101111110100111011
00111101011010010011001010001111
10111100000111001001010000001001
10111101010011010101111010100000
00111010101001010101011110010000
00111101001001110010011110001101
00111101001110011001000010110110
00111100101111010000110010101100
10111011011101111010001111001000
10111100100000101110011011011011
00111100111100000101000100111111
00111101000101011001011001100110
10111100101100100000110010000101
10111101000111101010011011000101
10111100101010000010000011111110
00111101001000111110101100011111
00111100110011110010001000011110
00111101001010010010110111010111
10111100101101011000011110011010
10111011011110011001101011101010
00111100111011101110010010000100
10111100110001000111000100000000
00111011111011000101000101110101
10111100101001101100011011010011
10111101011010100100100001100111
00111100111110001010010000010110
10111011100110100011110111011000
00111100110010111000010010000000
10111100100001001111111110001110
10111101000000101100110101111001
10111101001110001001101110010111
10111011110100011000010111010101
00111101110001111110000001100100
00111100111101011011010101110110
00111101000010001010010000011010
00111101100000011110110111100111
00111100100011111100011010101011
00111101100000110011101101101100
00111101000001011011100110001010
10111101001110100001101110010100
00111100101100111110001100100010
00111101011111010011010111100010
10111100110011111101101011100101
00111101010111010000010000000010
10111011101010000110110100100111
10111100011010110000010111011011
00111101001100011001000011101011
10111100011110010101000110001011
00111101011110111111001111110100
10111011000000000000011001101100
10111101001111010100100011011100
10111101001111111101001011000100
10111100001000000010110100001001
00111011111010111011111010100001
10111100101110010000001111000110
00111101010101100000011101011110
10111100010001010110010000001001
10111100110001101111100110111010
10111100100110101001000110000111
00111101001110111000010100110010
00111101011101001111000101110000
10111101000011100001010001111111
00111011111001110011100010010110
10111101011001110010101111111110
00111100001100011010011001011010
00111101000110101010001110000110
10111101001000101001010101110100
00111101000011101000100110001100
00111100010110001001000001011000
00111010000110011001110100101111
10111100010000111000011010100101
00111100111001000100001000101111
00111100001010000110001100010101
00111101101100100001101110101001
00111100101111111111111111011110
00111100011000110100010110111101
00111100001000101101011001010010
10111011101111011101001000100001
10111011111101010000001101111011
00111010111101110011010010010111
10111001101110000100111011100001
10111100110111100100001000011101
10111100100101110100001001101001
00111100010101100011100100001110
10111101010010111111110000000011
00111101001001000110111011000101
00111100101110111011111110001110
00111100110000001111101111000111
00111100010001001010111110011101
00111100000000011000111100010000
10111100110000001001111101011111
00111100100111100010010000010010
10111100100010101010101010001111
00111100001100010001110001011111
10111100011110101111011001011001
00111011011010101111010100111100
00111100111110110110000110101111
00111001100111001111011011101100
00111100101110100000011010010100
00111100011100110011101111001110
10111100111101000010110101111010
00111101001110010100000110101010
00111100100001001011110100001010
00111010100111011001011110010101
00111101001000000000001101111101
00111011110011111011101010011000
00111101001110110011111111000001
10111010111110101111101010011110
10111101000100001010110001110000
10111101001100111000001101000000
10111100101111010100001010001110
00111100110100000101001110111001
00111100001111000010010010110000
10111100100101101011001001000101
00111100011101101000111001011011
00111011110000100100110111110101
00111101000100000111001110001101
10111100111111101010110100000001
10111101001001101111011000011011
00111101000001001101110001111101
00111001110000100110011111101101
00111101011000101100110000010001
10111011000001111011101110000101
00111011011110001111010100001011
10111101011101000100111110110101
00111101010101011101001110110101
10111100000110101010011001001111
10111101000011111000101011111001
00111100110110100011011000011110
00111110000011001110111111000100
00111101001011100001000001000010
10111101011001010100010100001000
00111101000010110001000011010011
10111101101001000101100100111001
10111101100000000100000111100100
00111101100111010100001101100011
10111101011100000000010110110010
00111100111000010110011010110010
00111100110101100000100101011000
10111100111000110101011100101101
10111011111110111011000100000101
10111101000011111101100000000011
10111101000001111101100001010011
10111100010100001110011011010101
10111100100010111111110100000111
10111101010000000011100010010111
10111100110001011001001010100010
00111101101011001010010001111110
00111101101110010000011010000001
00111011000100100110101111011100
00111100101000011111010100111111
00111100000011110001001111111000
00111101001001100011101111100101
00111011100100011000010100101000
10111011111101011111001010110110
00111101001011111100011010010111
00111100100111101101011000010101
10111100011111001010001010000010
10111100101010111010100111100011
00111101010011100100010111000010
00111101001001100001000100010001
00111101001011100010111110001111
00111100011110101001101010010010
00111101000011000111110010010110
00111101010110000010001010010010
00111101001110111011111001110101
00111101101000010001110110110101
00111101111110101100100100111111
00111101001101011110111110010101
00111100011011101101100101111001
00111100000001011101001100011000
10111100100000011011010010110001
10111100100101111011000111101110
10111100100010111100111110110000
10111100001100001001101100110001
10111100111000011001011100111000
10111100110011111111100111100010
00111100110010101100110010011010
10111101010101111101001100000111
00111010100000101010110100101100
00111101010011110011010100011110
10111101000010000110001110000000
10111100000010110000011011010111
10111101011101001010011110111111
10111101001111001000001001101011
10111101010111100110111111100101
10111100110000111001101101011110
00111100100000110010111111011001
00111100010110101001111100001100
00111101001001010111011101000010
10111100000010101010110011111000
10111100101111101111111001101100
10111101011101011110011001101111
10111101100001011000011000011001
10111100010100111100000000010010
10111010100011001000011111000000
10111101001011010111110110100011
10111101000100001011111100011010
10111101000110001110011110111100
10111100100011000011001001001010
10111011011111110000111010011111
00111011101010000111110001101010
00111100100110100010101101000110
10111100100000110000100101011100
00111011111101100011100000000000
00111100111000000100010010001101
10111100000110011010100010011001
00111011100010011111101110110011
00111101001101000000010011000111
00111100100101100100010001110010
00111101101110110010110101011110
10111100100011101000001101000100
00111101100010111101010010101000
00111101100010100000010000011101
00111100111001111010000000100100
00111100001010000101110110010100
00111100111001011101111110101100
00111100011011100011110001000100
00111100110100110111001111011100
10111100011000000000101000110111
10111100010001110010011110011010
10111100110001100100101111011011
00111100000000111001100111111100
00111100100000011111011111110001
10111100110111010001010011111000
00111101010000000101110010100001
10111100100101011010000100010101
10111011011000001010101000011100
10111100101010100101011001001010
00111101000011011111100010100000
00111101000001110111101101010110
00111100101010111010100000110110
10111011001001111001111011100010
00111101010010100100010000110010
00111100010001111001101001111010
10111100110101111010010101011100
10111101011010011011001110110000
10111100010110110011011100001111
00111011111110000100100001000001
00111100011110101111111111110010
10111101000011011110010010110000
10111101000100000110010011110101
00111101100000011011010110011010
10111101100101110100100100011110
10111101011010100010110011010101
00111101000101011001100011101101
00111101100111100011100101100001
00111100111110001111111001100000
00111100001010001000111111010011
00111011111001000100111010110100
00111101100000001100110101010000
10111100101011101111000110001000
00111101000011100010010101011011
00111100111000111010001010101011
10111010101011000000101001111011
10111100010011011101010101010000
10111101001100100111110011001010
10111100101111011010111110101001
00111101011100000101010101001100
00111100101111000101100111000111
10111100110010000010001101110001
00111010111111000110001111011111
00111100110010000011000100101100
10111101100011001011101011100001
00111011101101000101111011100101
10111101001010001000011100100101
00111100110101010110001001110000
10111101010010101110111001110001
10111011110111100101001100100111
10111100111011110111010111101011
00111011110000001011101100010001
00111101001010111100110111010011
10111011010011110011000001110111
10111100110101001101001100011001
10111100010111010100000001100100
10111101011100000001100110110101
10111100010110001101010111011010
10111100110000001010010001000001
10111101001110010011101010001000
10111101001101101110110000000101
00111101000110111011101100001010
00111100110100100100001101000000
10111100110110100101101101011111
10111101000110011011111011000101
10111101100010001110110011110111
00111100101100100011010100110001
00111101010000101101010011111110
10111101100010011111110101101001
10111011110000100101110010111011
00111100111101111000010011100100
00111100100111100011110100100100
00111100011100111111111000101111
00111011111011101001111110101111
00111011001100101010000001010100
00111010100101110010010111110000
00111011111000101000111101111111
10111001100010101110110101100011
10111010010101110010010010011100
10111001011100000111110110100111
10111101001011111011111000100000
10111101000101001100101001101010
00111100011111001111000010011000
10111100100001000100000111110101
00111011101101111011010111100011
00111100000000000110011110100001
10111100010001101100000011001111
00111100101001100110101100101101
00111100100011110001111101001010
10111100101100111000111101100001
00111100011010101111110110111111
10111100100011110100100100101011
00111100111000101000111011110000
00111100100010010101100111110011
00111011100110100101111001111010
00111101001001110101011001011001
10111100011010110011100011101110
00111101001011110010111101111011
00111100110010011101010001001101
10111100011110000100011110110100
10111011100101100001100101111011
10111100100100011110000101011000
10111101010111011001001010101100
00111011100010111011100100000010
10111100110001111011001111011100
10111100101000110011010110010000
00111011110000110101011100010100
00111101000110110010100101010011
10111100101000100010010001010111
00111101011101011101110110001001
00111100101110101110101000101111
10111100110001111111000100000110
10111101000101101110100010100000
00111100111011000010111101001010
10111000011110011001010010100010
10111101000111001100001001101001
00111101000000000010101110101101
10111011000001000101011010111000
10111011011111000101111100000111
00111011010010100001110100101000
00111100101001011010100011010000
00111100011010110110101010010010
00111100100011100111111111001001
10111100111001001001011111110011
10111001011001001010011101111100
10111101011000010101010000000100
10111101000001110110011010110011
10111101000000100010011011001011
00111101100000100110110011110101
00111100011100001001001011000000
00111100101100001010011100101000
10111101010010101111100110110110
00111101100010000011001001100101
10111011010110000101001001110001
00111010101000010011001000011110
10111101001110001100011010101001
10111101011010101011010111000011
00111001111010011101001100000010
10111011010100111101110100011101
10111101000110110101010110001010
10111101100011100111011010111101
00111100110110000111000110000100
10111100000100011011011110001100
10111101001111101001100000100001
00111010101100001101001000101000
10111011110011001111001010101100
10111100111000100011100111100010
00111100101010010010100011110011
00111100000001000101011100001110
10111100110100010010101000111100
10111100101101011010010000000101
10111100010110001001110111010010
00111100011011101100011111110010
10111100000000110101010001011110
10111101001010010011000001010110
00111101000110011000101011101000
10111100111100101111101101110111
00111100000001110010000011101001
00111011111011011100000001111101
00111011111000111110110000010010
00111011110000110001011010101100
00111100010101100101011011000011
00111100000101110100111010000001
00111100110000001010010110000010
10111100100110011100110010110100
00111100101111111110001010110010
10111100100110010011011110000101
10111101100010110111000011010010
00111100010100111101110100111111
00111100011111010110100110010101
00111011110001110010110110000100
00111100100010010000110010110110
00111100000010000111111101010111
10111101000000010101101011110101
00111101100110110010110001100101
00111100000011000010101100000111
10111100101101101101110100001011
00111100100001000010011110101111
00111100011110001011100101010100
10111101011100011000000010010101
00111100110111111110101101101001
00111100111111111110110011101111
10111101001110011001110111001101
00111100111101010111011000001010
10111010110100110000011010100100
00111100010101110101101111001001
00111101011110101000011101000100
00111100100000010011001010001000
10111011011100100000110111101001
10111100110011100111010101100010
00111100100101100001111111001101
00111011000110001111110011110110
00111100101010000100011111110100
00111100110000001011110101010111
00111100001010001101100010000000
10111011000010110000100100100101
00111101010001101111110000101111
00111101000000010100101110010111
00111101000000011101111000100011
10111100111011000000101010001111
00111101000000011010010001111001
10111100100101111010001000100000
00111011110111011110011001111010
10111100111110011101100001000010
10111101010001010110110111000000
10111011010101100011110001001010
00111100000101111111100000110101
10111011000001001011011101000100
00111000111000110101000001111101
00111101010101001000000001001110
00111100010011000000010101011010
10111100000111000110101101000000
10111101001011010101000011110100
00111100100101100111110100100101
00111100101001000010110110010111
10111100101000101010110001100101
00111100110100000100111100110000
00111101010010010100110010101010
10111101000111110011100100001000
00111011000110110010100101100110
10111011100001001111111000011100
00111101011101010000011011000001
10111100101111111010011010100011
10111011100110101000100110101000
10111100000110010111001011001110
00111010010101100111000011100110
00111100000101101011010011010101
00111100101000001011100100100111
10111011110000100000001001111000
00111100010010111000110111001010
00111100011101000110000010000011
00111101001100110111001100111110
00111100110000010000110000110011
00111100110100000010010111100010
10111100100101110000001000001000
10111100111011101000100110010110
10111011100000000001001111000100
10111100011110111011100000101011
00111101000000010110101001001000
10111101001101101001101001110011
00111100101011010101011001011011
00111100101011010000100111010011
00111100111111011111011011010100
00111101100111001000100111000100
10111100101100100111101111110100
00111011111111010010000000011000
00111101001100111011101011111001
10111100010000010001110011100010
00111101100001100011001101011110
00111101100110001001110111110101
10111011101101110100001001111110
00111100000010101000000011100001
00111100111010101100111010110000
00111100110110100011110000111111
00111101001011010101100001101110
00111001010111111111111000110101
10111010001111011101011101001100
00111100111011110010000001000110
10111100101010111100010101000100
00111101000000111101110010000001
00111100011010011010001011001000
00111001100100001001000011010101
10111100110011100111010110010011
00111011001101010011111000010111
00111101001010110000101100000011
00111101001100001111100011100101
10111011001111000110011110100001
00111100011101110111100101001100
10111100111000111010101101100111
00111011111111001111011111101110
00111101010011100011110010011010
00111101011001001110111010001010
10111011101111100110000000100110
00111101001001100111010101101101
00111011111010000111000011101011
00111101101000001100010011001111
00111011100000111100001011110110
10111011010101000110001100100010
00111100111010101001100010111101
10111100100011100011011010101010
10111101000110100111101011001011
10111101011000111001000100101010
00111101010101001011111101111110
00111100100000111000001110010001
10111101000000001011110010100111
00111101010110010000100011000100
00111101001001001100000101000001
10111101000110011011010001000010
00111101011001011010001110010100
10111011101000100101011111001001
10111100111100110111111010001101
00111011101110011101011100111100
00111100101100000100010010101001
00111100100010011110000101000111
00111100101110000010111001100010
00111011001100101100000001100001
00111100010101001001110001101000
00111100111000110001001011110101
00111010000000001011000010011011
10111100000111100101010101110110
00111101010011000111000101100110
00111100110100111001010000010001
10111011110000101101000101000000
00111100011010010010100011110100
10111011100011001010101111010001
00111101100110010101011000000101
10111100100011101001100110000000
10111100101100101101101100001001
00111011100010100111000111010111
00111100111111011001001001110010
10111101000111101001011101110111
00111100000101110010100000111101
00111100100110110001111111001111
10111100111111011100110000001000
10111010111000001011111111011110
00111101011011110010110100001001
00111101000111111001101110100010
10111011010110000100110100111111
10111100100110110011010111101011
00111101000100011011110011101001
00111101000011011101000110101101
00111100101000101010111101110011
00111100101011001011101010101000
00111100110001010001111110111100
00111101001011000111111101000100
10111100110110111111010011011101
00111101001111000101010000101101
00111100100001011100010100000100
00111100010001110000101000111001
00111011001101011011100100010101
00111101000011111101011111010100
00111101000000111000100010011101
10111100101011001010000111000110
00111100011000011101011011100011
00111100111010101111100110011111
10111100110000100100001110111010
00111100011000000111011000001100
10111011111001000111101100011000
00111011101001010110000101101001
00111100101110111111001111011011
00111101000111000010011101100010
00111100101110101100011000010011
00111100010011110100101000111101
00111101000111011010001101000011
00111011011011011110011001010101
00111100100000001011100000001011
10111100010111011101011000100110
00111101010111111011100001011011
00111100110101010001010000011011
00111010100000010111011010010101
00111011101100001010111111111001
00111101010001000001001000001111
00111100001011101101000101101111
10111100110110011110111110111100
00111101010111111010001110011010
10111100111000001100011010011011
10111101010010101010000001011110
10111100111011111111011010011100
00111101100010110111011010010110
00111011111000110101000111111111
10111011100101000011000100110101
10111011110000101101101011111100
00111101000000000011101000101101
10111011100001000011011001000100
10111101000011011000011001111010
10111101011100100110101110011101
00111100001110000111001010001111
00111100111111000001100010000111
00111011110001101100001111111000
10111100110110101001110001011100
00111101001010100000101100100001
00111011101011111100000111011011
10111101000010101100011000001100
00111101001001000000100100110110
10111100011011010100100100110010
10111011000000111000111000101010
10111100001011100111110000010110
00111101001111111111000111100010
10111100101011100001111011111100
10111101001010001000111011010010
00111100000101001010000101101011
10111101000101001011111101100001
10111101011000010001011011101111
10111100101001110101111010101110
10111101011011000111010011000111
10111101100111011110110000001011
00111101001101011101011101010101
10111011110000001011111011100000
10111100101000111100000111100101
10111101010010100101111000000010
10111101001100010001000001110111
00111101010000101011001100001111
10111011101100010001100010001011
00111010110001101110011001100111
00111101001001101111101000001110
00111101000011010101100100111100
00111100001000001100000100100010
00111100101011001110100111000010
10111101000011001000000011110000
00111101100011111011111110000001
00111101000101111111110110000001
00111100010001011001101101101100
00111101010010000000000110000101
00111101000100110001100100010011
10111100001010110010110000000000
10111011001111101011010000000001
00111101001010100010010000011101
00111100111001100101101110011101
10111011110111100001011011010101
00111101011111110111000100000111
00111100110110000011000101010011
10111100110001010100111110110000
00111100011111000010100111100101
00111011111000110110101011011110
00111100000101001101101111100000
00111100111101000101110100000010
00111101000010100010000110111111
10111100100011101001110001010101
00111100011110111101111101111011
00111101001100100111011111010101
00111100110111000011000111101000
00111101000001011100101000110100
10111011101110111000000011011100
00111010010011011101101010110100
00111101001110001101011110011111
00111100101101011110011010001100
00111101100110111110001010010101
00111100100100100010101000000000
10111011111110101001111101111000
10111101000100001111010101101100
00111100001100111011101111011110
00111011110011110111001010111101
00111100100000101001011111110001
10111011101011000000110011111000
10111100110011111101001101011111
00111101001101111100000110111100
10111100100010010010111001101111
10111100001010111001010110111000
00111100101010010111000110111101
00111100101101000111011011101001
00111100100001000001001111001100
10111101001111001000010000011101
00111101001110100111010110110111
10111100100011001111110101010011
10111011111111111101100101001111
00111100010111001011011111011010
00111101100100001110100111111100
00111100110110111110000001101110
00111011000110000111100000011101
00111101001010111001001110101111
10111101011000111000100000110011
00111011101111000010010111011011
00111100110011010000111110000000
10111100110000110100111011011111
00111101000000001110011011010010
10111011010010000111100110101000
00111100010011101110001101101100
10111100000111100111101001000111
00111101011011110110100000101001
10111011001101001100000111000101
00111100011000101010000001001010
10111010010110011001001000110010
00111100010101101110110000111010
10111100100001110011100110001001
00111100100100110100001000110011
00111101010001011011010101100010
00111100001100100101111001111110
00111100101101010010001000000110
00111011001000100010010111000110
00111101100011100101010001100011
10111100101011111001110101101000
00111100110010100010111100000111
00111100101010011000011111110010
10111100111001011011000011001010
10111101000111101101011100111001
10111001100100101111110010001100
00111101010000100000001111110101
10111100110100000011011000100110
10111101011010100111011010011011
00111011100011101011010010100110
10111101011101111110100000101001
00111101000100001111100010111010
10111101010101001111110100010110
10111100001101100101100100111000
00111101010000010001111010001110
00111011100001100010111010100110
00111101110100011101110001100011
00111100100001101001100111001100
00111101010010010111101101100111
00111101101100110101000100000010
10111011111001100011001011001101
00111100010001011001010011001011
00111101000110111001111011111110
00111100110001110010100001100100
10111100001000010000000000011010
10111100101101110101010011011011
10111100100011100010101000110110
10111101000001001110100010011010
10111100111011011010010011001001
10111101010101111101000100001110
10111100101111000100101111010101
00111011011001010100000011100001
10111100001001110111011000110000
00111100101101110001011111110000
10111100100110110011101000101010
10111100000000001010110011111010
10111011111110101101100101001111
10111101001111111101011111010001
10111011010100101110110101011110
00111100111101011010110011111111
10111100111101100011110010111011
10111011001011011010110000100011
10111100001111010000110111110101
10111101001011111011101111100100
10111100100001101111101011010101
10111100101110011101110110000001
00111100111110101010001000110111
00111100011011111011010001001101
00111100110010100111111101010110
00111100001100110011000010101010
00111101010100010111010100111111
10111011110010111000011001001111
00111101010101000111101010000010
00111100101100110010011110111010
00111011111100101110000111110110
10111010110001010001011101001101
00111100101010001000010101101000
10111101001010100101111011110011
00111101000111001111110100101111
00111100100100110010010110011101
10111100011100010011000100011100
10111101011010111110101111001101
00111101000000011011101111001001
10111100111010101001110101010100
10111101001110010111001100010101
00111101001011000110010000000101
00111100100010100111110001101001
10111101000000001011100101010110
10111100100011010000101011010000
00111011101010011011101011010001
00111011010111001100100101010001
00111100011101011001111100111111
00111011100001110011001001000100
00111100000100011011000100000100
10111100001100110101010011011011
10111100001000100100110010011100
00111100000010011000001000011011
10111101010010011100000111011000
10111100000010111000110111010110
10111101010001010101101000010000
10111101100100001100010110010000
10111101001100110111011110110001
00111010111100110100011110101010
10111101010010011001111110111100
10111101100000110000110110101110
10111100101000101110000101110100
10111100111010011101000011100001
10111101100010111101000111110010
00111100101011111001010011100101
10111101000101110110010100100100
00111100000001110100110001011000
10111101000111000001100110111010
00111100100010100100110111011010
10111011010010101011111010100111
00111100011000111100111001000111
10111100111000000001110111001010
00111101000100111010011011000001
10111100000011000001001011111001
00111101000000101101111001010000
00111101001001100101111100010101
10111101100100100000011011111111
10111101001101101101010111001110
00111010101000100111110010110101
10111011001110111001011011110111
10111100101101101011000001010100
00111011001100110110101000100010
00111010010000111001001001101010
00111101011100000101000111100111
00111100101111001111001111100111
00111010110000100101000010110010
00111101100000101110010111001111
00111101000010101100010111110000
10111010101100101100100101101110
00111100111110100101000010100001
00111100011011101000010001010111
10111100000101011011101000001101
00111100001010110011100001111101
10111100100000100001001110001010
00111101000100100011101000110110
00111101000101111100111100001000
10111101001101001000101101010111
00111100101000010111001010111110
00111100110001111010011010111101
00111110000010110001111011011000
00111100101001101110100001101110
00111101010110000001111111100000
00111100100011100111101111011001
10111100111000101100110110111110
10111101011011010101100101100111
00111100011010001110110001011000
00111101010011000111101000111111
10111101000101101011001001110001
00111101001010000010110011100111
10111101001010010000001111100101
00111100110001000100100000011010
10111100011101010111010110110011
10111100100001111000100010011001
10111100000000101011000101000110
10111101010110000011101110110000
10111101000110110111101101100010
10111011100011111111011111100100
00111101000010110111001010011100
00111100101100001001010101101010
10111101010001101000000010110100
00111100010010001110000101001110
00111011000000010100000000010001
10111101010010001110010010111101
10111011110111000001010011001010
00111101000101110110110111110110
00111100011011011000111010101111
00111100100110000101100010000101
10111100111100111101101100000111
00111101000011010111010001001011
00111011011010100110010110010100
00111011100001110100011011000111
00111101011010000111010001000000
10111011111011011100001011011111
00111100110110101100110110001001
00111011101000100010110010110101
00111011111100001111010001000010
10111101000110011110001111001111
00111101110001001011011101000101
00111101000101010001100011011001
10111101100100010010111100100100
00111101001010001011110111000000
00111101000010100110101011011011
10111100101000100001101100011010
00111100010100111100001000101111
10111100111111101111011010000011
10111101100100010111110010011111
10111011101100010011001001010111
00111101010111100111100010010010
00111101011010011100101011100000
10111011101011111100110100111000
10111101011011000101111100001100
10111011111110010101110001101010
00111100110110111000100111111001
00111101011100011111100010111101
00111101010010010011111010011100
00111100100010101011011010111110
10111101000010100111111100001101
10111100100001011011100001000111
00111100000010111110110101100011
00111101000100101101001111110110
00111011110001000101000101111100
10111100100010110011100110111011
00111100111001110011111111011010
00111100011011110100111001011110
10111101100100011000101011001110
10111000111010010100110100000110
00111011100101000111001110001100
10111101001000110101111111011000
00111011111000010000011110000110
00111100100010110111101110010100
10111101000010111001101100011010
00111100111101101100000001011110
00111100110000100011110111110010
10111101011010000111110111100110
00111010010111110001000011010111
00111011111000001010000000110110
00111100100011100000100100001101
00111100101001100010100011001110
10111100010101100011111010100011
00111100101110011000010011100111
00111100101001100110111010110101
00111100111111111010011100100100
00111100101100000001101011101011
00111100101000011001101000101111
00111011000000000111000110111111
00111101011101100010011010111011
10111100111000001101001110111000
00111100101101111111000110110011
00111101001011110100100111100010
10111011101000110100110000000001
10111101000111010011000100100110
10111101010000100000000100101110
10111010110010101011010001100011
00111100100111111001011010110110
00111100111001110111011111010110
10111100100110110010001110110110
00111101100110101110100111011101
10111100011010010111001110010001
10111100010110101111001100100001
10111001011111010101001010100000
10111100111000110011110010000001
10111101100111110011101010010001
00111101001100000000111111101010
00111100101111100011111111111110
10111100101110110001000111100010
00111100101011100011100110101000
00111101011001110101000111111101
00111101000010100010001110011001
00111100001000111011101001100010
00111010000001001000111111100010
10111100100000010000101011011010
00111101000011111010110101111101
00111100111001000100111010000011
10111101000110110001000100001001
00111101000000010010100110010011
00111100111111101110101001001011
10111011011010101010101111111110
10111100011011000111100111100101
00111100100110100110000011000011
00111100010000100001100011100010
00111100111001001010110101111111
00111101000101010100101111001010
00111101010000010010101100010100
00111100111001001110001011000111
10111101010100111000101000101010
00111101001010001110101010001101
00111101011111111000111010000110
10111100000110000010101110011101
00111101011100010110100110101000
10111011101011101101001101000011
10111100010001101101101001110011
10111100100110111001010101010110
00111100011101110101000101101111
10111101000000111100101001110001
10111100101110011000100110100000
00111100011101011000011110101000
00111100110110001101000011101000
10111100101111010010100110110010
00111101100001000001001100100101
10111101010001100011001001011100
10111100111001011011100011101001
10111011110000010011110110000010
00111100110100010101111001010010
00111011111110000000001101101011
