10111101101001001111000111110011
10111101010101010000010110110111
00111100010011100101010000000100
00111101001000001001100000000000
00111100011010000101100110001000
00111101001101110110110001110011
10111101011000000010100000011110
10111101101110010101001111101010
00111101000100000010011111010111
00111011101001010111110001100001
00111100100101110010010101011010
00111100101011010111000100101101
10111100100110010000011111101111
00111100011001111111011011111100
00111101001000011001001111110001
00111101000111001011001001001111
10111011100001001010110010000011
00111010000000111000111110110000
10111101011101000010100100111100
10111101100000101000000111000010
10111100101100100110110110100001
00111100011101100100000111101000
10111100111100111000010000010000
10111101001100100110111001000011
00111101010001111100111110111010
10111101001001010111110000110001
00111010010010111111000101111101
00111100100001011000001010111110
00111100011011010010101000010000
00111100100110001100110110001110
10111100100100001111001011111010
00111100101011001110010110001011
00111100110001110100101100000100
10111101000011011100010001101110
10111010001001110000111000011000
00111101010101001000111110000111
10111100000000110111100000010110
10111100110100001110010100000010
00111011110011000001000110001010
00111100001010100111000001100101
10111100001100101111000101110000
10111100101100111001001111101101
00111100001000111111001111000100
10111100101111111010010101100101
00111100101011000100110011010010
10111100010011110000111110011011
10111101010000110001101111010010
10111100001101001010011100011011
10111100010000010101111111100010
10111100101111110011100011001100
10111101011001111110110011001010
00111011101101110010110110101011
10111101000011010111010001100101
00111100100101011101111001101111
10111011100011010010100100011111
10111011111000010110011001011111
10111100111000100100110110000011
00111100011101001110101111000101
10111100000001001011111010001111
00111101010100001110111110110000
10111011000011000110000010100010
00111101001111110000000101011101
10111101000001111111010100000000
00111011011101111100010001101100
10111100110111111011110001100010
00111101000111000110111101101000
00111101000010101001110001110110
10111100101011101110010010000001
00111010000110101011111101010000
00111101000001011000100101100101
00111100110100100101000001010100
00111101101100001101010110010001
00111101000110010000101100001001
00111100010010110011010111100001
00111100010110111111100000001001
00111101100100100110000001001101
00111100111011110000001011111010
10111100100100000111011101111011
10111011110000111011101001101111
10111100100111110011011101100110
10111101100001110111000000010011
00111011110001101001101110110001
00111010001010111011000010110001
10111100101001110100011000111111
10111100101111000100110001110010
00111101000000010100100010101000
00111011101101011001001010101100
10111101001001011000010110000111
10111101100111100111000111000111
10111011101011000101110011101001
00111100011000001010011101110001
00111101100110111000100101011010
00111101011110100001111001101001
10111100101110110101100000100100
00111100010101011110010000101100
00111100111000110001001000111111
00111100100111011000101001011001
00111001101110100001110111011000
00111101011001001011110100101010
00111100100111110111111111101100
10111101100011100000110111000101
10111100001101101110011011100100
10111101100011000101000111100001
10111101011110110110111011010000
10111101100001000101001101101101
10111101011000110000011001000100
00111001010101010110000010101011
10111100100100000011011110000010
10111100100101001011001010100010
00111100010101011001101111100001
10111001011010110010000001101111
10111100010101101011100000111100
00111100101100101100010000110011
00111011010100010010101011100110
00111100100101110111110101011011
00111011101111011000000011111000
00111100100010000001010011010011
10111100011010110101001100110100
00111101001001111010001110010111
10111101000010001000001010001011
10111101001111101111011100001111
10111101001101110111101000001100
10111100001000111001100111110010
00111010110110111001100000010001
10111101100001110011110110101100
00111100101101000000111100100100
00111101010001101000100100100111
10111100100110100000110001010111
00111010001100001011010001001111
10111100100011010111010000100000
00111101010100100000000000000000
10111100101101000101101011011100
10111101001100110000011011101000
10111101001100011011110110000010
00111011101000111010111100110010
10111100100111101100101111111101
10111100010000010000011110111101
10111100000100100101010100000111
10111011100111000001000100110011
00111011110001110000011000011001
10111100101011111011010001100000
10111011110100011101110111010110
00111101010110101011101100000001
10111011111110000110111011101001
00111101000100000100100011000001
10111100101010010001000101011001
10111101110110001100001011100011
10111100011010101001101000000011
00111101000000111101110111011000
10111101100011110010101010111000
00111100111101100000111101001101
00111101111011101111011010011000
00111100100101111011101100011010
10111100101110010010111010000100
00111101001100100011000101110011
10111100000000000111110000000111
00111100110101111101001001111111
00111100011011110100010110110101
00111100100000010001110000100001
00111101001001111110101111001011
00111011100010110001000011011110
10111100111110110001011010110110
00111101000101110011011000101011
10111100110011011000110111100010
10111011101101111101110011100110
00111011110001010111101010011000
00111101000001100101011111001110
00111100101011000100001000000111
10111101100010110110101101000111
10111101100111101110010001110100
10111101000110111100010101110001
10111100001101010010110101101110
00111100011000111000110001011111
10111010101010001001001101100011
00111100100010010110010101000011
00111101010110101111010111100101
00111101001001100011010000000001
00111011110110100011011111100000
00111101011000011100110001101110
00111101110001010100001001110001
00111101000000000010101000100011
10111101011010101010000010011001
10111101011101010010100101001011
00111101100101100011000110000100
10111010011011000100101111111011
10111101010011101000101000100011
00111100110001111011000001110001
00111100000011110010010110011100
10111101001001001100111001000010
10111100001000000000010101001110
10111011111001011001100101101001
00111100111000000101010000010110
00111101010011110000111110111101
00111101000100010100011110011101
10111100100001110110000110010011
00111011111111101101011101010111
10111100101011000110110000010110
00111100000000100100000100011001
00111011111111111101000111100100
00111101100001110101100000100011
10111100011000110011010100001010
00111011111100000000111110100100
00111101101000001010010111001110
00111101110101101000110110001010
00111100011101010101001001011001
00111101100010000110001110100110
00111101011111100110110110010001
10111100110111000011000101100101
00111101000110111100011110011101
00111100101110010001011001000010
10111100110110101001011011101000
10111101000011100010100000000011
10111100111011110101111110111011
00111011100100010110111111000011
00111101000111011000111111110100
00111101000011110011001100000110
00111100000101100101101000101010
00111101000100100110000001101010
10111011100110010101001100011111
00111011110101011111110110110111
00111100000101001100000001110010
10111101011001010010011001001110
00111100111000010110000001101101
00111100001111100010001100100101
10111101001111000010010011110010
10111100011110010010111000001010
00111011111111111011100001011110
10111100111100010000110001010100
00111101000001110010110100001101
10111101000101101110110101010010
10111100100001011100110111001100
10111101000011101000010110010111
10111100110101000001100001111100
10111100111000011011010110100101
00111100000000010100101001111000
10111100011111111010110001100010
10111101000100111100001001110001
00111100110101111111100110101000
00111011001000110101010100010011
00111100000101101010100101000000
10111100010000110000111010111011
00111101001011011101110111111100
00111101010100001001001011101000
10111101100010111101101110110111
00111101011001001001110000110011
00111100000111010010100010110011
00111100101111010101101110101110
00111101010100011010111111010011
10111101000011111101000101011011
00111101001001000100110101010110
00111100100100100101011001111000
00111010111010110001101111101000
00111101011001010010001001000100
00111100110011101110011011101011
00111101001000001001101001100111
00111100111101011111100100111000
00111101001011111001101001011001
00111100101100011101010001100100
10111001000001011100100000100100
10111101100100010100000110111101
00111101000011101011100000100110
10111100111101100110011110110011
10111101001100010000110110011101
00111100100010010011111010110101
10111011101101001100001001101100
00111100101001100000100011101000
10111100111010000101011010100110
00111101000000000101000001011010
10111101001000100101110101110001
10111100100011000111010111111100
10111101001001000100110011001110
10111100000100101100111100100101
10111100000010101011000011100000
10111101001001111010000011001011
10111010111010011111010101111100
00111101000111100111101111111110
00111100011000001011100100010100
10111101010100011100000001100100
10111011100110101000100111011111
10111011011111100000101011100000
00111100100000010101001100011000
10111011101100110000011100110110
10111100100101000111010010101100
00111100110111111100010100010001
10111100001100010111100111110111
00111101011001111001100001001001
10111011100001101011010100110011
00111101010110000000101101111001
00111101010100000011000010101010
00111101001001101011010110101111
00111101100001111110010100011001
00111100101110101001110110110100
00111101100100010001000101100000
00111101101010111100100001101000
00111011101110010011000100110011
00111011011001101011011100110010
00111100110111110000100000011010
10111100000001010111100010111010
00111101011111001001100100100111
00111101100110001000011111001011
00111101100101011011101001100011
00111101111001100111110101110111
00111101100110010110011100101010
00111100000110010100010001011000
00111100011100100101001011111101
00111101011111111001010111101110
00111101000000101101000100111101
10111101010001100100111010100010
00111011001110111010110001010001
00111101010001101010101100110101
10111101000101001011011000000110
00111100111000111111100000110100
10111101110001100001000100111000
00111011110101001010010000100110
00111100110100000011010111110100
10111100001010000001110111010000
00111100100110101111101001001010
10111101000011011101101111101110
00111101000011000110000010001011
10111011100010101001111000110110
00111101100000101101111000011111
00111100011110101011000100101111
00111100100100111101111110101101
00111101100000111000010100110110
10111101000000111011100011110000
00111101000111011011010010100011
00111101010010100001010001011100
10111011000110111010100110100101
10111100111100110101100110011110
10111100010111110011111101011100
10111100100111101010010001100010
00111100000111110111010011000100
00111101001111011101101111010110
10111100100010011000011010101101
10111101000111100101111011111001
00111100100010001010100101001011
00111011100000001011100100111100
10111100001001001011010001000110
10111100000001010010010100011000
10111100010110011001110110011101
00111100100001110101000000011101
10111100111111011110100111000010
10111100110001000001010110100000
10111100110101110111010110000010
10111010101100001111100010110010
00111101010101000111001111110000
10111011000001111101100111001000
10111101011011000000010100101000
00111101001011010001011000010101
00111101001110001001101011111101
00111101011111010011110000110011
10111101000011110110010000111100
00111100110001101111001000100111
10111011001110100110101011100000
00111100010010100111010111011100
10111101011110100101110101010011
10111101000010110110001100001110
00111010110100001100010000101000
10111011100110010110100100010010
00111101101001010000001110000001
00111100100101110001100101011011
10111101010000001000011000101110
10111011110101101010111100110110
10111100111101100101100111010000
00111101001111101110110011111101
00111101000010011010101111000000
10111100011011101000011011010111
00111101011011111100010111101110
00111011110100011011001100001110
10111100101000101000101110011011
10111100011101010000111100000111
10111100110010001001011010111001
00111101101011001011000001010101
00111101100010010100111100111111
00111101011001100001110000000000
00111100111001110010000110000000
10111101001110100001000101100101
10111101000100001100110011011010
00111100100000011110110000100110
00111100110011011011001110001101
10111100111110110101011111010011
00111011110001001011011111110000
10111101000000011010110100010001
00111100101110101010111100001000
00111101100111010100100111010110
00111101100101000101011111010110
10111100000011100111110001101111
00111100110010000100111000111011
00111100111100001010000111011101
10111101000011000110011100011000
00111101010101000100101010000001
10111101000100100100110110100000
00111101000010010110001001001011
00111100110100100101010000011011
00111100100110001110010100011001
00111100111111110111111111011101
00111100001110010010001110001101
00111100110000111111110010001111
00111100101011000101000010110111
00111100001000001000110100101000
00111101000111000111100011110001
00111101010000100001011100001110
10111100011101000100110101111101
00111100101010111100011101101010
00111101110101000000110101100100
10111101100000101011011100000000
00111101100110111001001100111000
00111011010011111001001101000110
00111100111110001001101111100101
10111100000111100010100101101110
00111011110100001001111101001011
00111011110010010110111010000000
10111101001001100010100110111111
00111101000000110101011011101101
10111100100011010000010001010101
00111101000101110000100011101011
10111100011001011101110111001001
10111100011110101100000011010100
00111100111110011111011111110000
00111101000101100110100111001110
10111100100000110001011111110101
00111100001101110101011011011010
10111011101001001110010010001000
10111100101111111001110011010110
10111100101010001101101100110111
10111100010101101110010100011101
00111100000010000101100000010011
10111101011101110001001100110001
00111100110010101011100111011010
00111100101000010001111001011101
00111100111000100010101110000110
10111011010001100110001110110100
00111100110100101000100111111111
00111100100011001010101011110110
00111101100101010010110110111010
10111011110000000000000000010010
00111101001100001110110110000101
00111101100010111011011110110100
00111101010111101011100010101001
00111101010001011100000001100001
00111100101010011001101001110101
00111100100001111000011010110111
10111011001101110111010000010111
10111101100011001100001001011010
10111101001101111011101000000000
10111101010110001011110010000110
00111011111010011011011100001011
00111100101111011100100011000111
10111100101011001100110100011101
10111100100101000011110111101011
00111101010011110101010010111010
00111011000000001101010011111101
00111100100011101000000111001100
10111100111011000010111000011000
00111101000010110111100011001110
00111100000101011010100010101111
00111100101101110110011011110001
00111100100011101000100101010110
00111100110011001101000001100110
00111101010010000111110011000100
10111011100010011011100101010010
00111101001010010100001010101000
10111100110000011010001001010000
00111101011011101011110100101000
00111101011101101100111110100000
10111100010011010110000010001101
00111010010001011000001011101010
00111101100111100111110111101100
10111101001100001101011010010011
00111100111110110001101101100100
00111011010000110101001000000011
10111101000110101000010110101100
00111101001001000010010100000011
00111101010000001011000000100110
00111011111110000101010110001100
10111100110101101100011000100001
10111001101110001011011000101111
00111101010011001010111111111101
10111101010000010011000000000001
00111101010000111111000011001110
10111101100100011000010100100011
10111101100000100000100100100000
00111011011000110111111111101101
10111101100011010111001010111001
00111100010101010000110000110100
10111011100111110000000010100001
10111101011001011100000111100000
10111101100100101110011100011011
10111101000111011101001001101100
00111100011010001011010000111011
00111011011110011010001001100111
10111100101110101110000100011101
00111100111110110000010011011011
00111100100000111110101110001111
00111100011110000111001111011111
10111101001000000001100010100111
10111100100010011010110011000101
10111101010001000111101100110000
10111100001111001000000000010110
10111101100101011001001000010101
00111101010110010100000110110000
00111011101011000101011001000101
10111100001101001101001101001010
10111100100010000111101111000001
00111100110011010011111100001011
10111101001000111000011111010100
10111100010000100111010110100110
10111100001000001100001010010100
00111100011101001111110001000001
10111101100011011010100011101110
00111101010111011000010011011101
10111100111111110010001010111111
00111001010001011000011111010110
10111100110100000011011000100101
10111100000100100011100100001111
10111100100111100100010110001111
00111100110001111000111000100101
10111100101110001001100110000001
00111101000011001010101010100001
10111011000011000100000100000000
00111011100101110110011010001000
10111100111111011011111110110000
00111011110010100001000110110000
10111100101110011110011111110001
00111100100001100100011011010010
10111100001111001111100011001001
00111101011100011101010100000010
00111101001100110111010100010011
00111011110000111001011101010100
10111101100010010000000101011010
10111101010111100010101011011011
00111011101110110001000011001110
00111101001010101000001011011011
00111100001111001100111010111010
00111100100101010110111000111010
10111100100010100011010011001110
00111100110101100011010110001111
00111101011010100101110011001001
10111100000010111010010011100001
10111100000000100001010101111110
10111011011011010010100110000011
00111011010001011100110110111011
10111011111001100011101110101110
00111100101011010000100011101111
00111100101011010001011000001011
00111101010000000110111111001110
00111101111000101001111101100101
10111101000000000000010110100100
10111100000101010100100110101110
10111100001100010000110010111000
10111011000011011100111000001110
10111101000001111001101101000110
10111101010100010011010001010110
00111101000100111001101010101110
10111100011100100000000110101100
00111100111000110000010001011111
10111011011000010011100001100001
10111101001101010000111101001010
00111100100110011101110110001101
00111011100000110011011000110011
00111101000000101001101000011011
10111100010100111101110101010001
10111100000111010000101111111010
10111100101110000011010111001111
10111000000111101110001010000100
00111101011101101001110010111110
00111100110110000100101010011000
00111100101111111100010100010111
00111011110100010000100110100010
00111101100101101100011000000010
10111011110100001110100110001011
00111011001110111010101111111000
00111101000110101101110110010110
10111011101101001001111110010110
00111100111111001001011111100010
10111101100100000101001101111000
00111100101111001010110010010100
00111100010000101011100001101010
00111100001100010110101100011100
10111100110001100011110000101100
00111101000010011011110000010000
00111100011010111011011001101111
10111101100000000100110010011000
10111101010100001111000001101011
00111100101010110101111101111001
00111100010110110010100100101110
00111011000001011100111010011000
00111100011100000010111000100110
10111101010000001110001111111111
10111011111111000111001101101011
00111100110001100100000110101100
10111011111000111111111010100111
10111011000010101000110011000010
10111101101000101001011111100110
00111101100011100111110010011110
00111011111011001011101011110011
00111100001101110000000000110000
00111100101101000100000111010001
10111100011001101011001010000000
10111101010101101100000100010111
10111100001010011101010101111110
10111100011000011110001100100100
00111101000001110000001000110111
00111101010010010000111100110111
00111101000000011101111110101111
10111011010010000000110000001011
10111100100000001100011100111111
10111101001111111001101100010000
10111011101011111100011111110000
10111010100100101110101111011010
00111101001110100111100010001111
00111101000100110000010100001010
00111101001011110010000001111110
00111101001010110000010011111010
10111100111001100010101010010110
10111100100010010011101100010010
10111011001000111110100101001111
10111000001010110111101111011000
10111011011010110101110110100001
10111101010000000000101101000000
00111101011011000010110101000100
00111011110011010011101111011100
10111100011010001111001010001111
00111100010011010101110000100111
10111100101110111100010101010101
10111100101100000111101101000000
10111100101111010010001101101011
10111101011101001001110011000111
10111101101110110011111101101011
10111100111110100011101000001001
10111100101111010001001000001101
00111101000001010100101111110100
10111100111101000011111110110110
00111100100111000001111100111110
10111100000100011101111101110100
10111100001101010001110001110011
10111100110111111011111111011111
10111001110100111110000101010111
10111100100001110001010111001001
10111101010111110100000111011110
10111011001100001111011100010110
10111100100000110001111101111111
10111101010000110011000111111011
10111100100000110011011110100010
10111100011111010101011000010111
00111100110101110010011111101110
00111100111110001010111000011111
10111101000100000100111000000101
00111011010101010111010111111011
00111101001001011010000110100010
00111101001111111000100100000111
00111011111000011101100111111001
00111100110101011100110101110000
10111100000010111100011101100000
00111100100100101111010111010100
00111101011010010001011100101010
10111011100000100011100111011110
10111101000110010111111011001011
10111101000101011110101010110000
10111100100110100110010100100011
00111100110001010111000110011011
10111101100101001001101011100011
10111101010000111110100011111011
10111101001001101101001111011110
00111100111101100100100110110110
10111101000111111100011111000011
00111101000010000001000111100110
00111101010010101101101111011100
10111100101001101010011010100100
10111100111101010010010000001011
10111011101100100110011110010111
00111100100110000100001000111100
10111100111111110100110000011010
10111101100101111110101110001101
00111001101011100101110111000111
10111100011101000010111101111100
10111101001100001010101001101100
10111100100011100110100000110011
00111100110000010010111001100000
00111100110000010101001110010011
00111100001111001010111010100101
00111101000000100000010111101110
00111100100101100000000110000111
10111100111110010010000101111001
10111101000011000011011010010001
00111100010100100100111011000110
10111100011011111010101010011001
00111100110001110101010011010111
10111100110011001101001101110000
10111011101110110000111100010001
00111100000111000000011010000101
10111101110010100111000011001001
10111101110011011100000110001110
00111011101111111110001100011010
00111101010010001010101110011000
00111101000100100001000010111100
00111100100011111100110011111010
10111100110010011000011100110000
10111011110000010100010011110101
00111100010110111111110001010100
10111100100000001001011111100101
10111011111000100011011101101100
10111101010110110001100011010100
00111100101101001101100000111100
10111100100010000010111111110010
10111101000010100110101101001001
10111100101010101000101010100111
00111101000111011101110001110011
10111101000001111010000001010100
00111100000110111010101111010101
00111100001111010101011100011001
10111100111110101010011010001010
10111101010000110100110001111011
00111011101110110101000111111000
00111101000110010100010100000010
10111101010001101000110111010111
10111100111000010100011101010100
10111011010100001010010010000100
10111100101110001101101010000011
10111100111001100111111001010000
00111100010101010111110111011001
10111101000100000000010010101110
00111100100000011000110100011000
10111100101011110111001011010101
10111100111010011010111101101001
10111101000100111100101011101111
00111100101111111101001110010001
10111101100111100111000100011010
00111011111000001010100111100101
10111101000011001001111100000000
10111100110111001110111111100001
10111101101000110100001001100000
00111011001100011011110000000011
00111011110001110011100011011100
10111101000110100011101001001001
10111101001001011011010110100010
10111101011101000011100000000100
10111011110011001000101001000000
10111011011101011111111011001110
00111100010000110010111110000100
00111101000011101010110100110011
00111101001011110001100000001010
10111100000110100000001100011000
00111011001110110011010000100110
10111100100001010111001010001010
10111101000111110100111000101101
10111011001011111111000111000100
10111100101000000110000010010000
00111011011110000000110011100001
10111101000000010001010011100110
00111101000010011101101000001010
10111011100001011110111101001011
00111100000000000100000100000010
00111100001101001010111000011010
00111100001001011010001110110110
00111011110110110001001100000011
10111100000001110101101100000001
10111100100101011000101111110010
10111011010000101100101000110001
00111101011011101001010001100001
00111100100000011101100011101000
10111100101101100000010011010001
00111101000110000001000111010001
00111010010110111100111111001110
00111100100111101011101101001011
10111100111110011011100011110011
00111101000101011100110110111101
10111101010111000111111001101100
10111101000001001110011010111011
10111100011011001111100001001010
00111101000011110001001110011000
10111011100010110001011110011000
10111100101000000011111101011011
10111001100001100101110111011001
10111011100000011111101001000100
10111101100000010010001000011010
00111011111101010001101000010111
00111101010100010101100100101001
10111100101110001000011111010011
00111100101001000111110001111010
10111011110110111011110001011101
10111101000110100111100111101101
10111100011001100100101001100111
00111011001101011011101101001010
00111100010101111011010001110110
10111100101010100010000111000111
10111100101000101011101010001000
00111101011001010011100111101010
00111011110101110101111101000011
10111100110110011100011100011001
00111101001100111110000111001101
00111101010101011011000100011111
10111011110011110110000101001101
00111011100001010001011001001110
00111100101101100100011000111100
10111011110010101010100111001100
10111101010011001001001100010011
00111100011011111001000000110011
00111100111000010000011101111000
10111100000101010100101110010011
10111100101100110100111010011111
00111100001001111000111000000110
10111011110101011010001010111010
10111100000111101101000111001110
10111100000101010101010100101101
00111100001011010110100100001101
10111011010100111000011110100101
00111101001101000111101111010011
00111101001000011011101010100001
00111100101000110010011111111011
00111100100110101100100111101111
10111100010100111110101111010001
00111011111110111101100011110111
00111100010101011001001111000001
10110111110110001000111101100010
00111101001101100100010001000100
10111101001100001011011010111000
00111100111000110011000111110001
00111100101110010111100011110001
10111101110101111001000100010110
10111100110101100011000111001100
00111101010110111001011111100110
10111101111111110000011011011100
10111011101110010011100101100111
00111101001011110000110000010010
10111101110101100011110101111110
10111101101010000001010000001001
00111100110110000111101001110101
10111100001011110010110001101100
10111100101110100100010101000000
10111100111011000011000101101011
00111100011001011101001010011000
00111101010010011011111110001110
00111100110001010001110111011000
10111100001000001001100110011001
00111100101001110111010110010101
00111101000111000111001110001001
10111100101100111101011110110100
00111011111011000000110011010010
00111101010000001111010000011001
00111100110101011110110110010001
00111101001010101001010011000111
00111011000101110111110101101101
00111101010001001110001000000001
10111011111110100111010100011100
10111100101000111011100011000111
00111010001011000010001110111001
00111100101111100100001101001001
00111100111111111111101111111001
00111100101111001110101000001010
10111101010000111010110111011000
10111101010111010000100100011110
10111011100010010010110101001000
10111100011100111101011001011111
00111101001110100011101110001101
00111101010101101111011110000001
10111101010011000001010111001101
10111101010010111011011000101110
00111101001001000000111000100100
00111100000100110011100101010011
10111100001110101001010110110001
10111101100111110100000010101010
00111100000101100100111100110010
00111101000111000001010101000010
10111101101011101011010000100001
10111101000100001000100111110001
10111100011001101100110101111000
10111101100101111010001100010101
10111100111011000000011001010101
00111100110000101001000001100000
00111101000100011011111000000011
00111100000001100111011001011101
10111101000100010100011010011100
10111100100111101001000011110001
10111101001101101000110101001100
10111100110001111001011001100111
10111101000100101100101111101100
00111100101010111011010111011111
10111101010110000010110000001011
10111101110000000101011001110001
00111100100100101011100010100011
00111101001100011101101001111101
10111100100000011101110010011000
10111011110111000100101101101001
10111100000100101001011001001111
00111011100101000110000100000000
10111101100011001100011110011010
00111101001010100000111010101110
10111100100111000011111011000101
10111101101000010010010011111001
10111100101010101100101110111110
10111100101001101000001011111011
10111100101011001011110111001100
10111100100100111001010100111100
10111101000011110100100010010111
10111100001110000111001001011111
00111101011100101000011001101000
10111010000000011101011111001101
10111100110001011011101100011101
10111101010110100110100011010111
10111101010001111010010001110010
00111011001001011111001010111000
00111101000000111111101011001000
00111101000101011010111001001011
00111100001100100011011101101110
10111100101010100100001100010110
00111101110000110101100000100011
00111011111111010100010111101000
00111100111101111110011111110100
00111100101101111110010011010111
00111100101001110110000100101101
10111100111111100101100010101101
00111100101101101001010001100111
10111100011011010111100001101111
10111010100000011101000010101001
10111100001001110010100010100110
00111100100100001010100101100010
10111100101000000111110110011100
00111100110101110111100110011100
10111101000011011001001000011111
10111101011011110000000010001101
00111100111001101010011110100000
10111100111100110000011011111111
10111100100110110101100000100101
10111100001010100001001010000100
10111011110110000011100001000000
00111100010010001110010110001110
10111100101001100111011010100111
00111101000100111111110110101110
00111101000000110000000001010000
10111101000001110001010001000110
00111101000000011011001110101101
00111100111001110110000111110110
00111101000111111001000111110100
00111101001001001110000100000010
10111100100000111000100000000101
00111100101111010111001010111110
10111100100111011001011000010010
10111101100001111100110000000110
10111100010110011010111001000010
10111100110010011111001011001110
00111100000010000101011100101001
00111010001010110101111000100000
10111100111111010001001010100110
00111101000101111111110001100010
00111100000010110011101111000110
00111100101110111101011110111111
10111100101110110001100010100011
10111101010000010011010100101010
10111100101100001000110101110100
10111101010001110011000101010101
00111100000000010111010011111001
10111101000001100001001110101100
00111100001111000011000000001100
10111101000011000110110011111110
00111101010000111111010011001101
00111101100010111000000100011010
10111100000010110111100001000001
00111101011101011010001101011011
00111100110110110010001011011111
00111011111100011010111111011010
00111101011100011101101111110010
00111101101010001100010111000111
00111101100100111111011010100101
10111100101111101111001010100101
10111101000100010100100000010110
00111011001110111110100011000000
10111011000110111001011110110101
10111011011011001101100010011000
00111100110110111101010001001001
10111100110100001001010010111010
10111011100000111011111010111100
00111100110111101011100000011111
10111101001000001010111111011011
00111100101010001111110001010010
00111101010001111010100001011101
10111100100011001101100101111111
00111100100010101001111001110100
00111011111011000100001010101010
10111100010111100010100101110001
00111101001100100010000010010100
10111100110111001001101000100001
10111100101010101111110000101000
10111100000111001101111011110001
10111100110101001111000101101110
10111100111100101111011001011010
10111100110010100110111101010000
10111100111010001000110100101010
10111101011100111110011110000101
10111101100000111011111000111011
10111100110101000101010010100100
00111100011100110110100101001001
00111100011000001011011001010001
10111100010011101011001110011100
00111100001111100000000111000011
10111010011000110001110001111101
00111101001010101110010010100111
10111100101000000011101101001000
00111100001101001010101011100001
00111011011110110000011011000110
00111101001000111001011001101101
00111011110010101111111011010100
10111011110110101101000111100000
10111100101110011010100110000010
00111100010000011100111110000010
10111100101111011111100111000001
00111101000111100000000010110100
10111100111100111100110000001011
10111101100010101011001111101001
10111101100100101110111100011000
10111101100101111010011111101011
10111101011101000001110101010101
10111100100101011011101011101110
10111101011111101001001010011000
10111101001110100111000001101011
10111101110001011101011101110010
10111100111111101101110100001010
00111100100000010000100000010000
10111100100110001010101100100011
00111101011010110111101001000101
00111100111110100110001010000000
10111101011000110100000100101000
10111100001011001001010111001000
00111011100000010100010010110100
00111100110011111110010110011101
10111101001100010100001111111111
10111010111001010000111111111001
00111101010101100010111110000111
00111100100001110110100110001111
00111101100101101101110111000101
00111101101101011110000110100100
10111100111001000010100001100110
00111101100001110100001100010100
10111100011010100101100111110001
10111101011010110011111011001110
00111010000011110010011111101111
00111100001000010100010100111101
10111100110101011101011100011010
00111100101011011010011010010101
00111010001000100000101100101000
00111100001111000100110010111101
10111100011111101001011111100111
10111101000110010101010000001001
00111100100101001000001110011100
10111100110000111111001111110000
10111100100111001000100010100010
00111100000100111010100001110001
10111100110010011110100111110111
10111101000101000111001011110110
00111100000100011100010110000011
10111101011101110000001001010101
00111010000110000001101000110010
10111100011010100001001000001011
10111101011010111000000110011101
10111101011000101001110000101100
00111010111110010011010000110001
00111101010100111111101101110100
00111011101010110001001011111111
10111101011000110001010100001111
10111101010010100011110000101011
00111100100100111001110100000011
10111011110100110000011101000001
00111101000010111001100100111010
10111100110110010110111111111011
00111101010111011110001110100001
00111100101010001111001011011101
10111100001100100101100111010000
00111100111000001100010011111101
10111100101001101000101001101010
00111101000010101100011100011100
10111101010110110110100111100010
10111101001010110100111001010010
10111101100001001010100100111111
00111100100000000101010100110101
00111101001000101101000101101011
00111011110101011001111000100000
00111101001000000101110011111001
00111011111110110111011011001111
10111100100100010111101001000001
00111101001110000110010011100010
10111101001010100110101011011100
10111100111001000110011111101111
10111101100001011000101101110001
10111100110111000011001100001011
10111011001010101011101011100100
10111100110010001001111010100111
10111011100100100010111011100101
10111100011110000011011000111100
10111100000101110101001111010010
10111100101000000011001100001000
00111100100001111010011000100000
10111101001001100010110100001001
10111100001001000000101011110101
00111100101101101011010110000100
00111011110101011010101111010101
00111100010110111000000110010110
00111101010110011011111000110100
00111011110111110011000110001000
00111100000011110011000000010110
10111100110000100100100100001001
10111101100101000010001101010000
10111100000011010001100010011111
10111100100000100101001011111100
00111100010010100011011001010101
00111011000010111110010010101011
10111101000001011101110000111111
00111101110000101010010110100100
00111011110001111001011011001101
00111101100110100011100100100001
00111100011011000000001101001111
10111011011001100100000000100010
10111100100000111001110010101011
00111101001000111111101100000101
00111011010010010111101010010010
10111101010110001001101011000111
10111000101000100011001010111010
00111100110111110111111101101011
10111011111100111001000001011010
00111100111011010010010111110000
10111100111110110001110010100011
00111101010111101011011110101011
00111100111100110000001101001010
00111100110010101000010111110110
10111100111110110111110101001001
10111100100111010001111111111011
00111100111011001100101111001000
10111100010101111111101010111111
10111101011111101010001101010000
10111101011010100011011011010000
10111100110110011100000001001111
10111011011101111101011111110000
00111011100101000110101010101011
00111101000001101001101000110110
00111100100110100011000011101111
00111101001011010100111101111011
10111011010010011010111010101010
10111101010010000001110001001000
10111101011000011100101011011101
00111100000000100100000011000100
00111101011101111011110001001111
00111101011011111100011100100101
00111101010011010000111111100110
00111101001011011111010100100011
10111101001011001010001011100110
00111101000100000111100011111111
10111100101000011001100111100001
00111011010100101000001110101001
10111100001111010100110000000001
10111011101000011011000000010000
10111101001100010000111011111000
10111100100011110001101011111011
10111101010011011011000000001111
00111101000101100010110100111110
10111100011100000010100010001101
10111101010011001010010011111110
10111101001110011010100011001100
00111101010100011000101101101111
10111011110001001100011001111011
10111011110111110001010001111101
10111100110111001001010000110011
10111100011010101101100110000101
10111011100111110110011101101111
10111101011100001000010101001000
00111101000010011111001110110011
10111101001001101000000101010011
10111011001110011100111010100010
00111101000100001111001001000001
00111100110011101110110110100000
00111100011010000011011011110011
10111101100001101111110110001101
00111100101000011100000110110110
10111011101110010110001001100011
00111100000010010001011000001001
00111101010111011001010111011010
00111101100000010010111101000001
00111101011111010110000010000011
00111011010110101110010110100110
00111100110110111000011011100110
00111101001000101110000010001000
00111011111110001001010101010000
10111100000010010001011110111110
00111101001110000111111111111101
00111100010101101011001100011111
00111100110100010111111010110011
00111011111100110100111010011110
10111101100001111010100000001000
00111100011000110110010111011001
00111100100111001101110110111111
00111100100100100100001100011001
00111100101111101100110100011110
00111100110000010100000000000100
10111101000110111000110001110100
10111100101110000111001010110010
10111101100010110010010011111000
00111100001100110010100110100010
10111011000101101100010001111111
00111011101101110001100110011100
10111100111011110110001000011101
10111100110101000000001001110101
00111100101010000000011010100110
10111100010001001011100001101001
00111101010101101000101101100010
10111100101000011010011010100110
00111101000010101010111011111011
00111100010111000011101010100110
00111011001110010000000001010101
10111101000101100100001010000110
00111100011111110100110000101101
10111101000001111100101010101010
10111101100111010000010000000011
10111101010001001011110100001011
10111100011010011011100000101101
10111101000100000110101100101111
10111101000001110010011111101000
10111100000101101001101001000010
10111011100001101001110110010000
00111101010011001001101100010100
10111100000111101110010011010001
10111011000010111001111101010110
00111100100010110011111010011010
00111101010111110111001101110010
00111101100100010111001111010000
00111011000011011010111010001001
00111100100000101111000011101111
00111101001000001010100110011010
10111100101110101010001011111110
10111100101010110110011111010111
10111011001001101110011101111111
00111100111000101110111100010111
00111101101011000010010001011110
00111101000001001000111010010110
00111100111000000000110111011001
00111100110010101110111001011100
10111101010110111100100111110010
10111100000011101000000100101100
10111001011110101000001000010010
00111100110001010001111110000011
10111100001111110001001101101100
00111100100101001011111000101101
10111101100111100000001001111100
10111100111100011011001001000110
00111100101000111011110000101011
10111101010000000001100001001001
10111101001011110111011110000111
10111010011010001110100001100001
00111100011010111101011001110000
10111100110011010000011010001101
00111011101110000001001100110001
10111101010101010011110011111011
10111011101001000010111010110010
10111101100011011010110000000010
10111100111000010110100010000100
10111011101001101010111110101000
10111100000001011001011001010001
00111101000101010100100011000111
10111100110111010101001011011000
00111100000001111011100000000110
00111101011010010011111011111011
10111011111011000111000111101000
00111011110100001111100101101000
00111100010110101111001100000110
10111101011011000101000011011010
10111101011101101001110101111100
10111101100001111101101100110101
10111101000010010011011011101101
00111100111010010111111010101000
10111101101010001011110110001101
10111100011101110110100001001010
00111100101000111011000000111111
10111100100011101111100011100011
10111101100110000001110011100100
10111101000001001101010000101000
00111100111110011011001100101100
10111011001101111001110111100111
00111101010000001111001111011111
00111101100011010000011000001110
10111101001010100000111001010110
00111101011001110000001101001010
10111101000010111110111100110110
10111011100111000000111111110111
00111100101001111101011000101011
10111100110001011000101001011010
00111100100111100011011111101111
10111100000010110110100100110011
00111100111011110000111000111011
00111101000010101101111001000100
10111100000111100111110001100010
10111100101000010001001110110001
00111101000000010110010111011000
10111100111010001011001100011101
10111100110000100101100001101001
00111100011110110011000011001110
00111100111111000000010011101100
00111011010010100101110001110000
00111100111011010110000101010001
00111101010000001110000110111100
10111101000001101110011000111110
00111100001010110110111000011111
10111001000001100000001000100100
10111100000110101000101010011011
10111101000001000101110000010011
10111101001010100110011111110011
10111101100100100110010110101010
10111101100111100100001101101000
10111101010101000011000110111001
10111100100101011101101111100000
10111101011000110101011000100110
00111100001110010110001110101111
10111101001000000101001100100001
00111101001010100101110010111101
00111100101110011110010111010110
10111011101010001001110011101000
00111100110011101010010100100110
00111100110111100000010101000100
00111101001011001000000011101000
00111100011111100001010011100010
10111100111000111000100111111111
00111010101101001010000101111110
00111101011110001011000101010000
00111100111000110100110001010100
10111101000011011011110101000001
10111101000100011110101110110001
10111100001010111101010111100111
00111100010010100001011010101111
00111100111000000111011010001000
00111100110000000010001010110011
00111100000001011010000111100011
00111100010010011011110101000101
00111100010001101111100100111011
00111101100101100111001111101000
10111100000001101111010111111000
00111101110000000010110100010101
00111100100100010000001010100101
00111011101101000010111010101010
00111010000011100011100010011111
10111100011011001011100011010011
10111010000111000010100000001100
00111100100111110101011010010000
00111100110101000001111110111011
00111101001001110011011101011111
00111100100111010011110010101011
00111100101111101001010111100010
10111101001101101101110011111111
10111100100000110101101110110100
10111101010010011110010111011001
10111101100010101000011010101011
00111101001010110000110110010111
10111011001001011010111100110001
00111100110111001010110110110110
10111100100110101101001101000011
00111100000001000011010100010100
00111100101001100001011010000010
00111101001000110010101111010011
10111011111011100010111010101110
00111100100010110110010001000100
10111100100110101111010010110011
10111100000110110100010001101100
10111101011001111110001101011101
00111101000100011101010100111010
10111100010000001111110001000111
10111101011110100100100100111111
10111100000011011100101100101010
10111011011001110000010010100111
10111101001010100110001000010000
10111100000111011111011010000001
10111101001000111100100110001011
10111100110010011000110111110010
00111101000111001101100011001101
00111100001101010001010001110011
10111100100000110100111110001001
10111011010111111011010000010000
00111101001110101101110100000111
00111100010100000010100101011001
10111101100001010110010111001010
00111100111001011111100111011110
10111101011001000010010010001010
00111101011101100001100011111001
10111101011010110111011111100010
10111100100100100011011101010100
10111100101001010011000100101010
10111101001010110101011001010101
10111010010010010100111011110000
00111101000111111011100000100010
10111011110011011110000001111110
10111011100101000100011011000110
10111100111001010001101000100111
10111101000010000111001010011001
00111101000010010010100011110011
00111100110110010011101101100110
10111100001101001000001011000110
00111101000010001011101011011011
10111101001101000010111001100000
00111011101001001011010011101110
00111101011000010110100011001110
00111100110110110111111110110100
10111100101000111010100110001111
10111101001001010010101111001111
10111100010101000000100000111110
00111100000111101100000001011110
10111100101010110101100011010001
10111100000001000000011101000010
10111011101111110000011011011011
00111101000111011100110110100010
00111101000010000010000001011001
10111011011000001000000111101101
10111101010011011110011101011101
10111100100111110111111110011011
10111101001101111101110001011110
10111100110110110100011010001000
00111100000111011110111111010101
10111101011010011000101111000100
10111100101100101011000101100000
10111100000010100000100100100110
00111011111101101100101111010010
10111101000000100111111001010100
00111100111011100101011111001010
00111101010011100001101011111000
00111101000101011010111111101111
10111100101110101110000000100110
10111101001100001011001001011101
00111011001011111110011101000011
00111100011000010101100001101100
00111101000111101011000110000000
10111011110110111001100000101100
10111101000010010001110111110000
00111101010111011110110010000101
10111100000010101010110110101000
00111100111000100010100001110000
10111100010011001110011100000000
10111101000001010111010100011011
00111101000000101101111001010101
00111101000010110110001111110111
10111100000101011010101111111011
10111101100100001101100000010101
00111101001000100110110110110100
10111011010100001011110011001110
00111100000111101100010110101101
10111101000000111011011111101011
00111101001100110010110001100101
00111100111101011111001001001110
10111100101100001101000000111100
10111100010101010011001001000011
10111011100000101000001010011101
10111101011110101010110000011111
10111100011010111001110010101101
10111011101011010110001011111101
10111100101111011111101101101000
00111001011101000000111011000011
00111100000001000010001011010110
00111100100001100010111110010011
00111011100111101010100010110001
00111101000001111010010010110111
00111100101001110100000110001000
10111100110000010111100000010110
00111100100111010000100010110101
00111100100011110001000111011110
00111011101110100100100111110110
10111101000111011001000000001111
10111011010000110010001000000100
00111100011110010101001110011001
00111100101110110010111001110100
00111011010111100100110100100100
10111100101111001001100110100100
00111011110111011000110010011111
10111100110110000011010110111010
00111101010001110100101010110100
00111101011000001101111010110001
10111100101011101011110000101100
10111010000111100111001111010001
00111100011010000010100011110001
10111100111010111001011010000010
10111100100010110111001110011000
00111101001001000111011111011011
00111100101010010110101011110101
00111100100001111011011011011101
00111101000101010100010000000100
10111011110100100100100001001000
00111100000011000001110101101101
00111101000000101100100111111001
00111100101101100001011110010011
00111101110111011101111011000010
00111101000011001100111011011101
00111101110000001011111110101011
00111101010110011011010000101111
00111110000001000001010010111110
10111100000001101101010111001010
00111101001011110110000011110001
00111100010111101011110110110001
10111100001001010111111101000100
00111100100111001110010100010111
10111101001001100100101101110101
10111011100011111110110100001101
00111011110101011100010111001010
10111011111001000010000101100110
00111100010001010101011101010111
10111101011010111011110110100111
00111100001111110001000111101001
10111101010010001101001010011110
00111011000000011101010011011110
10111100100000010110000101000110
10111011110110011111111000111100
10111101100101010011111011101111
00111100100111001100001011010100
00111101000000001010110110100011
00111101000100101111000000011101
00111100101011001101000011011100
10111100111101010000100010000111
10111101011011111010100110001001
10111101000110101000110111000111
10111101001001110110010010001000
10111101011100100000100001101100
00111100110110011011000000000110
00111101001000110111101000111001
00111101010011001110111001010111
00111101001110000100010100100001
00111100100101111001011111011110
10111010111111001001011001010100
00111100011001010111101111011110
10111100110101001101101100100001
00111101010101110000011000010111
10111101101000010110100110100100
00111100010111010100010101001110
00111101011000101110100010011000
10111100101110011001001111110111
10111101010000100010101000010001
10111100100001110010100101101010
10111011000011000101111110010111
10111010100000110000011011001110
00111101011101101101010011011001
10111101010010111111011100000000
00111100110001110110011010110101
00111101000010110011010010110001
00111011111100101011101111000000
00111101000001110110100111110100
00111101001011110010010011001010
10111100101110010110110000111101
10111010001111101011001111001101
10111101010111100100101110001001
00111101001010101101111101011010
00111100011111111010111010111011
00111100000110100001000111110100
00111100101100011000001011100001
00111101001001000011101111101010
00111101000011101111011111000101
10111011101010000000010001001000
10111100100001011111010011001111
10111100100110001010000100101110
00111101011000001011010100011111
00111100111000000100110110001010
00111101010010111010011000000001
00111100110111010011101010000111
10111100101101001001010001000010
00111101000001101100100001100000
10111100110111000111001001101101
00111101001000011110011100010110
00111100110001111010101111101101
10111100101011101111110010101011
00111010100001111110101101010100
10111100011000111010001001011111
00111100110101011010110111100111
10111011111011101101100000011000
00111100100011010011011100110010
10111100101000101010111111001010
10111100101110011001000100110101
10111100010110001110001000111111
00111101010101010111000000110011
00111101110001000101100110111011
00111101010000101011100010011001
00111100101101000100010101001100
00111101101100111110100111001111
00111100001101010000111000100100
10111101010111000110110110011010
10111010111011100000001000111101
00111101001000000110100100101100
10111100110001011001011000011110
10111100101011010100011011000110
00111100101111101101111110100001
00111100001000011001001011000110
00111011100011100110111111101111
00111101000110101010001010000110
00111011000000100011001010000010
10111101000111100111000010111010
00111100101101111110101010100011
10111101001010011101011001101001
10111100101110001011000010101111
00111101000100010111100011100011
00111100010010001010000101011111
00111100110001001111100101110111
00111100111100011100000000000010
00111101011100111000011101011011
10111100010001101111111110101111
10111101000011101001010100011101
00111100001000100100111000111110
10111101011011010010111001000111
10111101100001101110111001100101
10111101110001100000110000001101
10111100101001101111101100010111
10111101101010100010101000000101
10111101101010100111101101010010
10111101000111011110001010100101
10111100010010100100100000010010
00111100011011100000000011001110
00111101000110101111100101110110
10111011101010000101010100111010
10111001110101111001101110110000
00111100000010101001001011110101
00111100001001010001011101011101
10111100110111100000011011101011
10111101000011100110101101001000
00111010010010110111001110110011
10111011100111000100010010110011
00111101010001010111001101000111
00111100001000110100101011000010
10111101010001100010110011000111
10111101001100101101011101011111
00111100011101101110110101111011
10111000000100100000010101101100
00111101011010101001001110100010
00111101001101001101111000111110
00111100101110000110011101111000
00111101110001111110001010011100
10111100111001000100101101101010
10111101011010111100100100000100
10111011110000101111111111110110
10111100101101000010110001011010
10111011001100001011011011111110
10111101101011100111001111101101
10111010010111000100010110110010
00111101001000101101010110110100
10111011111111000101000011001000
00111010100000111101110100100000
10111100100110110100110110101011
00111101010001010001101110100110
10111100111111001110010110011111
00111100010111010010001101110010
00111100111110011101110001101110
00111101001000100000001110000011
00111101010011110010100000000110
00111101010111101001111111110100
00111100111110000011110111101010
00111101000101100100011000111001
10111100110110101010011101001101
00111011100010111100000100111101
00111101001011110110101110010000
10111101001100001110110011010111
00111011101100000010101010100101
10111100111111110110100011110001
10111100011101000001111011100101
10111101001010101011110000000001
00111101001111001010010111101111
10111011100011010100010010111101
10111010101001001010010010110100
00111101011101101000111001010011
00111100101100011001011111010101
00111101001011100001011110010001
00111011111111011011101110011000
10111101001000111100000000110001
00111010111100001101000100110111
00111100001100000111101001010110
10111011010101100101000111101000
00111100001100011111011100001101
00111100100110000110101011101100
00111101100100110101010111010111
00111101000001001111100010100011
10111001110011000011101110010101
10111101000001101110101011010111
10111100101010001011100001111011
10111101100000110011111001111111
10111100011001110010111111101101
00111101000010100010110111010101
10111100110101011111101100100001
00111100000101100010010100100001
10111101000110111011001001000101
10111100100100100011011011001011
00111101000111010111001011100101
00111101001011001000110001100111
00111101001000010100100101001111
00111001011100100000011101000101
10111100101110000101010101110010
10111100100100110001010000111111
00111100110000000100000010011110
00111011100100110010100001001100
00111010110010001100100010111011
10111011110011011110110110111000
00111100011011011110100001011001
10111101010100111011000010101010
00111100111101001110010111011011
00111100110010110011000011010010
10111100000001010010110010110010
00111101000111000101100101001100
00111100110010110100000010100100
10111101000000001000111101011111
10111011101010010111100111101001
10111100111000101001000111110100
10111100100100000001000111000000
10111100111001011000101010011100
10111100001100010110000000101000
10111101100001011011001000011011
10111101000101101111010100100000
00111010000010111110011001000110
00111101010010101010101101110100
00111100111001000111010010101010
00111101101011000010100100010011
10111010010011011001010001001111
00111101000100011011000101110110
10111100000001111000011100000101
00111100100000000101101100001010
10111100101011111100001110000001
10111101001101101110101000010010
00111100010001000010011001100101
10111011011000101111010010110101
00111100100100111001001000100000
10111100100010110101110001010110
10111101011111010011011000110100
00111100111101001100000011101010
00111011010011001010100100101000
10111100010111000101010110101000
10111101010101010110001111000010
10111101000000001110101001010001
00111100101100110000100001110010
00111100000101011011000011001011
10111100101101110110000011100011
10111001011111000111101000000010
00111101011110010111000100000100
00111100101100000011110100010100
00111011111001001001111110110011
00111101001010101010010011110000
10111101100010010111111010000000
00111101010000011111000011101111
10111011100110100111011001101010
10111100111111111001001010110100
00111011110100111001011011111100
10111100110000111111110101110101
00111100110000101100101100100001
10111101000100000000100100110011
10111100111100010101110010101001
10111101000100001010101111011011
10111101000011100011000101000001
00111001011011010110011111111100
00111101101101111100100111101000
10111101001101101010100111101011
00111100010110011110111010000111
00111101011101101010001000001001
10111101010110100000001000011111
00111100110111001110101011010011
00111100101100011100001010111101
00111100101010001010111111001100
10111100101111101101001110110001
10111101001101110001110010010101
00111100100010011110010111111011
00111100111010011111001110111100
00111100100111001111010110111011
10111100010010010110111001001010
10111100111100011101001111001110
00111100101010111001011111001100
10111100101110100110100111101000
00111011000101011010101111100110
10111101001010000110011110101100
00111101001000010101001010000000
00111100011110101111000101010011
10111101100101000001011111010110
00111011011010111001010011110100
10111100010100010110110111000010
10111011110000010010100000000011
10111100110000101110110011001010
00111100011111001110011010011110
00111011110110000000010110101010
10111101000111111001100000000010
10111101000000110001010011011001
00111100110111011001010010100111
00111011000010110010000011000000
00111101011011011111000011010111
00111101010110011101000011011100
10111100001001011011011001010101
00111101001100011111000001000101
00111011000010011100111000100010
00111100101000101101110000001101
10111100000110101100100001000111
10111100100001100111001000101101
00111100100111001111100111001001
00111010011101110101100011100110
10111100011110001011110000110011
10111100111111111011010001101101
00111100100011001000111100100111
00111100110000111010000100101100
10111101001100100101011000101100
10111101101001010001011100001010
00111101010111101011000011011101
10111100011100001100101011100011
00111101010111100110011010101111
00111101111000011000111101110001
10111100111110110110101110110101
10111100110011110010111110001010
10111101000001001000101111010110
00111101001011011101010111100001
10111100111110011010000101000001
10111101011011011010010011100001
00111001110001010001111111111010
10111011010001100011011011000010
10111011100100011111010010000101
10111101010010101110010100011110
10111100000100100100001011101001
00111010101011000001011101001100
10111101011001010101010010001011
10111100100010100100010100101100
10111011100001011000000101000111
10111101000111011111101111110011
10111100100111110001001001010000
00111101010010001110101001100011
10111100001101110000010111010011
10111101000000001101100011101001
10111100010110001100100100101011
10111101000000010110010010011010
00111101000100110100011111110101
10111100100011101011100101001000
10111100101001011011000001111100
10111100010101111001101100101111
10111101011101101101110001010101
00111101001011011110100111000001
10111100010101011101101110111001
10111101110101110110111011011101
10111101010100000010011000011000
00111011000000110001001101110101
10111101010110000000101001101010
00111100110011001100100010101000
00111101000011111111101001100110
10111011101010100000111000000001
10111100100010011100011000011011
10111100100010101011111110100011
10111101011011110100101110001001
00111100101100001101111010100100
00111101000110100000001010011111
00111101001111111011101101010001
10111100101010010111101011110100
10111100100100001011011010100000
00111101001101111100000000110000
10111101011100000110000110010001
10111010101010001011000010010110
10111100000000001110010101111011
00111100011010001010101100001011
10111101001001000100011101001000
10111101001011100111011010000100
10111100010110010010110111100011
00111100011100110001001000011000
10111100110110100001111001011001
10111101100000010101001011101110
10111101100110001011101100011000
00111101001110010110011101100010
00111011011100101001011101111101
10111101010000001101111000101011
00111100110110100000001100011100
00111101000110111000100011011010
00111011110101001001010011110110
10111100010001001111111111110101
00111100000111001111111000000110
00111101010100011011111000010110
00111101011010011000100000100011
00111011011001010001001010101011
10111100010011011101110101000100
10111100100011111100011100101001
00111100010101000110111011000101
00111101001010001101110110111100
00111100001111100111101010111100
10111000001010110001100110100011
10111101010010110010110001100011
10111101001010011111111101110001
10111100100110100110100101010001
10111100010100000111110111100100
10111011101010110101011000011001
10111101000101011010101111010101
10111101001011100110111011111111
00111100011110000100100010011000
10111101010000100010011011111000
10111101000101000010110011111010
10111101001101100101100011010100
00111100100001001001000111000011
00111011101101010110010001100100
10111101100101001001001001111010
00111100101110001100010001000111
10111101100010100001000101010100
10111101101001111010111011111101
00111101100111100101101110100101
10111100010111101001001111010100
00111100010000011111000110110000
10111010101111000111010010010000
10111100011111000011010101101100
10111100100100011010100011000101
10111101000010111011011110001110
10111101000111110101000110100000
10111100010100110010111101110001
00111101001101110101101010101110
00111100010001111001100001001001
10111100000011010101011000011111
10111100111001011100101001100001
00111100101101011111101000011010
10111011100010100101000000101110
10111101000100011101010010100111
00111100100001001101111110011100
10111100000100101010101101010100
00111100001010011001000100010001
10111100110101000111011000001010
10111100100011110000001010011010
00111100010011010011101011101110
00111100100110011111000100101101
00111101010000001110101100101001
10111101001011001000110110000101
10111011101100110010010000001111
10111100001001110010100011010101
00111011111000101010110011101110
10111101010011110101110011100111
10111100100001111011010001010110
00111100101001000110110010110011
00111100100010111011101010011010
10111100011110001010111100110001
00111100111000101010110111100111
10111010100110110011010111111010
10111101100000101011001010100001
00111100001111111110110111100000
10111100010011001100011011111101
00111100001000110101001000011110
00111011011010010011101100000101
00111100111001101011011001001100
10111101000001001101110101000010
10111100100011011100001111111110
10111100101011001010111010110010
00111011011010110110111110111111
00111001110111100111010100001111
10111100000101011100011101000000
10111100101001000011010111101011
00111101000110111100000010110100
00111101011001001100101011000001
00111100000110100111010011010011
10111100000111001111011011011111
00111011100011000000101110110001
10111101000110111100110100000111
10111100110111100111001001011010
00111101000100000011101110111101
10111100000011000010111111010010
00111100010110011101010111011111
10111100110111110011010100110001
10111101000101000001111100101010
10111100000110010010100010010111
10111101001111010110101001011000
10111101011010100011110100001010
10111100000011001011001110111110
00111011111000011100001100010101
00111100001100001000010101000010
00111101001100111110110101101111
00111101100010110111000001101001
00111101000100101110101000001101
00111101000011001111001101000100
00111101110010110111101011100111
00111101011111001001000100011010
00111100100101000111001001000100
10111100100111101110011000111101
10111100011100101101010011101100
00111011111101100010010000101000
00111101000011001010110010110010
10111100000111111101010100101010
10111101001011000011000101001111
10111100010100011011010011110010
00111100101100111101110101101011
10111101000111011101001010001000
10111100101111111101000000111000
10111010011001111111001001010101
10111101011100100011110001001110
00111100111010111101011100101101
10111011111110000010110001011011
10111100101111011000110110000111
00111011011001001110011111110000
10111101100010101101001010101100
10111001110101010111110101101010
00111011010101110011000011000011
10111100100110000011101000010001
00111100000110001011011000110110
00111101000010011110100100011100
10111101010100010110110001001010
10111010010011010110000101110010
00111011001101000011000110000111
00111101001001011100010100011101
10111101000100100111111100001010
00111100011110110001110010101111
10111100011111110110000001100110
00111101001000000011010010001111
00111101101001000000001111011011
10111100010111011010110001100101
00111101011101111011111110111001
00111101001101100001001111001100
10111100010001001101100010011110
10111100100110000100011110010101
10111011001101101010101101110100
10111101100101011011100100011001
00111101000100011011000101000000
00111100111110011000010100111110
10111011111111000001000111001001
10111101001010000000101110011111
10111100010011111110010100001000
10111101100011100101010001111111
10111100000001010101101000110111
00111101000111000001000011110100
10111101000011110000001000101111
10111100000100000110101001010000
00111100111001100001010110000100
10111101010110010001010011010111
10111100111111101101010100000010
00111100001100101100001011101101
10111101000111001101001011001111
00111101010101110011011101001100
10111011000100111100101000110001
10111100000011100101000100111011
10111100000101000011010010011010
00111100101011111111010110100101
10111100011110011111001011111001
10111101000101101100011101101000
10111101001000011011110100010110
10111101110011011000000000101011
10111101001000100001000110001000
00111011100010100010101011010110
00111101011010010111010010000010
10111100010101110100101101010011
00111100011001110110011001100110
00111101101011111101011010011001
10111100110100011101100000010111
10111101000010000011110101111000
00111101011001010100011011101000
10111101000001101011101100000000
10111100111100100101101011000101
10111101000011100100000101001001
10111101011011000000100011001110
10111011001001110000110101110100
00111011110010101000011111100100
00111100001111111111000100010111
00111100000011111110111110101101
10111100101001110000100001001010
00111101001010010111111001011101
10111100110000111010010001110100
00111101000011110111010001100111
10111100100011110101011101000011
10111100100000110001001011111110
10111100111000000100000100000000
10111100000100001111100101001101
10111100111000011111110010010010
10111101010011111011110010110111
10111101010100011000110101110010
10111101010100001000001010110111
00111100100110010000011111011011
10111101001100011001001101010100
00111100001001010001010101000010
00111100001000010110100111110001
10111101001110010110111110001111
10111101000011111110111101001100
00111101100111000010100001111100
10111101100011001111111110100001
10111100111100100011010110110100
00111100101010110001110110101010
10111100000101001101110001011010
10111101001101101000111101011110
10111100010110111000111011010011
10111101010010010100110101111111
00111100001110100100001110110110
00111101011000011100010110100111
00111100100100010100000101101110
00111101011110110001000001011011
00111101000101100000000011110010
00111011011011010101010101000101
00111011110001100000111101100001
00111101001011001001100011111101
10111010100010110011010111010111
00111101000101011010100011101110
00111101001100100110010011001001
00111011111101001010110100011100
10111100100001011111101110110000
00111100111010100111101011100101
00111100110000001001010111100011
00111100111001100001111001000000
10111100011010101111001110011001
10111100000111100010011010010110
00111101010100001111001101111110
10111100110111110001110011101010
10111101100010111011101100110111
00111101011110101101100000001111
10111100101100011111000111001001
00111101000011101100100000001101
10111101001100111000011101010110
00111101000000101010001110011111
00111101010101111100100000100110
00111100001001111001101111000101
00111100011100100101101011101001
10111101100101011001010111000101
00111011000111101111001001100000
00111100001110010001011000010101
10111101111011011010100011110001
10111101010111010101010111010110
00111101010100111000110001100000
10111101111111010100111101010100
10111100111010110010000110001110
10111101000111010111111111010101
00111001100100110010101101001110
00111100010111100101110011001001
10111101001010101000101010000100
00111100100101010000111000100001
10111100100100011010100010000101
00111100111010001010001101110001
00111011010010111100011101001001
00111101100010000000100001000101
00111101100001100000100110011100
00111100100110101110100001111000
00111100100110110100010010000101
00111100101111010111100111001001
00111100110011100101000111000100
10111011000011110001000000100101
10111101010100101101000010001100
10111101100101011100101001011000
10111101011110100101100001001010
10111010110011100100010101100001
10111011100110000110011011001011
00111100101001000011000011101101
10111011001100100001100101111000
10111101100010100101100100101001
10111101000110111011110100010010
10111101000010001111101100010111
10111010101011000100110001011000
00111101000101000110110010101000
10111100101010100110011111001011
10111101000000011101111001110110
00111100001101010101101001111110
10111101100111101010100011001001
10111100010010101010001011101110
10111101011110011111000101000100
10111011110000010110101100000100
00111011110100101100000110111111
00111101010110101111101111011100
10111100001001000111100011111010
00111100110101100000110111111100
00111100111100010000101001010100
10111100111111000111010001011110
00111100100100101000110010101111
00111100100111011110010001100011
00111101111001001111100011101010
10111101100100010101000011101110
00111101101001000101111011011010
00111101100011110010110100101000
10111100011110101010011110100010
00111011110111100000101110011010
10111100100111111100100011001010
00111101000101000010110110110001
10111101101101001111011011100100
10111101011101100111101011111110
00111101000111010100011111101000
10111100101100100011000111000101
10111100111001001100001100101001
10111101000101100001001001110011
10111101011111001110010011100101
10111101111010011001111001000011
00111100100111111001001000000010
10111011011001011000001001011100
10111101000110000101011111011101
00111101001000001101110100010010
10111101010000001000000010000010
10111101001011110110110101001100
00111100111011011010101000100111
00111101000111001101101010101100
10111100111100111101000111000100
10111100100111010101101111101001
00111011110100000100111101011010
00111101000100000100111101110100
00111011101111001110001011001011
00111101001100000011001101011100
00111100011100010010011101010011
00111011101100010000101011111001
00111100011101001111101100110010
00111100100101000110101100001001
00111101100100110011110111010110
10111100100011100000110111001001
10111011101011101101100010101100
00111101001001110111001100101100
00111101101011011111111001100111
10111100001011111111110011110110
10111100010111100011000010101001
10111100001111000110001000001001
00111100011111010100110011101110
10111100011010100001110010000111
10111011011000111000101010010101
10111101001001000001111111011100
00111100010101110111001101001001
10111100010001111010100010110000
10111100011110000110010000000100
10111101000101001011101110010000
00111101001010111111100110001101
00111101001101100110111111100011
00111101000111011010010101000100
00111101100011110111010110110001
00111100001101101011000001111011
10111100111101011011101100101000
10111001110011011010011011010100
10111100111011000001010010011100
00111101100011000000010100001101
10111100001110100001101010010111
10111100110110001001000000000111
10111100100011010110111111101010
10111100101010111100100101010001
10111101001001100100011010110001
10111101010000010010111101010011
10111101100101000011101000001001
10111101000100100100110101001111
00111011001111000111011010110011
10111100110111001110111110001100
00111100100001000000101010111110
00111101010010000111001100000101
00111100001111001100111111100010
10111101000001000010110100000010
00111100100101001111000000111101
00111100001001100011000100010011
00111100100110000011000001010111
00111100110111110111010100111000
10111011100010010101011111110010
00111101000011010111010001001110
00111011110001110011110101100010
00111101000111110111100010001110
10111100100101101111110011000001
10111100100100000010100101110001
10111100101010110000101000110100
00111101110000010001000000000010
00111100110000011011011011011110
10111011101111001000000010010111
10111101011001001001110100001001
00111011101111110001001100010111
10111100111010010100001000110101
00111100100101010000110100110101
00111100100101110111101100001100
10111100010011010101001111000011
00111011010100111110011110011101
00111011001110001101010011101111
10111101010101001001101010110111
00111100000100000101000010000101
00111011001100011010011001000001
00111011101001000110001011010110
10111100110000011110100101100110
00111101000001101001101100001110
10111100110000100000001011101011
10111100110010001010000100001111
10111101101100100000111011101000
10111101010010011101001101110011
00111100100000010011101101101000
00111011100000000001101110001110
00111100101000000101101110101101
00111101101001111110101100010101
00111011010101001001100110011100
10111100111111100111100011011110
10111010101100000011100101000111
10111100100110101111000110101110
10111101001111001110100001011010
00111100111011001100000001111011
00111100010011010100110010001100
10111101100001010010101111010001
10111101000101100001001000001011
00111101000111111000100001010100
00111100100110000010000010101000
00111100011111001101010001111110
10111100110010011111010011101000
10111100101011101000001111110001
00111101100010010110011001001111
10111100000000011001110110011011
10111011110101000000010101011011
10111101010010011110010011010011
00111100111111000001011000100100
10111100110000011100100011100101
00111100011000101001110000101011
10111100100010001010011001101111
10111101001000011011101100101101
00111100101011010010111011010111
00111100011100011111010000001100
10111101000101101010000011010111
00111101000100001100101110101101
00111010101100110110010010101000
10111100101001010100100110110000
00111100011011100000110110000011
10111101000100010100111010011010
10111100100101000111011011110001
10111101000010110110111010010010
10111100111111001110111111111001
00111100001001111001000011101001
00111101011011100010011100110001
00111100010111001011000000010101
10111100101011010010010011011001
00111101011010010011011100010100
10111101001001110101011111001110
10111101000000101000011010111111
10111100000000001010101111001000
00111100101100101011001011000110
10111100111000000101101101111010
10111101000001111001100101101101
00111101000110110010011100100001
00111101010001010001101010001110
10111100111110001110010001001010
00111100100010010100101110010100
10111100100011111001101011010010
10111100101010111110100001111011
00111010100010101101110110110010
10111100000110101100101100011001
10111101000111000001001001110101
10111011000010101010011011011010
10111101100000010001001001101110
10111100110010101100101100011100
